{"version":"1.0","truncation":null,"padding":null,"added_tokens":[{"id":0,"special":true,"content":"<unk>","single_word":false,"lstrip":false,"rstrip":false,"normalized":false},{"id":1,"special":true,"content":"<pad>","single_word":false,"lstrip":false,"rstrip":false,"normalized":false},{"id":2,"special":true,"content":"<s>","single_word":false,"lstrip":false,"rstrip":false,"normalized":false},{"id":3,"special":true,"content":"</s>","single_word":false,"lstrip":false,"rstrip":false,"normalized":false}],"normalizer":null,"pre_tokenizer":{"type":"ByteLevel","add_prefix_space":true,"trim_offsets":true},"post_processor":{"type":"BertProcessing","sep":["</s>",3],"cls":["<s>",2]},"decoder":null,"model":{"type":"BPE","dropout":null,"unk_token":"<unk>","continuing_subword_prefix":null,"end_of_word_suffix":null,"fuse_unk":false,"vocab":{"<unk>":0,"<pad>":1,"<s>":2,"</s>":3,"!":4,"\"":5,"#":6,"$":7,"%":8,"&":9,"'":10,"(":11,")":12,"*":13,"+":14,",":15,"-":16,".":17,"/":18,"0":19,"1":20,"2":21,"3":22,"4":23,"5":24,"6":25,"7":26,"8":27,"9":28,":":29,";":30,"<":31,"=":32,">":33,"?":34,"@":35,"A":36,"B":37,"C":38,"D":39,"E":40,"F":41,"G":42,"H":43,"I":44,"J":45,"K":46,"L":47,"M":48,"N":49,"O":50,"P":51,"Q":52,"R":53,"S":54,"T":55,"U":56,"V":57,"W":58,"X":59,"Y":60,"Z":61,"[":62,"\\":63,"]":64,"^":65,"_":66,"`":67,"a":68,"b":69,"c":70,"d":71,"e":72,"f":73,"g":74,"h":75,"i":76,"j":77,"k":78,"l":79,"m":80,"n":81,"o":82,"p":83,"q":84,"r":85,"s":86,"t":87,"u":88,"v":89,"w":90,"x":91,"y":92,"z":93,"{":94,"|":95,"}":96,"~":97,"¡":98,"¢":99,"£":100,"¤":101,"¥":102,"¦":103,"§":104,"¨":105,"©":106,"ª":107,"«":108,"¬":109,"®":110,"¯":111,"°":112,"±":113,"²":114,"³":115,"´":116,"µ":117,"¶":118,"·":119,"¸":120,"¹":121,"º":122,"»":123,"¼":124,"½":125,"¾":126,"¿":127,"Â":128,"Ã":129,"Ä":130,"Å":131,"Æ":132,"Ç":133,"È":134,"É":135,"Ê":136,"Ë":137,"Ì":138,"Í":139,"Î":140,"Ï":141,"Ð":142,"Ñ":143,"Ò":144,"×":145,"Ø":146,"Ù":147,"à":148,"á":149,"â":150,"ã":151,"ä":152,"å":153,"æ":154,"ç":155,"è":156,"é":157,"ê":158,"ë":159,"ì":160,"í":161,"ï":162,"ð":163,"Ă":164,"ă":165,"ĉ":166,"Ċ":167,"č":168,"ě":169,"ğ":170,"Ġ":171,"Ģ":172,"ģ":173,"Ĥ":174,"ĥ":175,"Ħ":176,"ħ":177,"Ĩ":178,"ĩ":179,"Ī":180,"ī":181,"Ĭ":182,"ĭ":183,"Į":184,"į":185,"İ":186,"ı":187,"Ĳ":188,"ĳ":189,"Ĵ":190,"ĵ":191,"Ķ":192,"ķ":193,"ĸ":194,"Ĺ":195,"ĺ":196,"Ļ":197,"ļ":198,"Ľ":199,"ľ":200,"Ŀ":201,"ŀ":202,"Ł":203,"ł":204,"Ń":205,"ĠĠ":206,"ĠĠĠĠ":207,"ĠĠĠ":208,"ĠĠĠĠĠĠĠ":209,"se":210,"in":211,"re":212,"ĠĠĠĠĠĠĠĠ":213,"on":214,"at":215,"Ġt":216,"er":217,"or":218,"st":219,"Ġa":220,"en":221,"Ġ=":222,"Ġi":223,"ĠĠĠĠĠĠĠĠĠĠĠ":224,"de":225,"he":226,"\"\"":227,"le":228,"ar":229,"me":230,"Ġf":231,"al":232,"Ġc":233,"Ġre":234,"lf":235,"self":236,"ion":237,"ĠĊ":238,"ur":239,"Ġp":240,"Ġthe":241,"Ġn":242,"it":243,"ct":244,"Ġin":245,"an":246,"Ġo":247,"ce":248,"Ġs":249,"ge":250,"ro":251,"ame":252,"Ġe":253,"Ġif":254,"ing":255,"):":256,"ut":257,"\"\"\"":258,"Ġself":259,"ue":260,"lo":261,"urn":262,"Ġd":263,"Ġb":264,"Ġde":265,"turn":266,"ent":267,"Ġ'":268,"--":269,"ĠĠĠĠĠĠĠĠĠĠĠĠĠĠĠĠ":270,"pe":271,"Ġ\"\"\"":272,"Ġw":273,"ate":274,"li":275,"fi":276,"ss":277,"un":278,"ot":279,"ĠĠĠĠĠĠĠĠĠĠĠĠĠĠĠ":280,"Ġm":281,"Ġto":282,"ra":283,"Ġreturn":284,"id":285,"Ġfor":286,"Ġdef":287,"Ġ#":288,"ed":289,"co":290,"mp":291,"Ġis":292,"ad":293,"one":294,"val":295,"ul":296,"Ġof":297,"Ġan":298,"la":299,"Ġst":300,"pt":301,"ata":302,"Ġ:":303,"ch":304,"get":305,"ke":306,"()":307,"ri":308,"il":309,"ype":310,"name":311,"Ġ(":312,"is":313,"ter":314,"None":315,"um":316,"ĠT":317,"es":318,"ck":319,"._":320,"di":321,"ex":322,"Ġnot":323,"am":324,"Ġse":325,"el":326,"ation":327,"Ġco":328,"ath":329,"up":330,"gs":331,"ver":332,"as":333,"Ġ\"":334,"Ġcon":335,"th":336,"par":337,"value":338,"Ġand":339,"ction":340,"Ġth":341,"ult":342,"Ġex":343,"))":344,"ma":345,"----":346,"('":347,"ror":348,"',":349,"ve":350,"con":351,"key":352,"Ġh":353,"type":354,"Ġl":355,"Ġbe":356,"ol":357,"ble":358,"ode":359,"Ġfi":360,"ser":361,"['":362,"']":363,"list":364,"Ġg":365,"end":366,"orm":367,"ĠNone":368,"ime":369,"ect":370,"ith":371,"Ġor":372,"bj":373,"ĠA":374,"pp":375,"Re":376,"int":377,"ĠĠĠĠĠĠĠĠĠĠĠĠĠĠĠĠĠĠĠ":378,"and":379,"ta":380,"Ġ_":381,"to":382,"ption":383,"path":384,"Ġu":385,"sp":386,"ext":387,"age":388,"Ġ`":389,"od":390,"iz":391,"ort":392,"Ġlo":393,"Ġ+":394,"param":395,"ĠI":396,"')":397,"qu":398,"Ġdi":399,"te":400,"ment":401,"ig":402,"rom":403,"ise":404,"form":405,"Ġ[":406,"Ġstr":407,"file":408,"vi":409,"Ġel":410,"Ġ1":411,"Ġdata":412,"set":413,"Ġme":414,"Ġ{":415,"str":416,"args":417,"Ġ*":418,"Ġelse":419,"Ġas":420,"rror":421,"Error":422,"Ġvalue":423,"ly":424,"ance":425,"ren":426,"Ġr":427,"Ġ%":428,"ĠS":429,"(\"":430,"Ġ-":431,"et":432,"Ġname":433,"':":434,"data":435,"ĠC":436,"po":437,"Ġpro":438,"ry":439,"que":440,"Ġwith":441,"put":442,"ĠĠĠĠĠ":443,"Ġpar":444,"rue":445,"Ġra":446,"res":447,"Ġar":448,"Ġal":449,"Ġ0":450,"Ġ==":451,"ase":452,"ine":453,"able":454,"ord":455,"Ġfile":456,"che":457,"ub":458,"ĠP":459,"Ġres":460,"ite":461,"ĠF":462,"ew":463,"bject":464,"stance":465,">>":466,"Ġfrom":467,"ist":468,"ic":469,"ers":470,"out":471,"Ġlist":472,"fig":473,"ĠThe":474,"us":475,"ĠRe":476,"ack":477,"Ġma":478,"Ġraise":479,"ts":480,"all":481,"ize":482,"ow":483,"red":484,"fo":485,"alse":486,"eld":487,"pro":488,"ci":489,"per":490,"att":491,"mple":492,"Ġv":493,"time":494,"our":495,"),":496,"quest":497,"format":498,"ms":499,"app":500,"Ġkey":501,"ault":502,"\",":503,"Ġon":504,"kw":505,"date":506,"Ġget":507,"ure":508,"dex":509,"art":510,"ĠĠĠĠĠĠĠĠĠĠĠĠĠĠĠĠĠĠĠĠĠĠĠĠĠĠĠĠĠĠĠĠ":511,"Ġthat":512,"rent":513,"ran":514,"ĠD":515,"Ġwh":516,"sion":517,"Ġch":518,"ource":519,"ray":520,"code":521,"..":522,"url":523,"kwargs":524,"ff":525,"iv":526,"lass":527,"ind":528,"sed":529,"Ġout":530,"turns":531,"``":532,"\")":533,"Ġy":534,"Ġlog":535,"cess":536,"und":537,"Ġthis":538,"ĠE":539,"sh":540,"text":541,"ill":542,"Ġexce":543,"Ġlen":544,"jo":545,"sc":546,"])":547,"Ġset":548,"atch":549,"error":550,"Ġ``":551,"ameter":552,"len":553,"''":554,"ger":555,"mm":556,"ust":557,"ile":558,"oc":559,"reate":560,"Ġby":561,"ctor":562,"pre":563,"Ġpa":564,"ug":565,"unt":566,"Ġx":567,"Ġen":568,"dd":569,"odel":570,"Ġpo":571,"Ġsh":572,"ip":573,"Ġresult":574,"ĠN":575,"mo":576,"pa":577,"ition":578,"ht":579,"Ġobject":580,"unction":581,"spon":582,"Ġ2":583,"00":584,"add":585,"cl":586,"ssage":587,"thod":588,"ary":589,"Ġare":590,"append":591,"ive":592,"py":593,"Ġit":594,"ity":595,"instance":596,"ces":597,"im":598,"Ġtime":599,"],":600,"read":601,"ber":602,"ĠTrue":603,"low":604,"Ġtry":605,"ument":606,"Ġnew":607,"col":608,"ĠĠĠĠĠĠĠĠĠĠĠĠĠĠĠĠĠĠĠĠĠĠĠ":609,"valid":610,"ssion":611,"bo":612,"Ġpath":613,"pi":614,"ĠIf":615,"der":616,"ule":617,"Ġexcept":618,"Ġcol":619,"ute":620,"Ġwe":621,"Ġtype":622,"dict":623,"ample":624,"dir":625,"Ġstring":626,"lif":627,"ange":628,"Ġhe":629,"__":630,"Ġro":631,"om":632,"ĠM":633,"Ġwill":634,"ded":635,"vent":636,"Ġall":637,"Ġpre":638,"op":639,"rib":640,"sponse":641,"ĠV":642,"ĠReturns":643,"Ġla":644,"roup":645,"ator":646,"log":647,"version":648,"rint":649,"Ġ**":650,").":651,"Ġun":652,"ign":653,"Ġelif":654,"Ġ>>":655,"ca":656,"info":657,"ph":658,"Ġnum":659,"Ġ'''":660,"--------":661,"Ġ)":662,"ork":663,"port":664,"Ġ{}":665,"ild":666,"Ġ>>>":667,"čĊ":668,"ĠR":669,"ask":670,"ĠO":671,"ari":672,"ĠL":673,"ery":674,"ĠFalse":675,"Ġnp":676,"ken":677,"attr":678,"ave":679,"ĠĠĠĠĠĠĠĠĠĠĠĠĠĠĠĠĠĠĠĠĠĠĠĠ":680,"Ġspe":681,"ĠU":682,"='":683,"load":684,"Ġcont":685,"Ġint":686,"Ġrequest":687,"ĠG":688,"ameters":689,"update":690,"Ġos":691,".\"\"\"":692,"'.":693,"urrent":694,"Ġisinstance":695,"Ġfunction":696,"js":697,"class":698,"ore":699,"True":700,"fe":701,"mb":702,"heck":703,"lock":704,"mage":705,"Ġ<":706,"config":707,"ape":708,"vice":709,"cation":710,"\":":711,"Ġdefault":712,"ated":713,"In":714,"Ġuser":715,"bel":716,"lient":717,"ys":718,"size":719,"tain":720,"rans":721,"Ġĉ":722,"ial":723,"ne":724,"Ġid":725,"iven":726,"sen":727,"pla":728,"join":729,"alue":730,"fa":731,"ps":732,"():":733,"query":734,"Ġdo":735,"Ġfil":736,"Ġoption":737,"ĠW":738,"lit":739,"==":740,"json":741,"ost":742,"Ġhas":743,"False":744,"Ġadd":745,"gument":746,"Ġdict":747,"ok":748,"Ġmethod":749,"Ġconfig":750,"ĠTh":751,"Ġk":752,"min":753,"Ġbo":754,"def":755,"ener":756,"rite":757,"line":758,"ĠĠĠĠĠĠ":759,"umn":760,"mmand":761,"loat":762,"tra":763,"[\"":764,"ther":765,"index":766,"arget":767,"ies":768,"atus":769,"Ġ[]":770,"Ġsub":771,"os":772,"uld":773,"Ġ>":774,"string":775,"Ġspeci":776,"Ġgiven":777,"Ġnode":778,"array":779,"mport":780,"Ġcan":781,"mat":782,"uth":783,"lement":784,".__":785,"ĠB":786,"unc":787,"ception":788,"Ġline":789,"ER":790,"Ġret":791,"Ġprint":792,"cal":793,"ste":794,"Ġte":795,"ĠThis":796,"ag":797,"odule":798,"Ġuse":799,"node":800,"Ġle":801,"ting":802,"Ġat":803,"ant":804,"word":805,"ifi":806,"ON":807,"Ġoutput":808,"gth":809,"if":810,"Ġcomp":811,"Ġfield":812,"ĠEx":813,"Ġ+=":814,"ir":815,"obj":816,"num":817,"Ġresponse":818,"ard":819,"return":820,"base":821,"back":822,"own":823,":`":824,"ty":825,"Ġapp":826,"ress":827,"Ġvalues":828,"Con":829,"Ġerror":830,"ates":831,"\"]":832,"lin":833,"user":834,"not":835,"Ġne":836,"ec":837,"ll":838,"mpl":839,"ould":840,"ader":841,"Ġite":842,"fix":843,"\".":844,"ĠAr":845,"ich":846,"bug":847,"rame":848,"ĠValue":849,"count":850,"Ġmessage":851,"cord":852,"ab":853,"gra":854,"qui":855,"ĠĠĠĠĠĠĠĠĠ":856,"mit":857,"by":858,"ĠH":859,"scri":860,"uple":861,"field":862,"Ġ..":863,"da":864,"IN":865,"Ġli":866,"Ġstart":867,"ree":868,"ump":869,"Ġmax":870,"ĠValueError":871,"start":872,"Ġcurrent":873,"ning":874,"arch":875,"tern":876,"ĠIn":877,"vert":878,"Ġspecifi":879,"yn":880,"ach":881,"Ġser":882,"ml":883,"Ġcheck":884,"Ġwhich":885,"bu":886,"point":887,"ĠPar":888,"ound":889,"rst":890,"vel":891,"Ġmodel":892,"Ġ--------":893,"Ġinstance":894,"Ġcontain":895,"request":896,"Ġindex":897,"wa":898,"Ġinput":899,"split":900,"Ġnumber":901,"].":902,"Ġ3":903,"Ġno":904,"Ġac":905,"Ġ/":906,"Ġso":907,"Ġfa":908,"Ġargs":909,"max":910,"md":911,"Ġcall":912,"sub":913,"ctory":914,"ude":915,"Ġimport":916,"{}":917,"attrib":918,"ory":919,"work":920,"from":921,"'s":922,"lic":923,"Ex":924,"Ġ!":925,"ls":926,"Ġused":927,"Ġarray":928,"sert":929,"Ġcreate":930,"tri":931,"ence":932,"tt":933,"uct":934,"cur":935,"result":936,"group":937,"Ġ\\":938,"AT":939,"pos":940,"Ġ!=":941,"ket":942,"ream":943,"Ġend":944,"ding":945,"Ġone":946,"state":947,"move":948,"St":949,"model":950,"ST":951,"ses":952,"Ġurl":953,"comp":954,"ations":955,"ep":956,"([":957,"ac":958,"sor":959,"ull":960,"map":961,"debug":962,"we":963,"act":964,"ariable":965,"Ġparam":966,"default":967,"())":968,"pen":969,"Ġbase":970,"iter":971,"items":972,"Ġpass":973,"Ġz":974,"params":975,"ils":976,"RE":977,"Ġrun":978,"ds":979,"object":980,"Ġbu":981,"ject":982,"cont":983,"sing":984,"Ġ|":985,"ĠArgs":986,"Ġper":987,"Ġdire":988,"nel":989,"Ġca":990,"for":991,"write":992,"ang":993,"option":994,"Ġent":995,"values":996,"its":997,"place":998,"Ġargument":999,"nection":1000,"Ġvalid":1001,"led":1002,"Ġkwargs":1003,"ron":1004,"run":1005,"Ġstate":1006,"Ġfloat":1007,"row":1008,"og":1009,"Ġcode":1010,"ield":1011,"Ġmust":1012,"Ġtext":1013,"Ġhave":1014,"Ġexist":1015,"ature":1016,"lot":1017,"**":1018,"Ġdis":1019,"pect":1020,"Ġevent":1021,"aders":1022,"shape":1023,"ual":1024,"Ġsu":1025,"andl":1026,"ĠParameters":1027,"ight":1028,"cs":1029,"job":1030,"Ġonly":1031,"Ġversion":1032,"ename":1033,"reg":1034,"Ġshould":1035,"tes":1036,"Ġreg":1037,"spa":1038,"filen":1039,"ical":1040,"Ġlogger":1041,"Ġcal":1042,"mplate":1043,"Ġquery":1044,"ote":1045,"Ġrange":1046,"Ġ}":1047,"ĠĠĠĠĠĠĠĠĠĠĠĠĠĠĠĠĠĠĠĠĠĠĠĠĠĠĠ":1048,"Ġitem":1049,"with":1050,"thon":1051,"=\"":1052,"Ġlin":1053,"'t":1054,"ou":1055,"Ġ----------":1056,"adata":1057,"action":1058,"Ġeach":1059,"'):":1060,"Ġany":1061,"Ġj":1062,"filename":1063,"Ġmatch":1064,"andle":1065,"Ġimage":1066,"Ġformat":1067,"Ġax":1068,"inal":1069,"Ġpy":1070,"fil":1071,"message":1072,"ments":1073,"ak":1074,"Ġother":1075,"token":1076,"ension":1077,"Ke":1078,"Ġmat":1079,"ef":1080,"Ġtarget":1081,"func":1082,"label":1083,"[:":1084,"Ġcolumn":1085,"keys":1086,"nd":1087,"Ġread":1088,"Ġup":1089,"lable":1090,"Ġinter":1091,"Ġmin":1092,"lect":1093,"##":1094,"ents":1095,"Ġclass":1096,"Ġsup":1097,"ax":1098,"Ġtrans":1099,"ched":1100,"gn":1101,"names":1102,"Ġinto":1103,"Ġspecified":1104,"Ġrow":1105,"feren":1106,"Ġoptional":1107,"Ġcommand":1108,"Ġsource":1109,"status":1110,"Ġdate":1111,"Ġwhe":1112,"clude":1113,"Ġfilename":1114,"Ġ@":1115,"lob":1116,"lat":1117,"inter":1118,"parse":1119,"Ġfirst":1120,"tadata":1121,"lib":1122,"main":1123,"ix":1124,"lay":1125,"igh":1126,"LE":1127,"Type":1128,"lection":1129,"Ġelement":1130,"uration":1131,"Ġparams":1132,"Ġ----":1133,"ref":1134,"Ġfiles":1135,"ME":1136,"ctionary":1137,"so":1138,"com":1139,"Ġtra":1140,"Ġover":1141,"ution":1142,"ap":1143,"ID":1144,"Ġupdate":1145,"Ġtuple":1146,"Key":1147,"view":1148,"Ġwhen":1149,"call":1150,"Ġtoken":1151,"Ġgroup":1152,"space":1153,"ft":1154,"Ġbool":1155,"alt":1156,"client":1157,"ĠCon":1158,"sg":1159,"'],":1160,"output":1161,"item":1162,"av":1163,"check":1164,"idth":1165,"annel":1166,"rip":1167,"filter":1168,"arg":1169,"new":1170,"::":1171,"types":1172,"Ġopen":1173,"OR":1174,"df":1175,"Ġsize":1176,"nect":1177,"block":1178,"lete":1179,"ackage":1180,"andler":1181,"ash":1182,"api":1183,"Ġfound":1184,"amples":1185,"spe":1186,"Ġĉĉ":1187,"table":1188,"si":1189,"sum":1190,"ging":1191,"Ġtable":1192,"utes":1193,"scription":1194,"sent":1195,"Ġattrib":1196,"pts":1197,"itial":1198,"lean":1199,"Ġobj":1200,"ain":1201,"Ġgener":1202,"Ġpos":1203,"input":1204,"---":1205,"ries":1206,"process":1207,"response":1208,"Ġdoc":1209,"Ġ4":1210,"ids":1211,"be":1212,"yste":1213,"arning":1214,"//":1215,"DE":1216,"source":1217,"np":1218,"().":1219,"ody":1220,"Ġlabel":1221,"orre":1222,"itle":1223,"Ġmodule":1224,"Ġ->":1225,"mi":1226,"Ġcontext":1227,"Name":1228,"doc":1229,"clo":1230,"Ġcontin":1231,"tings":1232,"event":1233,"create":1234,"do":1235,"((":1236,"====":1237,"use":1238,"cre":1239,"Ġwork":1240,"Ġdoes":1241,"Ġsp":1242,"rix":1243,"Ġ{'":1244,"host":1245,"PI":1246,"ark":1247,"rc":1248,"files":1249,"msg":1250,"ong":1251,"'])":1252,"Ġiter":1253,"Data":1254,"(),":1255,"rig":1256,"Get":1257,"etwork":1258,"cls":1259,"bs":1260,"Ġpoint":1261,"unk":1262,"ormal":1263,"oth":1264,"Ġfilter":1265,"sta":1266,"Par":1267,"Ġpart":1268,"ystem":1269,"umpy":1270,"module":1271,"ĠJ":1272,"Ġclient":1273,"old":1274,"ized":1275,"Ġcontinue":1276,"var":1277,"length":1278,"Co":1279,"db":1280,"ures":1281,"Ġmsg":1282,"ference":1283,"rid":1284,"quence":1285,"`.":1286,"://":1287,"Ġdictionary":1288,"Ġusing":1289,"image":1290,"Pro":1291,"chema":1292,"Ġjson":1293,"Ġsign":1294,"rtype":1295,"iled":1296,"resh":1297,"cy":1298,"ume":1299,"01":1300,"Ġbut":1301,"dire":1302,"Ġass":1303,"off":1304,"Ġgra":1305,"err":1306,"ches":1307,"lug":1308,"ay":1309,"Ġresource":1310,"method":1311,"raw":1312,"Ġvariable":1313,"Ġ-------":1314,"ĠĠĠĠĠĠĠĠĠĠ":1315,"andom":1316,"auth":1317,"Ġmo":1318,"context":1319,"dis":1320,"Ġ...":1321,"Ġcontent":1322,"ĠX":1323,"Id":1324,"Ġlength":1325,"core":1326,"Ġcls":1327,"attern":1328,"Ġthen":1329,"AL":1330,"][":1331,"Ġyield":1332,"Ġsort":1333,"ped":1334,"ai":1335,"session":1336,"Ġrequi":1337,"pping":1338,"target":1339,"queue":1340,")))":1341,"Ġassert":1342,"Ġta":1343,"ast":1344,"rial":1345,"match":1346,"Ġwhile":1347,"Ġresults":1348,"ome":1349,"trans":1350,"Ġprocess":1351,"SE":1352,"Ġdirectory":1353,"ins":1354,"ĠSe":1355,"no":1356,"mpty":1357,"column":1358,"]:":1359,"AR":1360,"pend":1361,"Ġreturns":1362,"nt":1363,"Ġfe":1364,"utils":1365,"Ġtask":1366,"tag":1367,"Ġblock":1368,"Ġ__":1369,"ats":1370,"Ġrecord":1371,"indow":1372,"Res":1373,"Ġprovi":1374,"content":1375,"ous":1376,"ready":1377,"Ġserver":1378,"ify":1379,"Ġarguments":1380,"Ġauth":1381,"Se":1382,"entifi":1383,"link":1384,"otal":1385,"Ġstatus":1386,"Ġform":1387,"Ġwas":1388,"options":1389,"level":1390,"fore":1391,"TE":1392,"Ġparameters":1393,"cent":1394,"viron":1395,"root":1396,"Ġback":1397,"Ġhost":1398,"ĠException":1399,"pri":1400,"Ġuni":1401,"Ġav":1402,"ors":1403,"Ġextra":1404,"ĠĠĠĠĠĠĠĠĠĠĠĠĠ":1405,"ved":1406,"let":1407,"ises":1408,"Ġdefin":1409,"Ġver":1410,"ating":1411,"Ġnames":1412,"reak":1413,"idx":1414,"coding":1415,"Ġval":1416,"Ġext":1417,"command":1418,"Ġorder":1419,"Ġcur":1420,"find":1421,"ud":1422,"ccess":1423,"cul":1424,"float":1425,"Ġact":1426,"ld":1427,"Ġlast":1428,"cket":1429,"Ġoper":1430,"Ġqu":1431,"io":1432,"face":1433,"Ġproper":1434,"Ġoff":1435,"File":1436,"ns":1437,"Ġyou":1438,"Ġjob":1439,"Ġsame":1440,"part":1441,"ible":1442,"mt":1443,"Ġparameter":1444,"Ġcorre":1445,"Ġcase":1446,"Ġoptions":1447,"Ġreturned":1448,"ner":1449,"formation":1450,"of":1451,"Ġad":1452,"Set":1453,"ĠGet":1454,"pr":1455,"mbda":1456,"cate":1457,"cond":1458,"les":1459,"Ġsc":1460,"resource":1461,"Ġsys":1462,"lines":1463,"Ġarg":1464,"ensor":1465,"fter":1466,"sign":1467,"man":1468,"play":1469,"Ġindi":1470,"Ġsession":1471,"uri":1472,"Ġchar":1473,"Ġ.":1474,"cache":1475,"tx":1476,"Ġkeys":1477,"Ġtimeout":1478,"RL":1479,"Ġneed":1480,"Ġaction":1481,"Ġchange":1482,"(*":1483,"current":1484,"'))":1485,"iss":1486,"ization":1487,"ync":1488,"strip":1489,"ffer":1490,")]":1491,"Ġmake":1492,"temp":1493,"are":1494,"Return":1495,"ĠReturn":1496,"stamp":1497,"Ġ['":1498,"Ġheader":1499,"imum":1500,"ĠSt":1501,"ick":1502,"TI":1503,"pop":1504,"efault":1505,"Ġwhere":1506,"ĠAn":1507,"ĠID":1508,"Ġparent":1509,"Ġpage":1510,"frame":1511,"vid":1512,"itions":1513,"cmd":1514,"Ġshape":1515,"ert":1516,"Ġexception":1517,"Ġpri":1518,"Ġmult":1519,"wise":1520,"env":1521,"Ġfind":1522,"copy":1523,"Ġport":1524,"PE":1525,"Ġtag":1526,"ĠĠĠĠĠĠĠĠĠĠĠĠ":1527,"ĠCo":1528,"Ġfol":1529,"Ġmode":1530,"Ġrepre":1531,"arts":1532,"Ġload":1533,"Ġcount":1534,"Ġalready":1535,"range":1536,"lp":1537,"rit":1538,"ailable":1539,"ĠType":1540,"Ġtf":1541,"dim":1542,"task":1543,"number":1544,"Un":1545,"Ġ5":1546,"su":1547,"64":1548,"10":1549,"stream":1550,"Ġheaders":1551,"xy":1552,"exist":1553,"Ġed":1554,"Ġ('":1555,"ĠQ":1556,"Ġlocal":1557,"Ġ--":1558,"replace":1559,"Ġhtt":1560,"Ġservice":1561,"De":1562,"Ġsing":1563,"Ġnext":1564,"fields":1565,"Ġparse":1566,"Ġchild":1567,"Ġallow":1568,"Ar":1569,"ager":1570,"function":1571,"header":1572,"htt":1573,"lobal":1574,"lower":1575,"[-":1576,"prefix":1577,"mail":1578,"Ġbreak":1579,"right":1580,"lication":1581,"Ġag":1582,"cor":1583,"las":1584,"ho":1585,"Ġstream":1586,"change":1587,"Ġroot":1588,"AN":1589,"ĠKey":1590,"store":1591,"Ġconnection":1592,")):":1593,"graph":1594,"Ġq":1595,"address":1596,"Ġman":1597,"last":1598,"Ġtemplate":1599,"Ġprovided":1600,"Ġlogging":1601,"Ġentry":1602,"Ġnumpy":1603,"Exception":1604,"Ġdtype":1605,"returns":1606,"ols":1607,"ustom":1608,"ties":1609,"EN":1610,"Ġfunc":1611,"mission":1612,"print":1613,"ell":1614,"assed":1615,"Ġexec":1616,"Ġcmd":1617,"limit":1618,"parent":1619,"exception":1620,"conds":1621,"Ġobjects":1622,"Ġaxis":1623,"lan":1624,"plot":1625,"du":1626,"wait":1627,"AC":1628,"Ġthere":1629,"Ġorig":1630,"entifier":1631,"})":1632,"Ġparser":1633,"order":1634,"Ġfields":1635,"Ġ'.":1636,"Ġdiff":1637,"server":1638,"OG":1639,"yload":1640,"Ġinfo":1641,"uid":1642,"width":1643,"ĠĠĠĠĠĠĠĠĠĠĠĠĠĠĠĠĠ":1644,"FI":1645,"Ġtw":1646,"'),":1647,"Ġtest":1648,"struct":1649,"mplement":1650,"lease":1651,"open":1652,"rt":1653,"Ġsingle":1654,"List":1655,"mary":1656,"rap":1657,"TP":1658,"ose":1659,"child":1660,"Ġref":1661,"Ġthan":1662,"32":1663,"ternal":1664,"like":1665,"pected":1666,"Ġits":1667,"ring":1668,"ĠĠĠĠĠĠĠĠĠĠĠĠĠĠĠĠĠĠĠĠĠĠĠĠĠĠĠĠĠĠĠ":1669,"mote":1670,"Ġinte":1671,"exec":1672,"vector":1673,"Ġmore":1674,"mode":1675,"Ġsupport":1676,"script":1677,"page":1678,"Ġcontaining":1679,"Ġenum":1680,"Ġlevel":1681,"headers":1682,"ential":1683,"DO":1684,"gment":1685,"Ġattribute":1686,"pass":1687,"encode":1688,"top":1689,"erge":1690,"Ġsearch":1691,"ative":1692,"cept":1693,"Ġmetadata":1694,"Ġpassed":1695,"Ġlines":1696,"Ġcolor":1697,"(_":1698,"element":1699,"comm":1700,"']:":1701,"ency":1702,"ocket":1703,"`,":1704,"SS":1705,"Me":1706,"LI":1707,"Ġinformation":1708,"Ġcache":1709,"Ġmay":1710,"Ġprefix":1711,"Ġinst":1712,"Ġitems":1713,"Ġbet":1714,"atures":1715,"Ser":1716,"vis":1717,"cope":1718,"pper":1719,"offset":1720,"Ġattr":1721,"Ġremove":1722,"ib":1723,"search":1724,"Ġoffset":1725,"To":1726,"fn":1727,"Ġdel":1728,"Ġlay":1729,"nown":1730,"try":1731,"color":1732,"Ġnon":1733,".\")":1734,".')":1735,"ĠĠĠĠĠĠĠĠĠĠĠĠĠĠ":1736,"-+":1737,"Di":1738,"ĠDefault":1739,"``.":1740,"ĠPy":1741,"ster":1742,"gor":1743,"ĠWe":1744,"Ġcopy":1745,"dout":1746,"Ġbytes":1747,"local":1748,"gen":1749,"Ġsalt":1750,"ymb":1751,"record":1752,"Ġgetattr":1753,"hash":1754,"ister":1755,"ĠĠĠĠĠĠĠĠĠĠĠĠĠĠĠĠĠĠĠĠĠ":1756,"Ġfla":1757,"starts":1758,"Ġdf":1759,"pon":1760,"Ġproject":1761,"loc":1762,"ĠAdd":1763,"Ġinclude":1764,"Ġsome":1765,"Ġwrite":1766,"ween":1767,"Ġpackage":1768,"ĠFor":1769,"Frame":1770,"close":1771,"ĠCreate":1772,"net":1773,"ans":1774,"remove":1775,"Ġtemp":1776,"util":1777,"Ġconvert":1778,"test":1779,"Ġconfiguration":1780,"ĠTypeError":1781,"Ġ'%":1782,"ML":1783,"ĠĠĠĠĠĠĠĠĠĠĠĠĠĠĠĠĠĠĠĠ":1784,"build":1785,"handle":1786,"html":1787,"Ġab":1788,"pth":1789,"connect":1790,"ice":1791,"metadata":1792,"Ġdest":1793,"####":1794,"title":1795,"ĠĠĠĠĠĠĠĠĠĠĠĠĠĠĠĠĠĠ":1796,"section":1797,"Ġ>=":1798,"GE":1799,"Ġaddress":1800,"ĠList":1801,"Ġdim":1802,"exists":1803,"project":1804,"orage":1805,"axis":1806,"Ġinitial":1807,"RO":1808,"Ġcomple":1809,"ake":1810,"Ġdist":1811,"ĠData":1812,"uni":1813,"bytes":1814,"Ġdatetime":1815,"SON":1816,"Ġlink":1817,"Ġclo":1818,"Ġlimit":1819,"Value":1820,"char":1821,"ĠY":1822,"template":1823,"ql":1824,"ĠDe":1825,"Ġsum":1826,"Ġgraph":1827,"Ġerrors":1828,"logger":1829,"req":1830,"service":1831,"Ġafter":1832,"ĠRa":1833,"Ġign":1834,"flow":1835,"Ġbefore":1836,"ptional":1837,"round":1838,"cat":1839,"SI":1840,"term":1841,"ted":1842,"'].":1843,"etch":1844,"Ġcl":1845,"startswith":1846,"uster":1847,"Ġframe":1848,"Ġdocument":1849,"ĠSet":1850,"ĠAPI":1851,"gram":1852,"ugh":1853,"timeout":1854,"erate":1855,"Ġfull":1856,"Ġmatrix":1857,"fy":1858,"-+-+":1859,"Ġvi":1860,"Ġdevice":1861,"Ġdb":1862,"Ġcomm":1863,"CO":1864,"]]":1865,"Ġsequence":1866,"Ġavailable":1867,"Ġbody":1868,"dtype":1869,"ero":1870,"Ġlocation":1871,"Ġnormal":1872,"12":1873,"send":1874,"Ġmem":1875,"ful":1876,"ownload":1877,"sort":1878,"yle":1879,"Ġold":1880,"uto":1881,"utf":1882,"Ġdataset":1883,"Ġchannel":1884,"kip":1885,"ait":1886,"tree":1887,"Ġbuild":1888,"']['":1889,"lation":1890,"ither":1891,"RI":1892,"Add":1893,"Ġbetween":1894,"bin":1895,"dered":1896,"ass":1897,"connection":1898,"qual":1899,"parser":1900,"}'.":1901,"Ġsorted":1902,"Ġempty":1903,"ttrib":1904,"Ġexp":1905,"({":1906,"Ġsample":1907,"Ġrequired":1908,"pression":1909,"datetime":1910,"Ġ<=":1911,"post":1912,"stra":1913,"Ġstruct":1914,"itional":1915,"Ġcallback":1916,"nodes":1917,"Ġcoord":1918,"ities":1919,"mon":1920,"arn":1921,"mask":1922,"ĠUn":1923,"variable":1924,"ide":1925,"Ġtwo":1926,"spec":1927,"cale":1928,"Ġmap":1929,"ĠĠĠĠĠĠĠĠĠĠĠĠĠĠĠĠĠĠĠĠĠĠĠĠĠĠĠĠ":1930,"go":1931,"ored":1932,"gener":1933,"ility":1934,"points":1935,"meta":1936,"verse":1937,"coun":1938,"lugin":1939,"onent":1940,"ĠĠĠĠĠĠĠĠĠĠĠĠĠĠĠĠĠĠĠĠĠĠĠĠĠ":1941,"idget":1942,"Ġtop":1943,"Ġhandle":1944,"Ġexists":1945,"uage":1946,"decode":1947,"anguage":1948,"Ġraw":1949,"ights":1950,"Ġ\"\"":1951,"vironment":1952,"Ġter":1953,"ĠPro":1954,"Ġhasattr":1955,"UL":1956,"dist":1957,"ular":1958,"...":1959,"ĠĠĠĠĠĠĠĠĠĠĠĠĠĠĠĠĠĠĠĠĠĠ":1960,"Ġdatabase":1961,"Ġnodes":1962,"est":1963,"ĠCheck":1964,"init":1965,"000":1966,"cho":1967,"Ġlib":1968,"Ġchunk":1969,"Ġcolumns":1970,"Ġbeen":1971,"cry":1972,"location":1973,"\"):":1974,"bool":1975,"Ġpassword":1976,"settings":1977,"Ġph":1978,"Ġword":1979,"Ġcom":1980,"izer":1981,"vices":1982,"entry":1983,"bose":1984,"UT":1985,"Ġali":1986,"Create":1987,"Ġerr":1988,"argument":1989,"delete":1990,"warning":1991,"Ġcreated":1992,"box":1993,"Ġ]":1994,"TTP":1995,"ux":1996,"tuple":1997,"now":1998,"channel":1999,"Ġsettings":2000,"istr":2001,"Ġvar":2002,"fer":2003,"ĠURL":2004,"Ġedge":2005,"Fa":2006,"ING":2007,"xml":2008,"Ġenumerate":2009,"},":2010,"ear":2011,"wer":2012,"roll":2013,"ification":2014,"iple":2015,"(**":2016,"Ġ6":2017,"tric":2018,"rs":2019,"body":2020,"stack":2021,"ants":2022,"mem":2023,"Ġbin":2024,"NA":2025,"ĠĠĠĠĠĠĠĠĠĠĠĠĠĠĠĠĠĠĠĠĠĠĠĠĠĠ":2026,"olume":2027,"the":2028,"pol":2029,"ride":2030,"very":2031,"ination":2032,"derr":2033,"The":2034,"proper":2035,"lt":2036,"Ġfollow":2037,"pub":2038,"cies":2039,"pk":2040,"Ġ&":2041,"gest":2042,"Ġfinal":2043,"Ġpattern":2044,"Ġgen":2045,"Ġhash":2046,"ĠNot":2047,"mod":2048,"Time":2049,"Ġkeyword":2050,"ions":2051,"http":2052,"cf":2053,"AD":2054,"TY":2055,"rapper":2056,"lasses":2057,"okup":2058,"Not":2059,"Ġalso":2060,"bit":2061,"Ġtotal":2062,"issing":2063,"abs":2064,"Ġnetwork":2065,"Ġenv":2066,"sa":2067,"difi":2068,"Ġcalled":2069,"Ġmask":2070,"Ġcli":2071,"olean":2072,"ward":2073,"edge":2074,"ttribute":2075,"ens":2076,"Ġencoding":2077,"ĠRaises":2078,"ves":2079,"other":2080,"ĠKeyError":2081,"fl":2082,"exp":2083,"Ġcollection":2084,"Ġrequests":2085,"itor":2086,"abled":2087,"lambda":2088,"Ġgo":2089,"Ġplot":2090,"gr":2091,"ob":2092,"Ġ''":2093,"Ġ10":2094,"Ġrandom":2095,"Ġ'/":2096,"ics":2097,"results":2098,"ĠJSON":2099,"extra":2100,"ends":2101,"peri":2102,"Ġreference":2103,"ymbol":2104,"ĠSee":2105,"gex":2106,"aded":2107,"MA":2108,"Ġdescription":2109,"callback":2110,"Ġsave":2111,"alog":2112,"ym":2113,"pdate":2114,"]))":2115,"pace":2116,"lear":2117,"pack":2118,"Ġbound":2119,"tocol":2120,"package":2121,"mark":2122,"serial":2123,"Ġbased":2124,"ĠTO":2125,"vious":2126,"ĠRun":2127,"Ġstop":2128,"Returns":2129,"ĠExample":2130,"Ġtypes":2131,"objects":2132,"Ġsection":2133,"fla":2134,"Ch":2135,"Ġthread":2136,"rop":2137,"ponse":2138,"save":2139,"========":2140,"ont":2141,"opts":2142,"ush":2143,"Ġsuccess":2144,"entity":2145,"del":2146,"25":2147,"hed":2148,"Ġdepend":2149,"CE":2150,"Ġtree":2151,"entic":2152,"seq":2153,"rol":2154,"over":2155,"Lo":2156,"Ġlike":2157,"riter":2158,"Ġschema":2159,"Ġaccess":2160,"Ġview":2161,"Ġthem":2162,".,":2163,"Ġwhether":2164,"my":2165,"dump":2166,"Ġhandler":2167,"licy":2168,"Ġsplit":2169,"Ġbatch":2170,"Ġdiffe":2171,"ript":2172,"conf":2173,"Ġapi":2174,"has":2175,"handler":2176,"Ġ8":2177,"description":2178,"Ġpi":2179,"En":2180,"lice":2181,"annot":2182,"Ġattributes":2183,"book":2184,"batch":2185,"older":2186,"ater":2187,"vals":2188,"bar":2189,"Ġpython":2190,"coord":2191,"Ġexample":2192,"Ġsend":2193,"oci":2194,"Ġcharact":2195,"tails":2196,"ĠIt":2197,"Ġexisting":2198,"clu":2199,"ensions":2200,"Ġhelp":2201,"sample":2202,"Ġdelete":2203,"irs":2204,":]":2205,"No":2206,"next":2207,"Ġpub":2208,"Ġotherwise":2209,"Ġtitle":2210,"Ġĉĉĉ":2211,".\"":2212,"columns":2213,"Ġstrings":2214,"ĠK":2215,"Ġqueue":2216,"Ġposition":2217,"org":2218,"Ġselect":2219,")[":2220,"full":2221,"Ġdefined":2222,"Ġvari":2223,"keep":2224,"ĠDi":2225,"Ġsa":2226,"redential":2227,"alid":2228,"Ġjust":2229,"Ġconnect":2230,"Ġ\"%":2231,"Ġwant":2232,"Ġpoints":2233,"Ġsee":2234,"sca":2235,"Ġim":2236,"----------------":2237,"Ġwidth":2238,"Ġprofile":2239,"step":2240,"cp":2241,"itude":2242,"Ġop":2243,"buffer":2244,"rary":2245,"ĠOptional":2246,"exc":2247,"indi":2248,"FA":2249,"Ġeither":2250,"Ġstep":2251,"UN":2252,"Ġhttp":2253,"DI":2254,"comment":2255,"ssible":2256,"gory":2257,"``,":2258,"ĠPython":2259,"[:,":2260,"extend":2261,"medi":2262,"Ġob":2263,"device":2264,"layer":2265,"ATE":2266,"Ġcalcul":2267,"Ġexc":2268,"Ġidx":2269,"Ġreplace":2270,"Ġpayload":2271,"CH":2272,"stop":2273,"thing":2274,"Ġcorrespon":2275,"ret":2276,"').":2277,"=[":2278,"LO":2279,"Ġwait":2280,"matrix":2281,"Ġlabels":2282,"Ġinteger":2283,"active":2284,"ribution":2285,"gin":2286,"Ġelements":2287,"ĠNote":2288,"parameters":2289,"directory":2290,"PO":2291,"ĠName":2292,"labels":2293,"stat":2294,"umber":2295,"pha":2296,"zip":2297,"ĠTODO":2298,"only":2299,"pattern":2300,"inst":2301,"password":2302,"Ġzip":2303,"'''":2304,"ĠĠĠĠĠĠĠĠĠĠĠĠĠĠĠĠĠĠĠĠĠĠĠĠĠĠĠĠĠ":2305,"ffix":2306,"zone":2307,"Ġforce":2308,"schema":2309,"Ġglobal":2310,"]):":2311,"duct":2312,"ince":2313,"random":2314,"Ġvector":2315,"ĠĠĠĠĠĠĠĠĊ":2316,"Ġvariables":2317,"olution":2318,"cause":2319,"Config":2320,"Path":2321,"ived":2322,"Invalid":2323,"Ġrepresent":2324,"CON":2325,"Ġfeature":2326,"Request":2327,"Ġoriginal":2328,"oper":2329,"requ":2330,"eve":2331,"Ġsystem":2332,"rough":2333,"Ġ'\\":2334,"Ġrule":2335,"ily":2336,"ndarray":2337,"Ġpost":2338,"Ġmark":2339,"network":2340,"ered":2341,"na":2342,"Col":2343,"Ġshow":2344,"sets":2345,"crypt":2346,"bound":2347,"ank":2348,"med":2349,"gress":2350,"Dict":2351,"requi":2352,"Ġfailed":2353,"Ġlayer":2354,"stead":2355,"Th":2356,"ason":2357,"first":2358,"MP":2359,"Ġserial":2360,"comple":2361,"groups":2362,"src":2363,"ĠLOG":2364,"Ġcustom":2365,"Ġdesc":2366,"Ġthey":2367,"direct":2368,"defin":2369,"upport":2370,"den":2371,"tags":2372,"Ġpla":2373,"LA":2374,"domain":2375,"Ġstat":2376,"fs":2377,"Ġcontains":2378,"Ġcontainer":2379,"Ġoperation":2380,"mplemented":2381,"}\".":2382,"addr":2383,"ker":2384,"ĠĠĠĠĠĠĠĠĠĠĠĠĠĠĠĠĠĠĠĠĠĠĠĠĠĠĠĠĠĠ":2385,"Ġremo":2386,"Ġstore":2387,"left":2388,"day":2389,"Ġind":2390,"olve":2391,"]['":2392,"raise":2393,"Ġmeta":2394,"Ġfail":2395,"paths":2396,"Ġdon":2397,"side":2398,"grid":2399,"Ġunique":2400,"mult":2401,"Check":2402,"gine":2403,"Ġmapping":2404,"ek":2405,"eded":2406,"ten":2407,"Ġright":2408,"Ġnamespace":2409,"lied":2410,"curs":2411,"Ġfl":2412,"Ġseconds":2413,"ators":2414,"Ġdecor":2415,"Ġ'{":2416,"cli":2417,"Ġregion":2418,"wh":2419,"lative":2420,"mean":2421,"access":2422,"here":2423,"Ġusername":2424,"cret":2425,"Ġhere":2426,"hell":2427,"Ġcond":2428,"ings":2429,"stru":2430,"tect":2431,"Ġwindow":2432,"Ġaccount":2433,"raph":2434,"ias":2435,"Ġmultiple":2436,"Ġ'-":2437,"vari":2438,"Ġrows":2439,"Ġnow":2440,"Ġsi":2441,"ransp":2442,"orig":2443,"username":2444,"ically":2445,"onents":2446,"sys":2447,"Ġsen":2448,"ven":2449,"reshold":2450,"gorith":2451,"Ġopt":2452,"nap":2453,"Ġmissing":2454,"uture":2455,"Ġparsed":2456,"vider":2457,"Ġawait":2458,"Ġrepresen":2459,"Object":2460,"ffect":2461,"EL":2462,"stats":2463,"16":2464,"Ġtags":2465,"Ġsix":2466,"NAME":2467,"Ġsrc":2468,"Ġremote":2469,"Ġignore":2470,"Ġunicode":2471,"Ġren":2472,"contain":2473,"diff":2474,"down":2475,"shot":2476,"={":2477,"ĠĠĠĠĠĠĠĠĠĠĠĠĠĠĠĠĠĠĠĠĠĠĠĠĠĠĠĠĠĠĠĠĠĠĠ":2478,"Ġcoordin":2479,"Ġgenerate":2480,"eros":2481,"ĠMe":2482,"ĠRes":2483,"Ġdir":2484,"Ġpol":2485,"alled":2486,"alys":2487,"TYPE":2488,"Ġconn":2489,"profile":2490,"rows":2491,"Ġprevious":2492,"tach":2493,"delta":2494,"aml":2495,"Ġrece":2496,"Ġinstead":2497,"posit":2498,"Ġresp":2499,"make":2500,"stdout":2501,"Ġpd":2502,"Ġus":2503,"rate":2504,"ULT":2505,"raises":2506,"verage":2507,"Ġsent":2508,"river":2509,"ices":2510,"Ġproperty":2511,"Ġund":2512,":`~":2513,"valu":2514,"Ġmon":2515,"Ġunit":2516,"rule":2517,"Ġloop":2518,"Ġsuper":2519,"Ġadded":2520,"Node":2521,"known":2522,"pc":2523,"ogle":2524,"ranch":2525,"Ġassoci":2526,"system":2527,"rest":2528,"CT":2529,"istry":2530,"Ġlambda":2531,"ink":2532,"Response":2533,"Ġextract":2534,"pl":2535,"rel":2536,"Ġdomain":2537,")),":2538,"Ġleft":2539,"Ġabs":2540,"Ġproperties":2541,"Ġreport":2542,"vo":2543,"Cont":2544,"python":2545,"samples":2546,"Ġge":2547,"Found":2548,"her":2549,"termin":2550,"encies":2551,"Ġ{}\".":2552,"actions":2553,"99":2554,"FF":2555,"position":2556,"ĠLo":2557,"Ġiss":2558,"__['":2559,"Ġpk":2560,"0000":2561,"Ġmerge":2562,"Log":2563,"ware":2564,"redentials":2565,"String":2566,"State":2567,"Ġip":2568,"Ġthrough":2569,"scale":2570,"Ġactual":2571,"select":2572,"Ġexpected":2573,"andard":2574,"Ġwithin":2575,"\\\\":2576,"until":2577,"Form":2578,"Ġinvalid":2579,"wd":2580,"case":2581,"Ġendpoint":2582,"manager":2583,"can":2584,"ured":2585,"Ġpaths":2586,"Ġrel":2587,"ced":2588,"timestamp":2589,"andas":2590,"Ġbecause":2591,"Ġ',":2592,"ĠWh":2593,"const":2594,"Ġsecond":2595,"exit":2596,"Ġpossible":2597,"dest":2598,"total":2599,"tr":2600,"errors":2601,"normal":2602,"cell":2603,"Ġdifferent":2604,"ie":2605,"chain":2606,"vate":2607,"11":2608,"alysis":2609,"Ġ\".":2610,"Ġfollowing":2611,"Ġtimestamp":2612,"git":2613,"ely":2614,"Ġenvironment":2615,"tract":2616,"math":2617,"ites":2618,"Ġsupported":2619,"OT":2620,"sv":2621,"chunk":2622,"Ġbyte":2623,"gorithm":2624,"TION":2625,"Ġsignal":2626,"Ġidentifier":2627,"Ġwarning":2628,"style":2629,"Index":2630,"Ġtheir":2631,"Ġmod":2632,"unit":2633,"rm":2634,"'][":2635,"Ġskip":2636,"Ġtake":2637,"Ġmatches":2638,"ences":2639,"au":2640,"ctions":2641,"salt":2642,"indices":2643,"04":2644,"execute":2645,"thread":2646,"IT":2647,"tf":2648,"latform":2649,"import":2650,"Ġclean":2651,"Ġdisable":2652,"Comp":2653,"initial":2654,"Ġspecific":2655,"Ġtmp":2656,"Ġnote":2657,"Ġ):":2658,"FAULT":2659,"Ġpresent":2660,"Ġdistance":2661,"Ġctx":2662,"gy":2663,"mount":2664,"andid":2665,"Ġstack":2666,"optional":2667,"Ġpe":2668,"\"],":2669,"Po":2670,"Ġdisplay":2671,"train":2672,"conn":2673,"validate":2674,"ĠAttribute":2675,"ha":2676,"=(":2677,"opt":2678,"Ġasync":2679,"Ġsamples":2680,"Ġappro":2681,"window":2682,"Ġmessages":2683,"Qu":2684,"Ġencode":2685,"ET":2686,"ply":2687,"mal":2688,"ĠUse":2689,"Ġrunning":2690,"straint":2691,"istory":2692,"ng":2693,"Client":2694,"itch":2695,"Ġbeing":2696,"Ġsim":2697,"Ġindices":2698,"Ġscale":2699,"Ġmaximum":2700,"Ġ(\"":2701,"Ġcons":2702,"mbers":2703,"Ġmean":2704,"ww":2705,"Ġdirect":2706,"Ġvalidate":2707,"Ġsepar":2708,"Ġexpression":2709,"cker":2710,"dev":2711,"ĠSer":2712,"Ġhttps":2713,"ĠComp":2714,"cast":2715,"Ġcate":2716,"Ġopts":2717,"Ġtrain":2718,"Ġcho":2719,"Ġcorrect":2720,"Ġfig":2721,"Element":2722,"dataset":2723,"Ġoc":2724,"ĠHTTP":2725,"Ġtransform":2726,"ĠĠĠĠĠĠĠĠĠĠĠĠĠĠĠĠĠĠĠĠĠĠĠĠĠĠĠĠĠĠĠĠĠ":2727,"Ġcallable":2728,"Ġabout":2729,"Ġmy":2730,"Ġwrit":2731,"vars":2732,"peline":2733,"lap":2734,"Ġ{\"":2735,"IO":2736,"Ġconf":2737,"Ġmatching":2738,"desc":2739,"Ġretri":2740,"ĠĠĠĠĊ":2741,"Ite":2742,"uted":2743,"Ġcoun":2744,"stim":2745,"Ġlong":2746,"ier":2747,"Ġverbose":2748,"Ġwithout":2749,"ters":2750,"height":2751,"scope":2752,"ctx":2753,"Ġkeep":2754,"Py":2755,"Ġcent":2756,"Ġcorresponding":2757,"Ġ'_":2758,"Event":2759,"fici":2760,"namespace":2761,"Ġvis":2762,"Ġ[\"":2763,"ĠOn":2764,"Array":2765,"tmp":2766,"Ġreal":2767,"gments":2768,"uild":2769,"Ġevery":2770,"Ġdoesn":2771,"US":2772,"plo":2773,"depth":2774,"ire":2775,"Failed":2776,"Info":2777,"pid":2778,"Ġreq":2779,"Ġsuch":2780,"email":2781,"Ġcell":2782,"attrs":2783,"zeros":2784,"inis":2785,"ways":2786,"uplic":2787,"Ġapply":2788,"Ġ{}'.":2789,"serv":2790,"upper":2791,"late":2792,"uuid":2793,"GER":2794,"Ġevents":2795,"properties":2796,"region":2797,"NT":2798,"loop":2799,"napshot":2800,"ĠExamples":2801,"ĠRuntime":2802,"depend":2803,"Ġboolean":2804,"patch":2805,"stderr":2806,"proxy":2807,"Field":2808,"SC":2809,"ared":2810,"Ġyour":2811,"factor":2812,"ian":2813,"Ġdefaults":2814,"/{":2815,"Ġplt":2816,"Ġflag":2817,"ĠTo":2818,"Ġtrue":2819,"mbed":2820,"Ġ7":2821,"Ġfn":2822,".'":2823,"models":2824,"aries":2825,"Ġassign":2826,"rict":2827,"Ġboth":2828,"Ġspec":2829,"Ġscope":2830,"counts":2831,"\"])":2832,"Ġiterable":2833,"sig":2834,"Ġcomponent":2835,"Ġsure":2836,"Ġutils":2837,"Ġagain":2838,"leep":2839,"requency":2840,"numpy":2841,"Ġsocket":2842,"Ġbot":2843,"coder":2844,"true":2845,"Ġlook":2846,"Ġspecify":2847,"ĠAttributeError":2848,"trics":2849,"oid":2850,"Read":2851,"features":2852,"Text":2853,"Ġcert":2854,"ift":2855,"seconds":2856,"txt":2857,"Model":2858,"('\\":2859,"Ġnd":2860,"termine":2861,"Ġunder":2862,"folder":2863,"DF":2864,"Ġcannot":2865,"show":2866,"Ġ'{}":2867,"ending":2868,"Ġheight":2869,"parts":2870,"Ġcursor":2871,"Ġcould":2872,"KE":2873,"Ġmemory":2874,"cheme":2875,"Ġemail":2876,"children":2877,"pository":2878,"izes":2879,"encoding":2880,"Ġparts":2881,"gre":2882,"Ġclick":2883,"TER":2884,"identifier":2885,"bab":2886,"card":2887,"sure":2888,"non":2889,"tered":2890,"mag":2891,"Ġmain":2892,"ĠĠĠĠĠĠĠĠĠĠĠĠĠĠĠĠĠĠĠĠĠĠĠĠĠĠĠĠĠĠĠĠĠĠ":2893,"IP":2894,"DB":2895,"Ġdebug":2896,"cifi":2897,"sequence":2898,"Ġspace":2899,"collection":2900,"cluded":2901,"empty":2902,"Ġassociated":2903,"02":2904,"Ġrelative":2905,"ross":2906,"cloud":2907,"Ġthese":2908,"Ġauthor":2909,"tools":2910,"words":2911,"classes":2912,"used":2913,"Ġaut":2914,"Ġmethods":2915,"Ġsig":2916,"bers":2917,"fra":2918,"ton":2919,"AB":2920,"Ġindic":2921,"cer":2922,"Ġ'*":2923,"Ġinit":2924,"hex":2925,"ĠRuntimeError":2926,"Ġfunctions":2927,"Ġsince":2928,":%":2929,"__,":2930,"bot":2931,"Ġdown":2932,"feature":2933,"cores":2934,"Ġapplication":2935,"cut":2936,"way":2937,"Ġinterface":2938,"ground":2939,"lint":2940,"########":2941,"ĠFile":2942,"lish":2943,"Ġseries":2944,"account":2945,"chedule":2946,"vers":2947,"adding":2948,"exceptions":2949,"alle":2950,"series":2951,"Ġallowed":2952,"Ġtimes":2953,"-+-+-+-+":2954,"Ġour":2955,"angle":2956,"Ġannot":2957,"SO":2958,"Ġda":2959,"Ġcluster":2960,"Run":2961,"Ġcontents":2962,"attributes":2963,"dified":2964,"An":2965,"greg":2966,"App":2967,"dims":2968,"just":2969,"ended":2970,"Ġplugin":2971,"insert":2972,"payload":2973,"Ġzero":2974,"mapping":2975,"ĠGener":2976,"repo":2977,"Ġtokens":2978,"dot":2979,"24":2980,"Ġstructure":2981,"warn":2982,"ws":2983,"Ġchain":2984,"Ġweights":2985,"board":2986,"Ġow":2987,"itive":2988,"Message":2989,"poch":2990,"Ġconst":2991,"dumps":2992,"ives":2993,"Ġbuffer":2994,"Ġsignature":2995,"Item":2996,"Ġlanguage":2997,"ki":2998,"Ġsite":2999,"bits":3000,"cols":3001,"ION":3002,"lector":3003,"dius":3004,"less":3005,"Ġhow":3006,"EX":3007,"iod":3008,"Parser":3009,"transform":3010,"Ġrepresenting":3011,"Ġextension":3012,"Ġseq":3013,"Ġtensor":3014,"RA":3015,"Ġ9":3016,"mpt":3017,"Ġinputs":3018,"reference":3019,"('/":3020,"rec":3021,"report":3022,"Ġbinary":3023,"Ġclose":3024,"ĠCLI":3025,"VER":3026,"Ġfix":3027,"Session":3028,"Ġremoved":3029,"DataFrame":3030,"ometry":3031,"pare":3032,"ferences":3033,"Ġarch":3034,"hook":3035,"alcul":3036,"Ġtri":3037,"Ġstdout":3038,"global":3039,"Ġdone":3040,"dirname":3041,"head":3042,"lig":3043,"olute":3044,"Ġlat":3045,"Ġstats":3046,"Result":3047,"Ġfeatures":3048,"ision":3049,"ĠSh":3050,"fact":3051,"URL":3052,"Auth":3053,"cursor":3054,"environ":3055,"Gener":3056,"SH":3057,"Ġuntil":3058,"Ġxml":3059,"Ġentity":3060,"convert":3061,"year":3062,"Ġfit":3063,"lab":3064,"Ġstorage":3065,"Ġwrapper":3066,"endswith":3067,"Ġwrap":3068,"Ġscript":3069,"Ġsegment":3070,"Ġpix":3071,"Ġretry":3072,"Ġrequire":3073,"aly":3074,"Ġflags":3075,"Ġvolume":3076,"attribute":3077,"chine":3078,"Ġregister":3079,"clean":3080,"Ġbit":3081,"Ġvert":3082,"cle":3083,"omat":3084,"_,":3085,"User":3086,"els":3087,"Ġgrid":3088,"50":3089,"any":3090,"licit":3091,"commit":3092,"Ġtx":3093,"ĠPath":3094,"Process":3095,"csv":3096,"Ġdownload":3097,"dt":3098,"weight":3099,"Ġequal":3100,"loads":3101,"bl":3102,"score":3103,"tax":3104,"Ġneeded":3105,"Ġcomment":3106,"20":3107,"Ġrepresentation":3108,"Ġupdated":3109,"logging":3110,"ED":3111,"ĠIP":3112,"Ġentries":3113,"leted":3114,"Ġrepo":3115,"=%":3116,"Ġbucket":3117,"tc":3118,"Ġfolder":3119,"istered":3120,"]),":3121,"TO":3122,"ivity":3123,"By":3124,"tom":3125,"trace":3126,"DEFAULT":3127,"/%":3128,"Ġtrace":3129,"Ġaccept":3130,"ĠĠĠĠĠĠĠĠĠĠĠĠĠĠĠĠĠĠĠĠĠĠĠĠĠĠĠĠĠĠĠĠĠĠĠĠ":3131,"document":3132,"fname":3133,"asure":3134,"ĠAny":3135,"Ġho":3136,"Ġctypes":3137,"fetch":3138,"cessed":3139,"Ġactive":3140,"ĠčĊ":3141,"interval":3142,"ged":3143,"Ġhigh":3144,"Ġwould":3145,"ighb":3146,"Ġfra":3147,"()):":3148,"ĠNo":3149,"Ġlower":3150,"vm":3151,"Ġdepth":3152,"Sh":3153,"ilter":3154,"Ġweight":3155,"author":3156,"Ġbest":3157,"dio":3158,"aved":3159,"fit":3160,"SP":3161,"ving":3162,"ively":3163,"olver":3164,"\"))":3165,"Ġstored":3166,"ilder":3167,"Ġcomplete":3168,"ĠArgument":3169,"center":3170,"Ġinstances":3171,"Ġcre":3172,"ynam":3173,"Ġdetails":3174,"docs":3175,"MO":3176,"Ġwhat":3177,"Ġindent":3178,"Parse":3179,"register":3180,"ango":3181,"Ġmetric":3182,"Ġ\"{":3183,"ĠEn":3184,"variables":3185,"spect":3186,"Handler":3187,"ia":3188,"atten":3189,"Ġrest":3190,"Ġ100":3191,"()))":3192,"Ġ_,":3193,"site":3194,"}.":3195,"std":3196,"events":3197,"atted":3198,"allow":3199,"Ġfactor":3200,"Ġdestination":3201,"ĠWhen":3202,"Ġdistribution":3203,"Ġtr":3204,"Ġdimension":3205,"cert":3206,"NO":3207,"[:-":3208,"added":3209,"Ġnet":3210,"hes":3211,"remote":3212,"Ġdecorator":3213,"Ġdecode":3214,"Ġrequested":3215,"lem":3216,"ithub":3217,"ersion":3218,"Ġcompute":3219,"sess":3220,"Ġdt":3221,"LOG":3222,"ulation":3223,"times":3224,"sq":3225,"BU":3226,"Ġht":3227,"__)":3228,"Ġndarray":3229,"Ġcor":3230,"Ġproxy":3231,"https":3232,"Ġgenerator":3233,"Argument":3234,"Ġpylint":3235,"entication":3236,"parameter":3237,"eps":3238,"ness":3239,"Ġinstall":3240,"('%":3241,"Ġ'--":3242,"yp":3243,"TH":3244,"help":3245,"Ġadditional":3246,"where":3247,"Ġimp":3248,"Ġexclude":3249,"ĠDefaults":3250,"tokens":3251,"ĠUpdate":3252,"ti":3253,"Ġlock":3254,"Ġchanges":3255,"utable":3256,"vec":3257,"ATH":3258,"Ġcoordinates":3259,"uting":3260,"img":3261,"ĠOther":3262,"quences":3263,"Ġgroups":3264,"missions":3265,"norm":3266,"unique":3267,"ration":3268,"states":3269,"UE":3270,"Ġexit":3271,"Ġperform":3272,"Ġinterval":3273,"socket":3274,"()[":3275,"Context":3276,"esc":3277,"storage":3278,"container":3279,"Ġestim":3280,"Ġscore":3281,"wrap":3282,"GET":3283,"rence":3284,"Ġnamed":3285,"formed":3286,"idden":3287,"ĠĠĠĠĠĠĠĠĠĠĠĠĠĠĠĠĠĠĠĠĠĠĠĠĠĠĠĠĠĠĠĠĠĠĠĠĠĠĠ":3288,"Ġdisk":3289,"ĠCh":3290,"Ġsyn":3291,"QL":3292,"Ġinsert":3293,"Update":3294,"Ġinternal":3295,"leg":3296,"ĠDo":3297,"upported":3298,"expected":3299,"vision":3300,"cfg":3301,"asic":3302,"arr":3303,"confi":3304,"(\"%":3305,"roller":3306,"ransport":3307,"Ġassume":3308,"Ġplace":3309,"urse":3310,"Ġstandard":3311,"ĠOS":3312,"cla":3313,"Ġperiod":3314,"Ġrender":3315,"Ġrole":3316,"loaded":3317,"atio":3318,"witch":3319,"ĠIO":3320,"cluster":3321,"Ġfilters":3322,"Ġdefinition":3323,"sted":3324,"Ġgenerated":3325,"display":3326,"</":3327,"Ġcharacters":3328,"endpoint":3329,"Ġdelta":3330,"filepath":3331,"33":3332,"ze":3333,"ient":3334,"hether":3335,"ilt":3336,"blem":3337,"}'":3338,"ox":3339,"Ġsetting":3340,"cb":3341,"Ġpredi":3342,"IL":3343,"Ġday":3344,"vide":3345,"ificate":3346,"Class":3347,"Ġscal":3348,"Ġmost":3349,"resources":3350,"Ġids":3351,"Ġmodels":3352,"ĠAs":3353,"real":3354,"Inter":3355,"ĠZ":3356,"Ġattemp":3357,"Ġalways":3358,"\"),":3359,"AP":3360,"ĠIndex":3361,"Ġzone":3362,"Ġfinally":3363,"Ġker":3364,"prec":3365,"tensor":3366,"Ġterm":3367,"application":3368,"ru":3369,"unicode":3370,"metric":3371,"buf":3372,"(['":3373,"pool":3374,"secret":3375,"come":3376,"Ġensure":3377,"Ġstyle":3378,"Ġcomb":3379,"Ġtransaction":3380,"bucket":3381,"TR":3382,"ĠOr":3383,"sid":3384,"Ġ\"\\":3385,"cc":3386,"Ġregex":3387,"ĠPer":3388,"merge":3389,"fd":3390,"Ġlon":3391,"ĠNumber":3392,"Per":3393,"Sub":3394,"Ġuri":3395,"KEY":3396,"Reg":3397,"custom":3398,"ĠMake":3399,"periment":3400,"API":3401,"ĠDataFrame":3402,"ually":3403,"Ġcat":3404,"Ġpop":3405,"Ġpartic":3406,"sired":3407,"Group":3408,"ĠĠĠĠĠĠĠĠĠĠĠĠĠĠĠĠĠĠĠĠĠĠĠĠĠĠĠĠĠĠĠĠĠĠĠĠĠ":3409,"rtual":3410,"Ġrecords":3411,"af":3412,"Ġselected":3413,"Ġfetch":3414,"Ġwere":3415,"Ġbox":3416,"alias":3417,"Instance":3418,"Ġshort":3419,"alk":3420,"auto":3421,"sep":3422,"UR":3423,"enu":3424,"Ġalpha":3425,"language":3426,"Ġexceptions":3427,"Ġpool":3428,"Ġprior":3429,"Ġhtml":3430,"modules":3431,"Ġalign":3432,"units":3433,"ases":3434,"Format":3435,"100":3436,"Valid":3437,"bind":3438,"ĠWhether":3439,"curity":3440,".*":3441,"signal":3442,"Ġbash":3443,"amily":3444,"lack":3445,"Ġissue":3446,"Ġevalu":3447,"_{":3448,"ĠValid":3449,"nan":3450,"Ġbackend":3451,"-%":3452,"Ġprotocol":3453,"allback":3454,"Ġunits":3455,"ĠApp":3456,"Ġmeans":3457,"Ġcharacter":3458,"jango":3459,"Ġoverride":3460,"Ġfill":3461,"Ġang":3462,"required":3463,"uring":3464,"ĠRE":3465,"lugins":3466,"Ġfname":3467,"Ġimg":3468,"edges":3469,"az":3470,"meth":3471,"({'":3472,"cimal":3473,"ERR":3474,"clear":3475,"Base":3476,"andlers":3477,"Ġimages":3478,"Ġsuccessful":3479,"inputs":3480,"Ġjoin":3481,"Ġway":3482,"Ġsm":3483,"tore":3484,"release":3485,"Ġcommon":3486,"member":3487,"force":3488,"Ġ200":3489,"Ġaxes":3490,"Pre":3491,"logy":3492,"Ġsubprocess":3493,"AS":3494,"cii":3495,"Ġauto":3496,"flags":3497,"include":3498,"basename":3499,"Ġmulti":3500,"(\"\\":3501,"Iter":3502,"Ġ'*'":3503,"Ġwidget":3504,"fill":3505,"Ġ12":3506,"AM":3507,"tail":3508,"Ġpair":3509,"Ġfmt":3510,"FO":3511,"null":3512,"Ġsuffix":3513,"zero":3514,"Trans":3515,"defaults":3516,"Or":3517,"sql":3518,"pter":3519,"cessary":3520,"sk":3521,"ars":3522,"Man":3523,"ploy":3524,"80":3525,"HE":3526,"symbol":3527,"ĠĠĠĠĠĠĠĠĠĠĠĠĠĠĠĠĠĠĠĠĠĠĠĠĠĠĠĠĠĠĠĠĠĠĠĠĠĠ":3528,"Ġsubject":3529,"30":3530,"pix":3531,"Le":3532,"ĠDE":3533,"{}'.":3534,"Ġgre":3535,"Ġleast":3536,"'\\":3537,"Ġloc":3538,"Te":3539,"byte":3540,"Ġcondition":3541,"Ġcf":3542,"lim":3543,"distance":3544,"ĠString":3545,"links":3546,"ified":3547,"ilar":3548,"'}":3549,"ATION":3550,"yg":3551,"ĠInvalid":3552,"Ġlists":3553,"ĠĠĠĠĠĠĠĠĠĠĠĠĠĠĠĠĠĠĠĠĠĠĠĠĠĠĠĠĠĠĠĠĠĠĠĠĠĠĠĠ":3554,"align":3555,"agent":3556,"Table":3557,"coords":3558,"15":3559,"utput":3560,"cesses":3561,"Ġcommit":3562,"je":3563,"database":3564,"Ġappend":3565,"plotlib":3566,"201":3567,"lookup":3568,"ĠUser":3569,"CK":3570,"Ġbro":3571,"scriptor":3572,"Ġ((":3573,"ĠRemove":3574,"Ġneeds":3575,"success":3576,"eric":3577,"heet":3578,"Ġ-=":3579,"regex":3580,"Ġexpi":3581,"UP":3582,"ler":3583,"weights":3584,"imer":3585,"Query":3586,"Ġfuture":3587,"Ġtrack":3588,"Ġfp":3589,"verbose":3590,"policy":3591,"Ġvia":3592,"Input":3593,"ĠConfig":3594,"Ġimplement":3595,"bove":3596,"Ġalias":3597,"Ġattrs":3598,"period":3599,"sleep":3600,"fmt":3601,"pac":3602,"Ġchildren":3603,"Ġlibrary":3604,"Ġcategory":3605,"ather":3606,"cording":3607,"long":3608,"ypes":3609,"ons":3610,"Ġmany":3611,"Ġmath":3612,"grade":3613,"ĠBy":3614,"ĠConvert":3615,"ĠXML":3616,"andidate":3617,"lper":3618,"ĠRead":3619,"Ġsymbol":3620,"corre":3621,"Ġresources":3622,"Ġsql":3623,"inte":3624,"This":3625,"role":3626,"summary":3627,"Ġmember":3628,"Ġstates":3629,"trieve":3630,"Ġprobab":3631,"Ġchanged":3632,"prop":3633,"Ġpandas":3634,"ignore":3635,"ĠAl":3636,"okie":3637,"master":3638,"HTTP":3639,"gative":3640,"Ġast":3641,"mpling":3642,"Ġthose":3643,"safe":3644,"Ġlookup":3645,"miss":3646,"Ġstderr":3647,"ength":3648,"Ġreverse":3649,"undle":3650,"ifier":3651,"Content":3652,"NS":3653,"PRO":3654,"}\\":3655,"Ġuses":3656,"Ġalgorithm":3657,"Ġcommands":3658,"Ġanother":3659,"Connection":3660,"ĠTime":3661,"property":3662,"ĠQu":3663,"cursive":3664,"ling":3665,"Ġverify":3666,"Ġsummary":3667,"tab":3668,"55":3669,"install":3670,"ĠOnly":3671,"Ġ201":3672,"pu":3673,"Series":3674,"Ġprovide":3675,"widget":3676,"Ġdetect":3677,"NotFound":3678,"Ġoptim":3679,"Status":3680,"sole":3681,"dr":3682,"Ġ\",":3683,"utation":3684,"__.":3685,"ulate":3686,"PC":3687,"ocation":3688,"Ġproduct":3689,"Ġwarnings":3690,"ressed":3691,"tion":3692,"ense":3693,"Ġlar":3694,"}{":3695,"duce":3696,"ĠArguments":3697,"plugin":3698,"filters":3699,"'](":3700,"eno":3701,"Ġcurrently":3702,"FILE":3703,"Ġencoded":3704,"maining":3705,"Ġhparams":3706,"Ġpick":3707,"pec":3708,"Image":3709,"ĠCol":3710,"ams":3711,"Ġpairs":3712,"Ġvariant":3713,"Ġexecute":3714,"compile":3715,"Ġminimum":3716,"ĠOtherwise":3717,"Size":3718,"Ġclasses":3719,"()]":3720,"kind":3721,"Ġ\"/":3722,"ui":3723,"Ġconver":3724,"sec":3725,"ene":3726,"Ġsur":3727,"sha":3728,"sorted":3729,"dia":3730,"ower":3731,"Ġautomat":3732,"Ġamount":3733,"PATH":3734,"sm":3735,"Dis":3736,"Ġexport":3737,"changed":3738,"changes":3739,"ole":3740,"Ġpublic":3741,"memory":3742,",)":3743,"For":3744,"tz":3745,"expr":3746,"generate":3747,"Ġkernel":3748,"github":3749,"Ġkw":3750,"apply":3751,"_.":3752,"gb":3753,"Ġusers":3754,"tic":3755,"rag":3756,"served":3757,"steps":3758,"Ġ\"{}":3759,"As":3760,"partition":3761,"fail":3762,"Ġcomponents":3763,"Ent":3764,"}\"":3765,"sessment":3766,"segment":3767,"Ġreason":3768,"ocab":3769,"flag":3770,"Ġder":3771,"Ġdesired":3772,"=_":3773,"atches":3774,"Ġbranch":3775,"Ġcached":3776,"Ġedges":3777,"Ġsetup":3778,"expand":3779,"contents":3780,"resses":3781,"Ġsupp":3782,"ĠFind":3783,"Ġpacket":3784,"Load":3785,"(-":3786,"vs":3787,"Ġdraw":3788,"Ġnumbers":3789,"Ġupper":3790,"Ġprogress":3791,"Ġloaded":3792,"ribe":3793,"rb":3794,"Convert":3795,"Ġpartition":3796,"ensity":3797,"On":3798,"Ġ},":3799,"Ġprop":3800,"From":3801,"He":3802,"Ġupload":3803,"Ġcalls":3804,"Date":3805,"slice":3806,"Ġtrig":3807,"interface":3808,"none":3809,"VAL":3810,"pb":3811,"uter":3812,"AGE":3813,"Ġrelease":3814,"Ġweb":3815,"Ġslice":3816,"Ġkind":3817,"('.":3818,"win":3819,"Ġarrays":3820,"assign":3821,"span":3822,"Ġ16":3823,"Ġaccording":3824,"Ġ'')":3825,"rl":3826,"tick":3827,"Ġcredentials":3828,"factory":3829,"POST":3830,"Ġshell":3831,"Ġdirection":3832,"rain":3833,"DS":3834,"Ġthreshold":3835,"19":3836,"osition":3837,"ES":3838,"ancel":3839,"volume":3840,"enum":3841,"Ġconfi":3842,"month":3843,"after":3844,"ells":3845,"Ġreset":3846,"CS":3847,"admin":3848,"google":3849,"'re":3850,"Ġyear":3851,"Ġnecessary":3852,"writ":3853,"Resource":3854,"download":3855,"âĶ":3856,"elements":3857,"TML":3858,"ND":3859,"`:":3860,"Ġbind":3861,"Ġrate":3862,"Ġoccur":3863,"Could":3864,"Ġinstalled":3865,"Ġident":3866,"reshape":3867,"Ġscan":3868,"mac":3869,"kets":3870,"Ġwords":3871,"Ġstd":3872,"Ġsym":3873,"lies":3874,"reset":3875,"Ġtermin":3876,"Exec":3877,"Ġpkg":3878,"mid":3879,"rf":3880,"uch":3881,"Ġpolicy":3882,"Ġprev":3883,"Ġutil":3884,"ĠParse":3885,"suffix":3886,"extract":3887,"Ġhead":3888,"gers":3889,"Ġrec":3890,"Ġ%(":3891,"Ġoperator":3892,"Ġraised":3893,"erature":3894,"Version":3895,"Ġ//":3896,"Ġagainst":3897,"SET":3898,"als":3899,"faces":3900,"Ġsimple":3901,"tool":3902,"Ġroute":3903,"login":3904,"Ġregistered":3905,"('-":3906,"Ġgene":3907,"ĠIOError":3908,"Graph":3909,"ctories":3910,"gories":3911,"Ġ})":3912,"alculate":3913,"Map":3914,"Ġcenter":3915,"sn":3916,"Ġcontrol":3917,"Ġrelation":3918,"Ġabove":3919,"IG":3920,"argv":3921,"Ġcalculate":3922,"layers":3923,"Service":3924,"protocol":3925,"','":3926,"Ġdimensions":3927,"alpha":3928,"ĠNO":3929,"category":3930,"echo":3931,"Ġstarting":3932,"Ġmonth":3933,"Ġrot":3934,"acy":3935,"foo":3936,"sl":3937,"Start":3938,"inished":3939,"dat":3940,"missing":3941,"dirs":3942,"serialize":3943,"34":3944,"Ġsets":3945,"note":3946,"uff":3947,"umb":3948,"lso":3949,"gate":3950,"Ġeffect":3951,"Ġreceived":3952,"history":3953,"Ġinv":3954,"priate":3955,"Stream":3956,"public":3957,"light":3958,"Ġfailure":3959,"dic":3960,"Ġorigin":3961,"OP":3962,"binary":3963,"Ġavoid":3964,"ERROR":3965,"tact":3966,"Ġ[(":3967,"Ġmanager":3968,"Ġconverted":3969,"arguments":3970,"Ġbuf":3971,"track":3972,"setup":3973,"bed":3974,"Ġ(%":3975,"ality":3976,"Al":3977,"Number":3978,"Tensor":3979,"cd":3980,"ife":3981,"yaml":3982,"Ġmodules":3983,"backend":3984,"ĠUni":3985,"================":3986,"Ġ##":3987,"allel":3988,"Ġput":3989,"Ġ'',":3990,"isfile":3991,"effici":3992,"tasks":3993,"catalog":3994,"MS":3995,"lev":3996,"short":3997,"}/":3998,"sim":3999,"Ġap":4000,"Ġbits":4001,"dimension":4002,"Ġduration":4003,"Ġcy":4004,"Ġanalysis":4005,"Code":4006,"Ġignored":4007,"pair":4008,"images":4009,"Ġappropriate":4010,"Ġetc":4011,"Ġ\"-":4012,"Do":4013,"ks":4014,"retry":4015,"Ġsetattr":4016,"oms":4017,"ĠAlso":4018,"]+":4019,"Ġfrequency":4020,"Ġtasks":4021,"orary":4022,"redu":4023,"digest":4024,"ascii":4025,"\"].":4026,"complete":4027,"multi":4028,"indent":4029,"Ġretrieve":4030,"={}":4031,"Ġseed":4032,"uplicate":4033,"components":4034,"Ġcompat":4035,"signature":4036,"14":4037,"Ġ[])":4038,"fun":4039,"utor":4040,"iteritems":4041,"peration":4042,"messages":4043,"60":4044,"Ġrepository":4045,"sym":4046,"Ġonce":4047,"deredDict":4048,"straints":4049,"Ġincluded":4050,"Ġformatted":4051,"jection":4052,"running":4053,"Ġdirectly":4054,"ĠSpe":4055,"Ġpid":4056,">`":4057,"olved":4058,"iew":4059,"engine":4060,"WS":4061,"Ġwell":4062,"Manager":4063,"sqrt":4064,"Record":4065,"ked":4066,"sd":4067,"component":4068,"Ġ$":4069,"istics":4070,"mplates":4071,"Ġarchive":4072,"Ġautomatically":4073,"Ġdetermine":4074,"Ġsupplied":4075,"Ġclear":4076,"home":4077,"lon":4078,"pg":4079,"details":4080,"Ġgot":4081,")])":4082,"ava":4083,"Ġabsolute":4084,"Line":4085,"ATA":4086,"setdefault":4087,"abel":4088,"Ġdrop":4089,"subject":4090,"UM":4091,"specifi":4092,"mediate":4093,"Ġalong":4094,"codes":4095,"pkg":4096,"ĠDict":4097,"Ġcfg":4098,"provider":4099,"ands":4100,"Ġut":4101,"rents":4102,"nn":4103,"ship":4104,"definition":4105,"Ġsaved":4106,"astype":4107,"Ġredirect":4108,"ĠImport":4109,"ĠLoad":4110,"rer":4111,"struction":4112,"Ġhook":4113,"icro":4114,"__(":4115,"bro":4116,"expression":4117,"render":4118,"Ġmove":4119,"vidual":4120,"tty":4121,"common":4122,"records":4123,":-":4124,"Ġinspect":4125,"Ġknown":4126,"rep":4127,"FOR":4128,"Tree":4129,"Ġdst":4130,"ĠYou":4131,"\"]:":4132,"cluding":4133,"Ġprivate":4134,"Cannot":4135,"cons":4136,"oot":4137,"Ġside":4138,"expi":4139,"Ġvalidation":4140,"cision":4141,"eval":4142,"ĠAll":4143,"Ġtab":4144,"Ġflow":4145,"counter":4146,"200":4147,"gene":4148,"fp":4149,"rece":4150,"ention":4151,"amma":4152,"lex":4153,"Ġmag":4154,"Ġhist":4155,"clus":4156,"ĠTrans":4157,"TIME":4158,"Desc":4159,"oom":4160,"example":4161,"Ġfilepath":4162,"Ġtuples":4163,"Ġexecution":4164,"Ġtile":4165,"ĠĠĠĠĠĠĠĠĠĠĠĠĠĠĠĠĠĠĠĠĠĠĠĠĠĠĠĠĠĠĠĠĠĠĠĠĠĠĠĠĠ":4166,"scan":4167,"TS":4168,"Ġmight":4169,"jor":4170,"Ġstrip":4171,"ifest":4172,"Ġdeleted":4173,"dify":4174,"Ġyet":4175,"Ġcalling":4176,"Ġpadding":4177,"abspath":4178,"AG":4179,"(__":4180,"Ġrep":4181,"Attribute":4182,"Ġimplemented":4183,"days":4184,"Ġduring":4185,"ines":4186,":\\":4187,"ibility":4188,"control":4189,"rand":4190,"Ġdump":4191,"Ġtoo":4192,"proc":4193,"spaces":4194,"Ġwritten":4195,"members":4196,"axes":4197,"blocks":4198,"final":4199,"driver":4200,"Optional":4201,"scape":4202,"entries":4203,"duration":4204,"hostname":4205,"ined":4206,"draw":4207,"vas":4208,"ĠOSError":4209,"Count":4210,"freq":4211,"rowser":4212,"matches":4213,")}":4214,"invalid":4215,"tries":4216,"pd":4217,"defined":4218,"dient":4219,"channels":4220,"product":4221,"Ġbegin":4222,"found":4223,"Point":4224,"VI":4225,"structor":4226,"operation":4227,"Ġrank":4228,"Ġarr":4229,"Ġyaml":4230,"Ġchecks":4231,"Ġnorm":4232,"variant":4233,"bins":4234,"Ġvm":4235,"gg":4236,"uous":4237,"Ġoverwrite":4238,"tk":4239,"em":4240,"Ca":4241,"Ġhy":4242,"Ġlogin":4243,"ĠLog":4244,"Ġattach":4245,"Ġ'__":4246,"Ġlet":4247,"Ġprovider":4248,"Command":4249,"before":4250,"Ġexpect":4251,"reader":4252,"ĠNotes":4253,"ĠCan":4254,"ĠCommand":4255,"Ġnormalize":4256,"CP":4257,"Ġdat":4258,"ga":4259,"Ġworker":4260,"arm":4261,"Ġmaster":4262,"users":4263,"Ġ''.":4264,"ident":4265,"single":4266,"Ġfeed":4267,"commands":4268,"SION":4269,"Ġspecial":4270,"scal":4271,"ĠLOGGER":4272,"ABLE":4273,"ues":4274,"raps":4275,"Ġagent":4276,"repr":4277,"Ġinside":4278,"Ġhex":4279,"sumer":4280,"Ġpipeline":4281,"Bu":4282,"shell":4283,"Ġoutputs":4284,"Ġpercent":4285,"Ġconnected":4286,"Default":4287,"platform":4288,"Ġ))":4289,"Ġcsv":4290,"Ġprogram":4291,"cos":4292,"Lay":4293,"56":4294,"threshold":4295,"quival":4296,"(',":4297,"ĠĠĠĠĠĠĠĠĠĠĠĠĠĠĠĠĠĠĠĠĠĠĠĠĠĠĠĠĠĠĠĠĠĠĠĠĠĠĠĠĠĠĠ":4298,"Ġĉĉĉĉ":4299,"Ġsnapshot":4300,"ĠPre":4301,"Ġiterator":4302,"bounds":4303,"verify":4304,"Ġsafe":4305,"Store":4306,"writer":4307,"second":4308,"\"][\"":4309,"Ġtopic":4310,"Ġdetermin":4311,"Ġengine":4312,"web":4313,"Ġstatement":4314,"Ġtyp":4315,"unch":4316,"ogram":4317,"exclude":4318,"Ġpad":4319,"Ġexact":4320,"crypted":4321,"www":4322,"Clo":4323,"branch":4324,"ĠDis":4325,"ĠIter":4326,"Ġ{})":4327,"QU":4328,"sup":4329,"condition":4330,"Ġplatform":4331,"Ġbelow":4332,"registry":4333,"ression":4334,"crement":4335,"cipy":4336,"Ġapplied":4337,"ited":4338,"Ġembed":4339,"iterable":4340,"sources":4341,"pad":4342,"Ġeven":4343,"route":4344,"ĠBuild":4345,"ough":4346,"Ġbounds":4347,"Ġmetrics":4348,"strings":4349,"Ġrequires":4350,"FIG":4351,"Ġmac":4352,"ones":4353,"ACK":4354,"Ġrelated":4355,"Ġbar":4356,"skip":4357,"}:":4358,"Ġ[[":4359,"Server":4360,"enabled":4361,"oo":4362,"256":4363,"Ġselection":4364,"ĠObject":4365,"Ġcounter":4366,"cing":4367,"colors":4368,"cu":4369,"ymbols":4370,"compute":4371,"Ġenabled":4372,"osid":4373,"limiter":4374,"__.__":4375,"available":4376,"lis":4377,"Ġmachine":4378,"ĠEach":4379,"ulti":4380,"lots":4381,"13":4382,"eff":4383,"Ġcounts":4384,"Ġworking":4385,"prior":4386,"Ġdid":4387,"otential":4388,"Ġangle":4389,"Ġchannels":4390,"Method":4391,"Ġtakes":4392,"havi":4393,":])":4394,"Ġproblem":4395,"ndim":4396,"Ġknow":4397,"SER":4398,"ygon":4399,"Ġround":4400,"hing":4401,"ĠReg":4402,"percent":4403,"BUG":4404,"Ġmid":4405,"Ġmesh":4406,"tile":4407,"ĠRequest":4408,"Ġcolors":4409,"precated":4410,"layout":4411,"Unable":4412,"Ġnested":4413,"03":4414,"Ġstill":4415,"concat":4416,"Ġradius":4417,"Warning":4418,"press":4419,"Ġ~":4420,"ĠPo":4421,"ilities":4422,"Ġmd":4423,"proto":4424,"Ġpartial":4425,"18":4426,"ssl":4427,"aving":4428,"Ġphase":4429,"]])":4430,"Ġcut":4431,"ĠCreates":4432,"Ġns":4433,"ĠOpen":4434,"worker":4435,"structure":4436,"Ġ,":4437,"Ġusage":4438,"wrapper":4439,"Ġexplicit":4440,"Def":4441,"resp":4442,"Ġsequences":4443,"utton":4444,"ada":4445,"Ġmeasure":4446,"\").":4447,"ttp":4448,"metrics":4449,"high":4450,"Ġdot":4451,"Ġcollections":4452,"Ġsources":4453,"Ġversions":4454,"Job":4455,"bam":4456,"Ġlow":4457,"Ġasyn":4458,"Ġenable":4459,".)":4460,"UB":4461,"mitted":4462,"Filter":4463,"Ġ-----":4464,"ENT":4465,"Ġ),":4466,"Ġfont":4467,"HO":4468,"gree":4469,"isdir":4470,"']))":4471,"Ġ{},":4472,"Unknown":4473,"created":4474,"ferred":4475,"Met":4476,"hour":4477,"Ġvirtual":4478,"IC":4479,"Of":4480,"indows":4481,"Ġhapp":4482,"dle":4483,".\",":4484,"elper":4485,"ops":4486,"ĠBase":4487,"ied":4488,"Ġgit":4489,"Ġ\"--":4490,"Call":4491,"ĠTe":4492,"Ġregistry":4493,"Token":4494,"hs":4495,"Ġpers":4496,"verts":4497,"quired":4498,"Ġrules":4499,"Ġconstruct":4500,"VE":4501,"dst":4502,"ural":4503,"ĠGiven":4504,"frames":4505,"mesh":4506,"Ġworks":4507,"Ġmembers":4508,"Ġmodified":4509,"kernel":4510,"Ġaggreg":4511,"Ac":4512,"Source":4513,"Ġfigure":4514,"Link":4515,"flush":4516,"lip":4517,"done":4518,"Ġwrapped":4519,"(?":4520,"Find":4521,"Ġprocessed":4522,"Ġinner":4523,"....":4524,"syn":4525,"alg":4526,"Ġcir":4527,"ĠĠĠĠĠĠĠĠĠĠĠĠĠĠĠĠĠĠĠĠĠĠĠĠĠĠĠĠĠĠĠĠĠĠĠĠĠĠĠĠĠĠ":4528,"Ġregular":4529,"22":4530,"Ġcla":4531,"Ġplan":4532,"ynamic":4533,"Ġmatplotlib":4534,"Str":4535,"seed":4536,"velo":4537,"Ġscalar":4538,"rency":4539,"Ġtraining":4540,"istent":4541,"Function":4542,"pan":4543,"most":4544,"Ġtargets":4545,"chron":4546,"chedul":4547,"requests":4548,"Ġreci":4549,"Ġspecification":4550,"âĶĢ":4551,"drop":4552,"Ġpackages":4553,"servation":4554,"Ġown":4555,"ridge":4556,"ever":4557,"Ġnotification":4558,")).":4559,"glob":4560,"fast":4561,"sync":4562,"Ġlinks":4563,"ASE":4564,"udio":4565,"ront":4566,"inner":4567,"IM":4568,"Ġorg":4569,"Ġ[],":4570,"Ġactions":4571,"otes":4572,"this":4573,"Ġfiltered":4574,"require":4575,"wi":4576,"unpack":4577,"ĠHTML":4578,"sens":4579,"ĠCont":4580,"vl":4581,"Ġpl":4582,"ĠNode":4583,"Ġblocks":4584,"asis":4585,"tifact":4586,"Write":4587,"generator":4588,"Ġauthentication":4589,"mooth":4590,"ierarch":4591,"=-":4592,"prob":4593,"loss":4594,"Ġasset":4595,"Ġscheme":4596,"failed":4597,"Ġprocessing":4598,"packages":4599,"Ġidentifi":4600,"hist":4601,"scheme":4602,"INT":4603,"Ġactiv":4604,"rupt":4605,"emon":4606,"progress":4607,"OK":4608,"ĠImage":4609,"ĠInput":4610,"jobs":4611,"ZE":4612,"compat":4613,"Ġpositions":4614,"mar":4615,"obs":4616,"chan":4617,"inv":4618,"Ġ')":4619,"Ġ'<":4620,"Ġtool":4621,"targets":4622,"topic":4623,"ender":4624,"Ġatom":4625,"irst":4626,"END":4627,"Ġrepe":4628,"auss":4629,"configuration":4630,"separ":4631,"Ġproto":4632,"ĠURI":4633,"Ġconfigured":4634,"duced":4635,"Ġsn":4636,"Level":4637,"']]":4638,"processing":4639,"ĠHe":4640,"cum":4641,"transaction":4642,"epcopy":4643,"Ġepoch":4644,"gt":4645,"Ġdependencies":4646,"Ġsteps":4647,"ropy":4648,"ector":4649,"Ġbasestring":4650,"alance":4651,"atom":4652,"Ġnone":4653,"imp":4654,"Ġlate":4655,"xx":4656,"Ġpositive":4657,"inf":4658,"Ġdriver":4659,"Ġsmall":4660,"Mo":4661,"Ġless":4662,"\\'":4663,"='',":4664,"Ġneighb":4665,"Ġdev":4666,"services":4667,"Ġsimp":4668,"best":4669,"Ġspan":4670,"ocument":4671,"Fe":4672,"LIN":4673,"son":4674,"quivalent":4675,"Ġpredict":4676,"At":4677,"predi":4678,"present":4679,"CONFIG":4680,"Column":4681,"PRE":4682,"ĠSub":4683,"17":4684,"upload":4685,"quote":4686,"archive":4687,"Ġdescrib":4688,"pers":4689,"Ġsimilar":4690,"****":4691,"mk":4692,"aut":4693,"Ġcover":4694,"Ġarea":4695,"PS":4696,"ĠId":4697,"Ġquant":4698,"Build":4699,"lyph":4700,"iler":4701,"sock":4702,"Implemented":4703,"plan":4704,"Ġwhose":4705,"ĠError":4706,"Ġ20":4707,"ools":4708,"}}":4709,"Ġfalse":4710,"Ġ\"_":4711,"activ":4712,"eries":4713,"Ġlayout":4714,"Ġattempt":4715,"ĠIndexError":4716,"stit":4717,"Ġpower":4718,"GS":4719,"usters":4720,"Ġchunks":4721,"cr":4722,"lict":4723,"Ġcourse":4724,"ĠHandle":4725,"Ġaverage":4726,"Ġans":4727,"ĠGenerate":4728,"Ġmatched":4729,"Ġhostname":4730,"OS":4731,"Ġbackground":4732,"font":4733,"cpu":4734,"Ġhour":4735,"Ġnegative":4736,"Ġspa":4737,")\"":4738,"aves":4739,"Ġtar":4740,"delay":4741,"Ġps":4742,"Ġreturning":4743,"Ġitself":4744,"creen":4745,"Ġimplementation":4746,"origin":4747,"ric":4748,"export":4749,"Ġlater":4750,"Ad":4751,"oring":4752,"Ġcols":4753,"Ġpipe":4754,"_)":4755,"Ġds":4756,"boot":4757,"Entry":4758,"Ġreader":4759,"Action":4760,"Ġio":4761,"OL":4762,"ally":4763,"XX":4764,"esca":4765,"Ġsecret":4766,"View":4767,"ouble":4768,"private":4769,"cm":4770,"rot":4771,"Ġaddr":4772,"05":4773,"MM":4774,"Tag":4775,"Ġjobs":4776,"gits":4777,"ragma":4778,"extension":4779,"System":4780,"Ġglob":4781,"We":4782,"sem":4783,"Ġ(:":4784,"-+-+-+-+-+-+-+-+":4785,"Ġrecursive":4786,"lank":4787,"ĠĠĠĠĠĠĠĠĠĠĠĠĠĠĠĠĠĠĠĠĠĠĠĠĠĠĠĠĠĠĠĠĠĠĠĠĠĠĠĠĠĠĠĠ":4788,"'\"":4789,"handlers":4790,"pm":4791,"zy":4792,"Ġnothing":4793,"tw":4794,"ula":4795,"parsed":4796,"cio":4797,"={'":4798,".'''":4799,"seek":4800,"rong":4801,"connected":4802,"Ġflux":4803,"Ġpixel":4804,"keyword":4805,"Ġnormalized":4806,"onal":4807,"refresh":4808,"Ġprimary":4809,"Ġdocumentation":4810,".'.":4811,"')[":4812,"methods":4813,"xim":4814,"ube":4815,"STR":4816,"rules":4817,"dl":4818,"arange":4819,"Ġbl":4820,"ĠBo":4821,"Ġinterpol":4822,"grees":4823,"onical":4824,"ĠFI":4825,"Python":4826,"correct":4827,"Ġremaining":4828,"andidates":4829,"ĠInitial":4830,"ĠMessage":4831,"86":4832,"orter":4833,"oriz":4834,"fasta":4835,"Tra":4836,"utc":4837,"ĠCall":4838,"Ġshutil":4839,"voke":4840,"configs":4841,"pacity":4842,"Ġescape":4843,"ĠTensor":4844,"Ġannotation":4845,"pology":4846,"area":4847,"Ġwin":4848,"Ġcollect":4849,"serve":4850,"Ġuseful":4851,"Ġreply":4852,"Ġcertificate":4853,"UID":4854,"radius":4855,"ĠArray":4856,"{}\".":4857,"nb":4858,"lag":4859,"Ġuuid":4860,"gz":4861,"pture":4862,"Ġcompar":4863,"static":4864,"Ġfd":4865,"ili":4866,"Ġschedule":4867,"Ġdirectories":4868,"uess":4869,"('_":4870,"rstrip":4871,")*":4872,".',":4873,"atory":4874,"ĠOrderedDict":4875,"Block":4876,"dian":4877,"assert":4878,"estim":4879,"IS":4880,"Ġ1000":4881,"attach":4882,"internal":4883,"ptions":4884,"Ġreading":4885,"coordin":4886,"anti":4887,"pus":4888,"question":4889,"dx":4890,"quire":4891,"Ġproc":4892,"Sign":4893,"ĠWrite":4894,"epoch":4895,"--------------------------------":4896,"Ġrespect":4897,"Ġallows":4898,"uint":4899,"Ġservices":4900,"Ġoperations":4901,"direction":4902,"Ġadmin":4903,"Ġcreating":4904,"Ġcore":4905,"asset":4906,"Ġindividual":4907,"pipeline":4908,"ssh":4909,"ongo":4910,"PAR":4911,"Ġsomething":4912,"Ġada":4913,"beta":4914,"uses":4915,"ĠForm":4916,"Parameter":4917,"Ġcases":4918,"Ġisn":4919,"async":4920,"cwd":4921,"Ġaround":4922,"Ġindexes":4923,"Ġseen":4924,"instances":4925,"Ġnoise":4926,"hood":4927,"original":4928,"Ġparticular":4929,"################":4930,"Ġresolve":4931,"ĠNotImplemented":4932,"cover":4933,"strument":4934,"Ġbins":4935,"Ġprecision":4936,"owner":4937,"pred":4938,"Ġfreq":4939,"prompt":4940,"Ġmarker":4941,"Ġiteration":4942,"Logger":4943,"(\\":4944,"integer":4945,"bos":4946,"Ġclosed":4947,"Ġ[{":4948,"Ġbuilt":4949,"DIR":4950,"ueue":4951,"ĠDictionary":4952,"ationError":4953,"mut":4954,"Ġdelay":4955,"lask":4956,"ĠThere":4957,"wb":4958,"Exist":4959,"feed":4960,"ValueError":4961,"operator":4962,"Ġauthorization":4963,"Ġbehavi":4964,"reen":4965,"Ġbel":4966,"Ġexperiment":4967,"mass":4968,"reduce":4969,"selection":4970,"rank":4971,"outputs":4972,"Ġleg":4973,"Ġcandidate":4974,"rypt":4975,"refs":4976,"Ġcoordinate":4977,"\"\\":4978,"Handle":4979,"orn":4980,"Ġcatalog":4981,"actor":4982,"Ġkeywords":4983,"Ġsigma":4984,"ckets":4985,"Ġbad":4986,"Ġsegments":4987,"Ġmerged":4988,"Ġelem":4989,"Ġexternal":4990,"Ġfilenames":4991,"ral":4992,"ract":4993,"ctionaries":4994,"constants":4995,"orld":4996,"versions":4997,"big":4998,"ĠBe":4999,"=\"\"":5000,"sur":5001,"snapshot":5002,"Ġts":5003,"ĠFunction":5004,"]*":5005,"Ġresulting":5006,"Ġtables":5007,"quare":5008,".\".":5009,"embed":5010,"kit":5011,"ĠCompute":5012,")'":5013,"Ġcb":5014,"Ġhistory":5015,"equal":5016,"rect":5017,"Ġdeploy":5018,"Ġpatch":5019,"Remove":5020,"66":5021,"unic":5022,"ĠImportError":5023,"Ġupdates":5024,"Part":5025,"iling":5026,"Ġparsing":5027,"disk":5028,"dep":5029,"Ġpragma":5030,"Ġnb":5031,"EM":5032,"ĠIDs":5033,"Ġpur":5034,"apping":5035,"Ġstage":5036,"crete":5037,"Dir":5038,"Ġfore":5039,"Ġpr":5040,"functions":5041,"Ġsubscription":5042,"cript":5043,"ĠSo":5044,"Box":5045,"Address":5046,"credentials":5047,"free":5048,"ĠClo":5049,"ĠQt":5050,"rr":5051,"bi":5052,"Ġmade":5053,"Ġsep":5054,"emit":5055,"stract":5056,"amp":5057,"zen":5058,"Ġ60":5059,"ĠĠĠĠĠĠĠĠĠĠĠĠĠĠĠĠĠĠĠĠĠĠĠĠĠĠĠĠĠĠĠĠĠĠĠĠĠĠĠĠĠĠĠĠĠ":5060,"Ġ<<":5061,"Ġfixed":5062,"sage":5063,"iver":5064,"quiet":5065,"Ġversionadded":5066,"Widget":5067,"cogn":5068,"pick":5069,"%(":5070,"clar":5071,"Ġ32":5072,"_(":5073,"ĠClient":5074,"PIPE":5075,"pose":5076,"75":5077,"signed":5078,"Ġactually":5079,"moves":5080,"flux":5081,"Ġpermission":5082,"Ġstatic":5083,"clip":5084,"Output":5085,"Ġlinear":5086,"Task":5087,"ĠAt":5088,"INFO":5089,"Ġrefresh":5090,"23":5091,"tack":5092,"subprocess":5093,"edit":5094,"Ġconv":5095,"bank":5096,"Ġstrict":5097,"amo":5098,"override":5099,"MAT":5100,"loader":5101,"ĠStart":5102,"pdf":5103,"Ġdataframe":5104,"ALL":5105,"Ġsensor":5106,"Ġgreater":5107,"Ġdescriptor":5108,"Ġsto":5109,"ĠTra":5110,"Ġunknown":5111,"Ġworkflow":5112,"forms":5113,"Gets":5114,"Ġfails":5115,"WOR":5116,"cepts":5117,"Ġmanage":5118,"DATA":5119,"alth":5120,"Ġincluding":5121,"Ġchecked":5122,"End":5123,"Ġrepr":5124,"roid":5125,"alf":5126,"comb":5127,"Act":5128,"otype":5129,"ACE":5130,"sr":5131,"Ġ':":5132,"family":5133,"MENT":5134,"selected":5135,"Ġmodifi":5136,"itespace":5137,"Generate":5138,"ierarchy":5139,"hosts":5140,"diag":5141,"Ġanaly":5142,"GB":5143,"support":5144,"Parameters":5145,"Proper":5146,"choice":5147,"riteria":5148,"relation":5149,"ider":5150,"cial":5151,"Ġturn":5152,".\\":5153,"=['":5154,"Api":5155,"olds":5156,"Ġener":5157,"wards":5158,"dn":5159,"adcast":5160,"('.')":5161,"Ġoutfile":5162,"rev":5163,"ips":5164,"tar":5165,"reverse":5166,"Ġdevices":5167,"uman":5168,"cryption":5169,"plugins":5170,"ĠPO":5171,"Ġfast":5172,"partial":5173,"Ġsolution":5174,"Ġswitch":5175,"istration":5176,"cursively":5177,"Ġindicating":5178,"()),":5179,"istic":5180,"Ġve":5181,"pairs":5182,"Ġappe":5183,"COL":5184,"Open":5185,"conv":5186,"urls":5187,"inish":5188,"utdown":5189,"Ġtz":5190,"ranscript":5191,"Ġtransition":5192,"Ġtick":5193,"terms":5194,"tein":5195,"accept":5196,"ĠHow":5197,"olders":5198,"Ġsecurity":5199,"Ġshared":5200,"PY":5201,"wraps":5202,"Ġsubset":5203,"Ġvide":5204,"Ġ).":5205,"lier":5206,"ptr":5207,"usage":5208,"slug":5209,"calc":5210,"ĠIN":5211,"semb":5212,"editor":5213,"Ġowner":5214,"library":5215,"Ġadjust":5216,"ĠMethod":5217,"Pa":5218,"ratio":5219,"ĠAss":5220,"')]":5221,"ĠMo":5222,"Ġcells":5223,"`)":5224,"iso":5225,"tables":5226,"closed":5227,"nsure":5228,"ĠQuery":5229,"chor":5230,"maked":5231,"Ġruntime":5232,"reason":5233,"Ġdue":5234,"ond":5235,"unknown":5236,"walk":5237,"cn":5238,"Ġtemperature":5239,"Ġtrigger":5240,"PTION":5241,"SIZE":5242,"media":5243,"identity":5244,"Ġcoeffici":5245,"Ġidentity":5246,"Ġgeometry":5247,"Ġprompt":5248,"Search":5249,"ritical":5250,"false":5251,"redirect":5252,"runtime":5253,")/":5254,"Can":5255,"resolve":5256,"begin":5257,"environment":5258,"Ġartifact":5259,"Ġhand":5260,"Ġordered":5261,"ĠDB":5262,"Ġpack":5263,"andatory":5264,"ARN":5265,"cached":5266,"Ġtraceback":5267,"decor":5268,"ports":5269,"Ġfs":5270,"liance":5271,"getattr":5272,"Ġtimezone":5273,"/'":5274,"allet":5275,"neighb":5276,"Ġlayers":5277,"Ġ\\\\":5278,"ised":5279,"CL":5280,"Row":5281,"Ġbig":5282,"MAX":5283,"see":5284,"Ġnull":5285,"Ġspect":5286,"splitext":5287,"Ġfh":5288,"indexes":5289,"Params":5290,"Ġinterpre":5291,"machine":5292,"tached":5293,"escape":5294,"prev":5295,"ranspose":5296,">'":5297,"Ġobtain":5298,"gent":5299,"png":5300,"ĠAc":5301,"Ġdictionaries":5302,"ĠUT":5303,"calcul":5304,"DEBUG":5305,"normalize":5306,"security":5307,"Ġretrie":5308,"ĠNOTE":5309,"sigma":5310,"ftime":5311,"derer":5312,"ĠStop":5313,"Ġ``'":5314,"ĠResponse":5315,"fin":5316,"ĠAuth":5317,"vol":5318,"power":5319,"Ġintegr":5320,"BO":5321,"TED":5322,"40":5323,"SA":5324,"mer":5325,"Ġalt":5326,"lished":5327,"NE":5328,"Sp":5329,"Ġlatest":5330,"NG":5331,"hy":5332,"('--":5333,"Ġthreads":5334,"schedule":5335,"Ġnumeric":5336,"blob":5337,"(':":5338,"Ġdays":5339,"Ġwriter":5340,"ĠMust":5341,"encoded":5342,"ĠNotImplementedError":5343,"Obj":5344,"Ġexpr":5345,"predict":5346,"tainer":5347,"reply":5348,"supported":5349,"Ġscreen":5350,"devices":5351,"Ġloss":5352,"Ġsubnet":5353,"Ġblob":5354,"oto":5355,"Ġuid":5356,"Ġcurve":5357,"wn":5358,"illar":5359,"trie":5360,"Ġsk":5361,"dependencies":5362,"notification":5363,"week":5364,"sections":5365,"Ġseparate":5366,"Layer":5367,"cheduler":5368,")(":5369,"rectory":5370,"ĠTry":5371,"ĠFirst":5372,"eds":5373,"prepare":5374,"ĠMax":5375,"Ġep":5376,"builder":5377,".%":5378,"Ġcloud":5379,"analysis":5380,"modified":5381,"Ġvectors":5382,"shift":5383,"]],":5384,",))":5385,"ka":5386,"Ġcross":5387,"Ġequivalent":5388,"variance":5389,"Ġpermissions":5390,"LOGGER":5391,"Ġsw":5392,"ĠState":5393,"rase":5394,"[:]":5395,"Ġframes":5396,"Ġprocesses":5397,"Ġpatterns":5398,"Ġpriority":5399,"roy":5400,"Ġsha":5401,"endar":5402,"ĠModel":5403,"Ġassigned":5404,"bosity":5405,"Ġmut":5406,"transport":5407,"versed":5408,"frac":5409,"Work":5410,"ĠNe":5411,"USER":5412,"break":5413,"ocal":5414,"ĠWindows":5415,"Ġterms":5416,"Ġboto":5417,"Ġdiag":5418,"Ġcoords":5419,"pending":5420,"PER":5421,"Ġcontroller":5422,"('{":5423,"ĠCalculate":5424,"allowed":5425,"Ġequ":5426,"asarray":5427,"Change":5428,"VERSION":5429,"Ġpotential":5430,"Ġmultip":5431,"Ġaltern":5432,"Ġvertex":5433,"Ġparallel":5434,"Ġcurr":5435,"Ġscipy":5436,"geometry":5437,"ulk":5438,"keywords":5439,"Ref":5440,"Ġrecent":5441,"ĠĠĠĠĠĠĠĠĠĠĠĠĠĠĠĠĠĠĠĠĠĠĠĠĠĠĠĠĠĠĠĠĠĠĠĠĠĠĠĠĠĠĠĠĠĠ":5442,"ĠProcess":5443,"dependent":5444,"LL":5445,"rant":5446,"Ġentire":5447,"Ġsat":5448,"aggreg":5449,"Ġcast":5450,"Ġcompare":5451,"pages":5452,"Ġsampling":5453,"unct":5454,"Delete":5455,"Ġtemporary":5456,"PA":5457,"optim":5458,")',":5459,"Ġsparse":5460,"Ġ15":5461,"Ġsurface":5462,"Ġ\\'":5463,"push":5464,"Ġconversion":5465,"grams":5466,"Ġpeer":5467,"If":5468,"Ġboot":5469,"ĠGraph":5470,"Ġurllib":5471,"sidered":5472,"Ġauthentic":5473,"ĠText":5474,"orth":5475,"Ġcopi":5476,"90":5477,"PU":5478,"aw":5479,"Ġhelper":5480,"Ġdefinitions":5481,"clusive":5482,"trip":5483,"flatten":5484,"Ġsec":5485,"âĶĢâĶĢ":5486,"Ġaudio":5487,"ail":5488,"dit":5489,"Device":5490,"Ġexpand":5491,"amount":5492,"trig":5493,"FIX":5494,"Ġsender":5495,"hidden":5496,"linear":5497,"lapsed":5498,"future":5499,"Ġedit":5500,"destination":5501,"Ġ'{}'":5502,"course":5503,"ORT":5504,"Ġcomments":5505,"algorithm":5506,"Ġmount":5507,"Ġpixels":5508,"ulated":5509,")\\":5510,"Ġratio":5511,"ĠFilter":5512,"CF":5513,"ĠTuple":5514,"ĠOne":5515,"amer":5516,"lists":5517,"Ġdicts":5518,"andling":5519,"Ġcer":5520,"ouse":5521,"coming":5522,"strftime":5523,"compress":5524,"][\"":5525,"lices":5526,"Ġmedia":5527,"Ġconsidered":5528,"Ġgoogle":5529,"Ġconstant":5530,",'":5531,"\"'":5532,"FS":5533,"ription":5534,"Ġdeprecated":5535,"perm":5536,"splitlines":5537,"All":5538,"Ġpan":5539,"ategy":5540,"Ġflatten":5541,"Ġpickle":5542,"Ġforward":5543,"Ġord":5544,"minion":5545,"Ġqueryset":5546,"Ġunpack":5547,"lying":5548,"Ġkeyid":5549,"chars":5550,"theta":5551,"dec":5552,"AND":5553,"36":5554,"ison":5555,"logical":5556,"Ġreads":5557,">\\":5558,"Ġdefine":5559,"ilent":5560,"assessment":5561,"Ġrv":5562,"ĠST":5563,"Ġbutton":5564,"holder":5565,"sin":5566,"FIEL":5567,"lang":5568,"ĠĠĠĠĠĠĠĠĠĠĠĠĠĠĠĠĠĠĠĠĠĠĠĠĠĠĠĠĠĠĠĠĠĠĠĠĠĠĠĠĠĠĠĠĠĠĠ":5569,"84":5570,"Cur":5571,"cid":5572,"park":5573,"Pol":5574,"Ġsync":5575,"posure":5576,"Ġ*=":5577,"ĠInter":5578,"aussian":5579,"Ġcaller":5580,"car":5581,"Ġ])":5582,"Ġreferences":5583,"anded":5584,"Ġden":5585,"joint":5586,"Thread":5587,"menu":5588,"vcf":5589,"atic":5590,"makedirs":5591,"elem":5592,"Ġdelimiter":5593,"workflow":5594,"geo":5595,"ummy":5596,"Network":5597,"Ġstarts":5598,"inder":5599,"Ġvideo":5600,"seg":5601,"Ġconstructor":5602,"Ġdependency":5603,"band":5604,"erred":5605,"except":5606,"Ġsock":5607,"atial":5608,"Ġstarted":5609,"atter":5610,"Ġthree":5611,"ĠUnicode":5612,"relative":5613,"outine":5614,"Ġchecking":5615,"ROM":5616,"rpc":5617,"mpler":5618,"mes":5619,"Ġ?":5620,"urations":5621,"quant":5622,"boolean":5623,"SV":5624,"Ġscores":5625,"lihood":5626,"ram":5627,"Make":5628,"phi":5629,"Ġsubclass":5630,"Ġdocker":5631,"Creates":5632,"segments":5633,"gnitude":5634,"JSON":5635,"Ġlead":5636,"mas":5637,"strap":5638,"enate":5639,"simple":5640,"threads":5641,"Variable":5642,"callable":5643,"uble":5644,"Ġvals":5645,"screen":5646,"Ġenviron":5647,"uplicates":5648,"Ġcalculated":5649,"`):":5650,"rum":5651,"Ġtransport":5652,"stage":5653,"Initial":5654,"ĠWork":5655,"Ġcomplex":5656,"II":5657,"SIG":5658,"(\"/":5659,"Ġdocstring":5660,"Ġresid":5661,"lst":5662,"Ġmime":5663,"Ġpretty":5664,"ĠĠĠĠĠĠĠĠĠĠĠĠĊ":5665,"existing":5666,"Over":5667,"ific":5668,"dence":5669,"helper":5670,"35":5671,"px":5672,"ĠSets":5673,"Ġserialized":5674,"qa":5675,"enter":5676,"packet":5677,"Ġmodify":5678,"publish":5679,"tol":5680,"()``":5681,"Ġsigned":5682,"1000":5683,"Ġasyncio":5684,"SL":5685,"isinstance":5686,"Page":5687,"XT":5688,"Ġcard":5689,"Ġtheta":5690,"based":5691,"docker":5692,"bg":5693,"Ġbasic":5694,"ecor":5695,"Sequence":5696,"Ġextracted":5697,"ONE":5698,"Ġrect":5699,"grad":5700,"Ġruns":5701,"77":5702,"cip":5703,"Dataset":5704,"mq":5705,"arest":5706,"anization":5707,"Ġraises":5708,"annotation":5709,"Ġconditions":5710,"css":5711,"ffici":5712,"tl":5713,"ĠSend":5714,"updated":5715,"ĠExec":5716,"Ġlig":5717,"lastic":5718,"Label":5719,"tage":5720,"Print":5721,"forward":5722,"Ġpublish":5723,"allable":5724,"SD":5725,"Ġconcat":5726,"fft":5727,"enari":5728,"Ġmandatory":5729,"bad":5730,"Ġseg":5731,"enable":5732,"ĠThese":5733,"props":5734,"Ġshift":5735,"Ġfactory":5736,"marker":5737,"onts":5738,"Ġ------":5739,"sible":5740,"ird":5741,"umbna":5742,"Length":5743,"Ġ30":5744,"Ġsuccessfully":5745,"Ġinplace":5746,"findall":5747,"Range":5748,"pandas":5749,"Ġaddresses":5750,"argin":5751,"distribution":5752,"Ġrepresents":5753,"Ġeps":5754,"tour":5755,"td":5756,"('{}":5757,"Ġlogs":5758,"Ġmass":5759,"Ġcomputed":5760,"lineno":5761,"Ġrequirements":5762,"DU":5763,"Ġexecuted":5764,"CTION":5765,"Mode":5766,"Ġimmediate":5767,"tle":5768,"Ġvocab":5769,"Ġplay":5770,"Ġlang":5771,"Ġbottom":5772,"video":5773,"Ġsca":5774,"Ġconnections":5775,"Ġvertices":5776,"radi":5777,"Reference":5778,"phase":5779,"ildcard":5780,"soft":5781,"Ġbeta":5782,"ully":5783,"ĠSeries":5784,"96":5785,"program":5786,"FT":5787,"wt":5788,"atype":5789,"Serial":5790,"Ġcookie":5791,"levels":5792,"HEAD":5793,"semble":5794,"Ġenergy":5795,"MI":5796,"mu":5797,"Ġrdf":5798,"Ġprepare":5799,"ior":5800,"Ġplugins":5801,"visible":5802,"scores":5803,"redis":5804,"Su":5805,"Ġeval":5806,"Qt":5807,"mip":5808,"Ġcpu":5809,"MAP":5810,"Color":5811,"covery":5812,"ĠSQL":5813,"Ġrecur":5814,"uest":5815,"adr":5816,"Ġunless":5817,"ja":5818,"Ġssh":5819,"ĠNew":5820,"Ġadding":5821,"Ġgood":5822,"Bo":5823,"fc":5824,"uation":5825,"Ġflat":5826,"Ġpending":5827,"Collection":5828,"Ġbundle":5829,"]).":5830,"Timeout":5831,"You":5832,"igen":5833,"CRE":5834,"LAN":5835,"atrix":5836,"AX":5837,"ĠAdditional":5838,"Spec":5839,"sect":5840,"Ġgu":5841,"CESS":5842,"aws":5843,"Ġdigest":5844,"ĠPrint":5845,"Ġanything":5846,"noise":5847,"Ġfree":5848,"ĠGo":5849,"ĠHttp":5850,"DD":5851,"Max":5852,"Red":5853,"jac":5854,"anit":5855,"izing":5856,"ĠExtract":5857,"Ġoverlap":5858,"Ġhappen":5859,"Pri":5860,"Ġconsole":5861,"Ġcompleted":5862,"deploy":5863,"Up":5864,"oauth":5865,"descriptor":5866,"extensions":5867,"LETE":5868,"deepcopy":5869,"Ġband":5870,"Ġ'/'":5871,"Be":5872,"sheet":5873,"Ġvol":5874,"Ġperm":5875,"LECT":5876,"ench":5877,"div":5878,"_%":5879,"Ġsy":5880,"ĠTake":5881,"which":5882,"Ġinitialize":5883,"related":5884,"Send":5885,"frequency":5886,"icle":5887,"des":5888,"CODE":5889,"Ġcodes":5890,"logs":5891,"Ġcreates":5892,"padding":5893,"permission":5894,"categories":5895,"ĠDelete":5896,"chronous":5897,"Bin":5898,"Num":5899,"solution":5900,"Ġcost":5901,"Ġdocs":5902,"ĠUnion":5903,"wave":5904,"Ġ\"'":5905,"ĠOperation":5906,"Ġlarge":5907,"ired":5908,"Ġmx":5909,"primary":5910,"ism":5911,"calls":5912,"Ġwa":5913,"Ġstatements":5914,"Ġhosts":5915,"Ġdepending":5916,"sizes":5917,"maps":5918,"Ġones":5919,"([[":5920,"ĠVM":5921,"ĠAdds":5922,"sparse":5923,"Ġmis":5924,"roles":5925,"stmt":5926,"Exit":5927,"Sets":5928,"Is":5929,"else":5930,"pipe":5931,"Ġnotebook":5932,")-":5933,"_:":5934,"figure":5935,"Ġface":5936,"ĠTable":5937,"Ġcreation":5938,"chrom":5939,"using":5940,"pab":5941,"wiki":5942,"CM":5943,"selector":5944,"Ġdjango":5945,"']),":5946,"br":5947,"bra":5948,"nl":5949,"aN":5950,"Ġes":5951,"ptime":5952,"major":5953,"ĠField":5954,"Results":5955,"orizont":5956,"78":5957,"dictionary":5958,"Ġgive":5959,"viation":5960,"GI":5961,"Ġprevent":5962,"rozen":5963,"ĠAd":5964,"Connect":5965,"vertices":5966,"levant":5967,"Ġ[-":5968,"servers":5969,"ĠElement":5970,"Ġdouble":5971,"ĠShould":5972,"lations":5973,"timedelta":5974,"Ġgets":5975,"Ġlocations":5976,"Ġseparator":5977,"Ġassumed":5978,"95":5979,"Vector":5980,"authentic":5981,"Ġpages":5982,"Ġduplicate":5983,"ims":5984,"STAT":5985,"ensure":5986,"fw":5987,"Ġev":5988,"adapter":5989,"effect":5990,"Ġeas":5991,"tempt":5992,"Ġhidden":5993,"Ġvalidator":5994,"Ġdecimal":5995,"HER":5996,"Ġmix":5997,"ĠOver":5998,"Ġintegers":5999,"Ġ'':":6000,"Ġchrom":6001,"Access":6002,"inger":6003,"Ġhard":6004,"complex":6005,"Ġspecifying":6006,"Header":6007,"button":6008,"jectory":6009,"[(":6010,"qs":6011,"Ġredis":6012,"](":6013,"Ġpred":6014,"Ġvs":6015,"many":6016,"Ġ'.'":6017,"click":6018,"Ġwhole":6019,"Ġbook":6020,"Ġincludes":6021,"([\"":6022,"Ġconstraints":6023,"poly":6024,"itation":6025,"ĠĠĠĠĠĠĠĠĠĠĠĠĠĠĠĠĠĠĠĠĠĠĠĠĠĠĠĠĠĠĠĠĠĠĠĠĠĠĠĠĠĠĠĠĠĠĠĠĠĠĠĠĠĠĠĠĠĠĠĠĠĠĠĠ":6026,"Ġcountry":6027,"70":6028,"repe":6029,"ĠCO":6030,"Ġreduce":6031,"named":6032,"atting":6033,"objective":6034,"Ġquote":6035,"weet":6036,"Ġmapped":6037,"king":6038,"cap":6039,"Ġtre":6040,"latest":6041,"rypto":6042,"ilon":6043,"projects":6044,"Ġpeak":6045,"Ġannotations":6046,"CA":6047,"Ġchecksum":6048,"*(":6049,"tp":6050,"Ġsv":6051,"gether":6052,"rences":6053,"ĠUsed":6054,"Ġlevels":6055,"Formatter":6056,"Ġwave":6057,"Ġobjective":6058,"ĠSearch":6059,"OF":6060,"ĠOutput":6061,"Ġnever":6062,"AML":6063,"scalar":6064,"ish":6065,"Cache":6066,"reci":6067,"ĠSalt":6068,"attention":6069,"Ġslug":6070,"digit":6071,"\"][":6072,"Ġms":6073,"Ġgate":6074,"CI":6075,"ned":6076,"sto":6077,"Ġslot":6078,"linalg":6079,"recv":6080,"ĠWill":6081,"ali":6082,"ĠGets":6083,"Ġrc":6084,"Ġtranslation":6085,"SK":6086,"With":6087,"flat":6088,"ni":6089,"Ġlisten":6090,"Ġfamily":6091,"Ġabort":6092,"ĠCurrent":6093,"mts":6094,"DATE":6095,"Ġunable":6096,"Keys":6097,"AUT":6098,"Match":6099,"bus":6100,"Ġhit":6101,"lette":6102,"AF":6103,"Spe":6104,"unce":6105,"ranches":6106,"ĠResource":6107,"Ġstatistics":6108,"Schema":6109,":`.":6110,"Ġgenes":6111,"inc":6112,"Ġdep":6113,"lour":6114,"Ġdoct":6115,"controller":6116,"Ġexplicitly":6117,"ffi":6118,"yment":6119,"ado":6120,"listdir":6121,"compliance":6122,"Ġprice":6123,"audio":6124,"Ġresolution":6125,"Ġcontract":6126,"Metadata":6127,"Ġexecutable":6128,"255":6129,"sw":6130,"Ġmenu":6131,"diffe":6132,"Helper":6133,"Ġiterations":6134,"cov":6135,"Values":6136,"Ġrotation":6137,"Ġrev":6138,"sender":6139,"Ġbehavior":6140,"Min":6141,"Ġfinished":6142,"ffset":6143,"ĠRed":6144,"!\")":6145,"Ġprobability":6146,"Ġâ":6147,"Ġselector":6148,"']):":6149,"(\"-":6150,"ĠRetrieve":6151,"Ġdecoded":6152,"OUT":6153,"vocab":6154,"Ġwrong":6155,"okies":6156,"Extract":6157,"chunks":6158,"Ġqual":6159,"Ġmakes":6160,"Ġssl":6161,"getter":6162,"pointer":6163,"ĠEnsure":6164,"patterns":6165,"Ġtrunc":6166,"Module":6167,"Ġobs":6168,"posed":6169,"PUT":6170,"Ġenough":6171,"price":6172,"cod":6173,"Ġready":6174,"Ġinitialized":6175,"ike":6176,"Ġmu":6177,"ĠGroup":6178,"Ġnoqa":6179,"rive":6180,"Ġformats":6181,"cce":6182,"Ġhandling":6183,"['_":6184,"annotations":6185,"ARNING":6186,"+'":6187,"Ġlonger":6188,"ĠDate":6189,"yntax":6190,"servations":6191,"prise":6192,"Ġextensions":6193,"TA":6194,"WN":6195,"Ġ*,":6196,"udent":6197,"measure":6198,"ĠMark":6199,"super":6200,"Ġcertain":6201,"rgb":6202,"double":6203,"repository":6204,"Ġdegrees":6205,"getLogger":6206,"'ll":6207,"gap":6208,"ping":6209,"Ġpush":6210,"Ġphi":6211,"Execution":6212,"Ġdates":6213,"Ġ\")":6214,"ĠEvent":6215,"sertion":6216,"RC":6217,"aa":6218,"orch":6219,"Ġ255":6220,"agraph":6221,"Ġformatter":6222,"ĠChecks":6223,"Ġsentence":6224,"Ġanswer":6225,"Ġmot":6226,"Document":6227,"black":6228,"Ġchoices":6229,"inx":6230,"construct":6231,"external":6232,"Ġlocale":6233,"locations":6234,"Compute":6235,"RF":6236,"Ġwarn":6237,"manage":6238,"orizontal":6239,"ov":6240,"Ġsol":6241,"Ġprojection":6242,"ĠPlease":6243,"disable":6244,"basic":6245,"Ġsections":6246,"cule":6247,"(\"{":6248,"Ġvery":6249,"Ġetree":6250,"Ġ'#":6251,"Ġcontained":6252,"ĠResult":6253,"watch":6254,"INTER":6255,"peak":6256,"Int":6257,"AA":6258,"Out":6259,"rd":6260,"Ġhandlers":6261,"locals":6262,"Ġeverything":6263,"DER":6264,"hi":6265,"mot":6266,"Ġ],":6267,"Ġthrow":6268,"Ġloader":6269,"Ġpoly":6270,"Missing":6271,"Ġperformed":6272,"ĠKeyword":6273,"requencies":6274,"cred":6275,"Bad":6276,"sequences":6277,"Ġstypes":6278,"Ġbuilder":6279,"Ġlimits":6280,"vlan":6281,"prog":6282,"Ġpointer":6283,"Ġminutes":6284,"charact":6285,"voice":6286,"Ġoutside":6287,"Ġpreviously":6288,"Only":6289,"blems":6290,"phab":6291,"Ġmonitor":6292,"versal":6293,"Ġbasis":6294,"{})":6295,"Ġ{}).":6296,"Ġfraction":6297,"umbnail":6298,"'``":6299,"ropo":6300,"Ġbackup":6301,"ba":6302,"ĠDef":6303,"ĠNetwork":6304,"wap":6305,"uggest":6306,"RED":6307,"Port":6308,"adjust":6309,"Ġ::":6310,"nsupported":6311,"NotFoundError":6312,"iterator":6313,"Ġintervals":6314,"Ġalignment":6315,"}/{":6316,"Ġfully":6317,"virtual":6318,"Ġdifference":6319,"SU":6320,"Tuple":6321,"lc":6322,"templates":6323,"Ġsupports":6324,"Ġlongitude":6325,"*.":6326,"85":6327,"Cell":6328,"(\".":6329,"Ġ24":6330,"Ġpress":6331,"cookie":6332,"formatter":6333,"scribe":6334,"pher":6335,"Ġgradient":6336,"Ġreplaced":6337,"Ġdecorated":6338,"}]":6339,"alan":6340,"Ġshare":6341,"ventory":6342,"Ġtaken":6343,"Ġindicates":6344,"Ġtrip":6345,"setting":6346,"Ġprops":6347,"ĠNOT":6348,"regions":6349,"comments":6350,"bottom":6351,"Ġconstants":6352,"resid":6353,"ysical":6354,"Ġchoice":6355,"Ġsimply":6356,"QUE":6357,"Ġresolved":6358,"ached":6359,"stall":6360,"ĠConnection":6361,"Queue":6362,"rad":6363,"ĠCON":6364,"Ġspeed":6365,"dispatch":6366,"Ġdownloaded":6367,"ĠSpecifi":6368,"game":6369,"pat":6370,"Ġwatch":6371,"Ġmig":6372,"priority":6373,"ĠPOST":6374,"previous":6375,"processor":6376,"ientation":6377,"Com":6378,"evalu":6379,"rou":6380,"Ġexamples":6381,"MODE":6382,"entities":6383,"Ġbetter":6384,"Ġdirs":6385,"phabet":6386,"\"%":6387,"pars":6388,"oked":6389,"ĠConstruct":6390,"amera":6391,"Ġincre":6392,"teger":6393,"Ġconfigure":6394,"osite":6395,"Ġspaces":6396,"Ġrestart":6397,"Ġonto":6398,"cells":6399,"FORMAT":6400,"coordinates":6401,"vered":6402,"Ġrather":6403,"ĠSave":6404,"omial":6405,"Ġcompletion":6406,"Fail":6407,"39":6408,"NOT":6409,"detect":6410,"ges":6411,"ĠĠĠĠĠĠĠĠĠĠĠĠĠĠĠĠĠĠĠĠĠĠĠĠĠĠĠĠĠĠĠĠĠĠĠĠĠĠĠĠĠĠĠĠĠĠĠĠĠĠĠ":6412,"Ġlatitude":6413,"Ġgeo":6414,"LINE":6415,"Ġactor":6416,"Ġdd":6417,"fire":6418,"Ġparents":6419,"Uni":6420,"average":6421,"Ġdatasets":6422,"Ġtxt":6423,"Types":6424,"Ġrelationship":6425,"Ġminim":6426,"aster":6427,"ueprint":6428,"plain":6429,"subnet":6430,"Property":6431,"PL":6432,"mc":6433,"Ġsid":6434,"ĠĠĠĠĠĠĠĠĠĠĠĠĠĠĠĠĠĠĠĠĠĠĠĠĠĠĠĠĠĠĠĠĠĠĠĠĠĠĠĠĠĠĠĠĠĠĠĠĠ":6435,"submit":6436,"Pool":6437,"Ġaccepted":6438,"stdin":6439,"Ġderiv":6440,"New":6441,"contract":6442,"Ġxrange":6443,"connections":6444,"Ġserialize":6445,"fficient":6446,"ssib":6447,"Ġconsider":6448,"ticks":6449,").__":6450,"za":6451,"Ġrespon":6452,"Ġcontact":6453,"contin":6454,"outfile":6455,"!')":6456,"lu":6457,"Ġfallback":6458,"ĠServer":6459,"ipher":6460,"statement":6461,"ULL":6462,"kipping":6463,"jid":6464,"Ġtogether":6465,"workers":6466,"TypeError":6467,"Ġ`~":6468,"Ġresponses":6469,"positions":6470,"Ġvars":6471,"uffle":6472,"bundle":6473,"Ġtrim":6474,"Ġadapter":6475,"Ġguess":6476,"Ġlogic":6477,"views":6478,"failure":6479,"YY":6480,"Ġfw":6481,"chr":6482,"Ġbeginning":6483,"enario":6484,"Pass":6485,"xes":6486,"()}":6487,"Ġ50":6488,"LAGS":6489,"Ġnan":6490,"tection":6491,"ubclass":6492,"Ġcategories":6493,"conver":6494,"scripts":6495,"Ġwriting":6496,"ĠSome":6497,"Container":6498,"Ġfragment":6499,"cancel":6500,"ĠĠĠĠĠĠĠĠĠĠĠĠĠĠĠĠĠĠĠĠĠĠĠĠĠĠĠĠĠĠĠĠĠĠĠĠĠĠĠĠĠĠĠĠĠĠĠĠ":6501,"Ġteam":6502,"Ġbuff":6503,"ĠYield":6504,"Ġderived":6505,"44":6506,"Ġinverse":6507,"peer":6508,"specs":6509,"ordered":6510,"Ġweek":6511,"=''":6512,"sy":6513,"erial":6514,"Ġcred":6515,"Ġpull":6516,"ĠTask":6517,"chemy":6518,"RR":6519,"lify":6520,"Ġear":6521,"phrase":6522,"plus":6523,"Host":6524,"Ġcalc":6525,"executable":6526,"vectors":6527,"Ġsleep":6528,"Ġvec":6529,"analy":6530,"experiment":6531,"fixed":6532,"country":6533,"Ġ64":6534,"Ġcwd":6535,"Ġstmt":6536,"Ġtimedelta":6537,"Ġtemplates":6538,"genes":6539,"exe":6540,"Ġeditor":6541,"Ġclip":6542,"Operation":6543,"subscription":6544,"DA":6545,"Ġri":6546,"ART":6547,"Ġsyntax":6548,"VALUE":6549,"ĉĉ":6550,"built":6551,"dm":6552,"yles":6553,"Ġboundary":6554,")],":6555,"Ġsymbols":6556,"inds":6557,"Ġcause":6558,"fully":6559,"Temp":6560,"imple":6561,"nested":6562,"Ġdispatch":6563,"specific":6564,"Ġmiddle":6565,"HA":6566,"Ġbbox":6567,"Mem":6568,"SM":6569,"retries":6570,"Ġradi":6571,"Ext":6572,"Ġmar":6573,"26":6574,"Test":6575,"'},":6576,"Ġamp":6577,"Ġsizes":6578,"Ġblank":6579,"isters":6580,"gamma":6581,"sel":6582,"standard":6583,"Ġ:]":6584,"parents":6585,"herit":6586,"pet":6587,"esian":6588,"ĠSp":6589,"attice":6590,"Ass":6591,"MIN":6592,"OB":6593,"Ġconstraint":6594,"Ġurls":6595,"Ġtransfer":6596,"Channel":6597,"Ġwaiting":6598,",),":6599,"aign":6600,"cnt":6601,"Ġdensity":6602,"(\"--":6603,"Meta":6604,"Iteration":6605,"ĠVer":6606,"Ġevaluate":6607,"ecorator":6608,"Ge":6609,"arti":6610,"ĠGET":6611,"Ġ|=":6612,"angles":6613,"Ġargparse":6614,"Adds":6615,"pixel":6616,"Calculate":6617,"orization":6618,"ables":6619,"ĠEnt":6620,"Ġenter":6621,"eq":6622,"Char":6623,"JE":6624,"Ġreceive":6625,"Ġtail":6626,"Ġmanifest":6627,"ĠDEFAULT":6628,"Ġexactly":6629,"sembly":6630,"Ġtests":6631,"Ġwhite":6632,"READ":6633,"bitrary":6634,"ĠService":6635,"rouped":6636,"Ġconsumer":6637,"(\"{}":6638,"ĠMulti":6639,"Ġattached":6640,"Decode":6641,"poll":6642,"readline":6643,"Ġqueries":6644,"issue":6645,"manifest":6646,"Ġidentify":6647,"Ġreaction":6648,"lid":6649,"iles":6650,"ĠLe":6651,"energy":6652,"duction":6653,"Ġdocuments":6654,"Download":6655,"PT":6656,"Retrieve":6657,"Ġacross":6658,"riptor":6659,"Ġpie":6660,"timer":6661,"Ġrout":6662,"Ġroles":6663,"FIELD":6664,"hip":6665,"Ġconsist":6666,"artifact":6667,"(('":6668,"deleted":6669,"Ġoverrid":6670,"Ġretrieved":6671,"trieves":6672,"Ġpassing":6673,"ital":6674,"ipv":6675,"ĠMin":6676,"Ġregions":6677,"LED":6678,"ĠWeb":6679,"Ġunderlying":6680,"bias":6681,"Ġcp":6682,"Ġ11":6683,"Ġ19":6684,"Ġadds":6685,"backup":6686,"Names":6687,"asses":6688,"visit":6689,"Ġpredicate":6690,"Ġlight":6691,"Url":6692,"vance":6693,"Ġke":6694,"ĠISO":6695,"processed":6696,"Ġloading":6697,"Ġterminal":6698,"Hash":6699,"may":6700,"Rece":6701,"wall":6702,"ĠNormal":6703,"moved":6704,"Ġcomparison":6705,"Ne":6706,"Ġam":6707,"alive":6708,"ĠTest":6709,"Ġcriteria":6710,"Ġhuman":6711,"dates":6712,"collect":6713,"Ġrouting":6714,"Child":6715,"Import":6716,"Ġquestion":6717,"inja":6718,"oted":6719,"expect":6720,"Reader":6721,"')):":6722,"Ġoptionally":6723,"validation":6724,"ĠMan":6725,"multiple":6726,"SCRI":6727,"Ġimported":6728,"Param":6729,"multip":6730,"sertionError":6731,"nx":6732,"riend":6733,"permissions":6734,"isode":6735,"Configuration":6736,"Ġapproxim":6737,"fastq":6738,"Ġsmooth":6739,"arrays":6740,"Ġdisabled":6741,"~~":6742,"Location":6743,"Ġlogical":6744,"errno":6745,"\"{":6746,"erce":6747,"Ġhome":6748,"Ġmaps":6749,"currency":6750,"Ġrecipi":6751,"hest":6752,"umed":6753,"traceback":6754,"Please":6755,"zoom":6756,"letes":6757,"constraints":6758,"Ġprediction":6759,"Ġdetermined":6760,"rices":6761,"Ġ\"<":6762,"Const":6763,"Ġlineno":6764,"58":6765,"outer":6766,"ĠGit":6767,"nr":6768,"uer":6769,"mime":6770,"router":6771,"absolute":6772,"ee":6773,"tb":6774,"Ġdec":6775,"ational":6776,"Ġreplacement":6777,"Ġsending":6778,"canvas":6779,"Ġcompatible":6780,"ĠMaximum":6781,"Ġpin":6782,"Ġbra":6783,"('<":6784,"sensor":6785,"Cloud":6786,"va":6787,"roke":6788,"ĠBlock":6789,"Ġtempfile":6790,"('/')":6791,"Ġmagic":6792,"LS":6793,"licies":6794,"``:":6795,"Ġinstanti":6796,"Ġrevision":6797,"gsize":6798,"notify":6799,"Ġok":6800,"cost":6801,"Ġcorrectly":6802,"Does":6803,"Ġappear":6804,"dp":6805,"Ġencrypted":6806,"ĠNow":6807,"Ġimmediately":6808,"Ġbrowser":6809,"Ġthing":6810,"circ":6811,"Ġissubclass":6812,"Struct":6813,"dc":6814,"href":6815,"Ġconflict":6816,"Feature":6817,"Ġinstruction":6818,"shared":6819,"27":6820,"Back":6821,"Save":6822,"hand":6823,"xs":6824,"strict":6825,"Cursor":6826,"lated":6827,"switch":6828,"Agent":6829,"Ġ({":6830,"serializer":6831,"white":6832,"Ġcopied":6833,"Ġsever":6834,"Ġdialog":6835,"28":6836,"Multi":6837,"cross":6838,"slot":6839,"Ġcandidates":6840,"Ġsr":6841,"ĠGe":6842,"TYPES":6843,"plots":6844,"Admin":6845,"unset":6846,"iving":6847,"__))":6848,"Ġentities":6849,"Ab":6850,"wcs":6851,"console":6852,"dfs":6853,"ĠSequence":6854,"gorical":6855,"Ġprobably":6856,"Ġ=>":6857,"speed":6858,"clared":6859,"Ġest":6860,"Ġlst":6861,"Ġranges":6862,"Ġqs":6863,"tuples":6864,"Any":6865,"Ġdegree":6866,"Ġcompression":6867,"/{}":6868,"icon":6869,"ĠDon":6870,"STATE":6871,"Ġindicate":6872,"parsers":6873,"Ali":6874,"URE":6875,"ience":6876,"Ġdigits":6877,"Ġsubmission":6878,"Ġfloats":6879,"ranges":6880,"dimensions":6881,"callbacks":6882,"ĠCloud":6883,"enc":6884,"cify":6885,"hint":6886,"ĠSim":6887,"constant":6888,"ĠContent":6889,"Ver":6890,"ĠPol":6891,"Ġrouter":6892,"ĠOption":6893,"minimum":6894,"IF":6895,"Ġdefaultdict":6896,"ability":6897,"Ġcycle":6898,"ĠPermission":6899,"candidate":6900,"micro":6901,"Ġ(`":6902,"Ġklass":6903,"luster":6904,"atoms":6905,"Ġwalk":6906,"background":6907,"ĠFIX":6908,"29":6909,"bbox":6910,"Ġstride":6911,"ĠDetermine":6912,"SQL":6913,"Target":6914,"urther":6915,"union":6916,"ĠClass":6917,"intervals":6918,"Ġclone":6919,"ij":6920,"sence":6921,"Ġseparated":6922,"ropout":6923,"browser":6924,"Ġten":6925,"mpaign":6926,"Ġbecome":6927,"maximum":6928,"EC":6929,"lags":6930,"conditions":6931,"ĠParameter":6932,"_'":6933,"bet":6934,"Ġcatch":6935,"Ġ{:":6936,"Args":6937,"Ġ\"\")":6938,")``":6939,"AME":6940,"XML":6941,"transpose":6942,"ongs":6943,"Ġss":6944,"viders":6945,"Template":6946,"Ġrelevant":6947,"addresses":6948,"validator":6949,"vidence":6950,"Ġfg":6951,"unts":6952,"Ġwhitespace":6953,"numbers":6954,"ĠBoolean":6955,"404":6956,"Ġnx":6957,"intersection":6958,"expanduser":6959,"requirements":6960,"\">":6961,"ĠDjango":6962,"------------":6963,"iteral":6964,"ĠAssertionError":6965,"fh":6966,"fpath":6967,"pur":6968,"modifi":6969,"Cre":6970,"java":6971,"lar":6972,"warnings":6973,"Ġdaemon":6974,"Bytes":6975,"Ġattachment":6976,"sites":6977,"cognized":6978,"Oper":6979,"ii":6980,"limits":6981,"LOCK":6982,"Register":6983,"Ġmacro":6984,"lstrip":6985,"Ġcancel":6986,"Transform":6987,"sensitive":6988,")+":6989,"Ġsubstit":6990,"ystems":6991,"JECT":6992,"dicts":6993,"Ġroll":6994,"Ġcompound":6995,"Copy":6996,"chat":6997,"Ġ(``":6998,"ĠNull":6999,"vertex":7000,"Ġblack":7001,"Expected":7002,"Union":7003,"DR":7004,"vor":7005,"Ġreversed":7006,"Ġ(-":7007,"Ġextended":7008,"Ġvisible":7009,"mol":7010,"star":7011,"lecule":7012,"issues":7013,"ĠIs":7014,"Ġends":7015,"Ġbinding":7016,"CAL":7017,"ulative":7018,"Ġpolygon":7019,"ARY":7020,"ĠDataset":7021,"Ġdoctest":7022,"ĠPass":7023,"thresh":7024,"green":7025,"formats":7026,"Ġgeneral":7027,"transfer":7028,"effs":7029,"CB":7030,"]}":7031,"('[":7032,"activity":7033,"claration":7034,"(%":7035,"Ġquiet":7036,"crypto":7037,"ĠIterable":7038,"Wrapper":7039,"Ġincrement":7040,"ĠCa":7041,"ĠFe":7042,"Ġcalculation":7043,"Ġstdin":7044,"locale":7045,"Ġchars":7046,"Ġcombined":7047,"pickle":7048,"Popen":7049,"stand":7050,"deps":7051,"curve":7052,"curacy":7053,"CHE":7054,"LOW":7055,"509":7056,"Ġestimate":7057,"URI":7058,"ighest":7059,"Ġbasename":7060,"legal":7061,"AST":7062,"Ġbias":7063,"ĠĠĠĠĠĠĠĠĠĠĠĠĠĠĠĠĠĠĠĠĠĠĠĠĠĠĠĠĠĠĠĠĠĠĠĠĠĠĠĠĠĠĠĠĠĠĠĠĠĠ":7064,"adratic":7065,"So":7066,"bre":7067,"Ġfoo":7068,"Ġrecursively":7069,"statements":7070,"Ġproperly":7071,"Ġargv":7072,"ĠInitialize":7073,"HEADER":7074,"mis":7075,"arc":7076,"Ġwx":7077,"serialized":7078,"Ġitertools":7079,"Ġdetected":7080,"calculate":7081,"ledge":7082,"37":7083,"learn":7084,"TEXT":7085,"Ġthings":7086,"))]":7087,"Ġencoder":7088,"utool":7089,"Ġhyper":7090,"=''):":7091,"itute":7092,"()).":7093,"izers":7094,"Ġroom":7095,":\"":7096,"examples":7097,"avg":7098,"rites":7099,"HERE":7100,"anza":7101,"Ġable":7102,"Ġcc":7103,"Ġlengths":7104,"written":7105,"Ġcoefficients":7106,"Position":7107,"zz":7108,"Ġtimer":7109,"Ġalle":7110,"Proxy":7111,"finite":7112,"pn":7113,"Ġpat":7114,"ollow":7115,"lengths":7116,"ĠToken":7117,"Ġcar":7118,"asa":7119,"Ġcompile":7120,"Ġfasta":7121,"hexdigest":7122,"ilio":7123,"Ġpg":7124,"ĠDO":7125,"byref":7126,"Ġpip":7127,"appro":7128,"subset":7129,"Ġbytearray":7130,"decimal":7131,"Ġecho":7132,"Ġmuch":7133,"beat":7134,"Ġhistogram":7135,"asing":7136,"ĠInstance":7137,"Ġfilesystem":7138,"Ġformatting":7139,"Ġ\"\",":7140,"cutoff":7141,"Ġbug":7142,"Ġsubmit":7143,"Ġcanonical":7144,"TEMP":7145,"Ġtwilio":7146,"venience":7147,"Func":7148,"mtime":7149,"Ġtb":7150,"wrapped":7151,"Ġoccurred":7152,"VICE":7153,"=',":7154,"ĠAllow":7155,"ĠStopIteration":7156,"ssibly":7157,"uniform":7158,"Ids":7159,"finished":7160,"Ġdx":7161,"()`":7162,"Ġgamma":7163,"ĠAWS":7164,"fr":7165,"etc":7166,"Ġretries":7167,"COM":7168,"Ġvisual":7169,"bum":7170,"det":7171,"itable":7172,"Ġsla":7173,"SELECT":7174,"Ġtesting":7175,"cel":7176,"tep":7177,"ĠFROM":7178,"transition":7179,"ĠFIXME":7180,"ĠSign":7181,"Ġtrying":7182,"ĠStream":7183,"atives":7184,"filtered":7185,"Ġ40":7186,"Ġhandles":7187,"ingerprint":7188,"aliases":7189,"datasets":7190,"Ġiterate":7191,"Ġgenome":7192,"hooks":7193,"21":7194,"UST":7195,"inations":7196,"Ġaffect":7197,"clusters":7198,"Ġgoing":7199,"some":7200,"Control":7201,"same":7202,"Ġfront":7203,"timezone":7204,"NotExist":7205,"training":7206,"zure":7207,"Ġbg":7208,"unter":7209,"precision":7210,"Ġembedding":7211,"LATE":7212,"cles":7213,"pin":7214,"Ġbi":7215,"Ġnumer":7216,"Ġgrad":7217,":],":7218,"VM":7219,"tected":7220,"Core":7221,"Ġgame":7222,"ĠRequired":7223,"Ġobserved":7224,"Description":7225,"ĠAR":7226,"bolic":7227,"[::-":7228,"---+":7229,"Application":7230,"Ġcompatibility":7231,"Ġops":7232,"ĠConverts":7233,"choices":7234,"ĠChange":7235,"balance":7236,"Ġmajor":7237,"monitor":7238,"Ġissues":7239,"ĠOperationFailed":7240,"symbols":7241,"Order":7242,"dimensional":7243,"trigger":7244,"Callback":7245,"since":7246,"__[":7247,"Ġzoom":7248,"rename":7249,"hem":7250,"itter":7251,"ane":7252,"ĠDesc":7253,"ibration":7254,"dap":7255,"Ġtransformed":7256,"ttributes":7257,"Ġserializer":7258,"ĠOR":7259,"...,":7260,"installed":7261,"=\"\",":7262,"Ġhandled":7263,"sol":7264,"listen":7265,"processes":7266,"ĠMet":7267,"quick":7268,"Storage":7269,"customer":7270,"Ġeigen":7271,"Ġstrategy":7272,"Ġpositional":7273,"Ġmoment":7274,"Ġobservation":7275,"Ġbroker":7276,"gl":7277,"Ġsolver":7278,"Ġrgb":7279,"Ġcompressed":7280,"ony":7281,"Ġpt":7282,"ĠSource":7283,"Ġports":7284,"ĠNotFound":7285,"mix":7286,"Ġcum":7287,"locate":7288,"Ġbus":7289,"Ġwon":7290,"Ġrho":7291,"reads":7292,"Ġspecifies":7293,")\",":7294,":\",":7295,"Ġnative":7296,"Ġosid":7297,"ORY":7298,"Ġcomma":7299,"Ġassignment":7300,"Ġdescribing":7301,"Given":7302,"mg":7303,"Ġxy":7304,"Ġvariance":7305,"Ġchosen":7306,"Ġattempts":7307,"Ġ14":7308,"Directory":7309,"ags":7310,"runner":7311,"Normal":7312,">,":7313,"urnal":7314,"('#":7315,"mkdir":7316,"Validate":7317,"Ġconfirm":7318,"Ġinterpolation":7319,">\"":7320,"qubits":7321,"tyle":7322,"Use":7323,"ini":7324,"Ġcmap":7325,"Ġrecomm":7326,"Ġmaybe":7327,"certificate":7328,"Ġtrailing":7329,"execution":7330,"queryset":7331,"Ġfact":7332,"AUTH":7333,"08":7334,"scrib":7335,"Ġhashlib":7336,"Ġsimulation":7337,"ĠUsage":7338,"Ġpoll":7339,"cuit":7340,"'{":7341,"CAC":7342,"cv":7343,"Enabled":7344,"VALID":7345,"Options":7346,"Mapping":7347,"Ġ'[":7348,"Ġartic":7349,"ĠPlot":7350,"cular":7351,"concatenate":7352,"FC":7353,"dom":7354,"hparams":7355,"encoder":7356,"ĠLine":7357,"trim":7358,"notebook":7359,"Ġplane":7360,"Ut":7361,"geom":7362,"ĠIgn":7363,"31":7364,"pdb":7365,"Ġjs":7366,");":7367,"Ter":7368,"Ġdesign":7369,"Ġ25":7370,"bsocket":7371,"stor":7372,"Ġinstrument":7373,"separator":7374,"06":7375,"Ġdynamic":7376,"shard":7377,"filenames":7378,"genome":7379,"did":7380,"raft":7381,"Ġhalf":7382,"configure":7383,"TRI":7384,"stone":7385,"Ġ```":7386,"vided":7387,"Ġlogged":7388,"Ġ``(":7389,"Cons":7390,"contains":7391,"Ġpredicted":7392,"/.":7393,"dataframe":7394,"visor":7395,"amb":7396,"curr":7397,"aff":7398,"sequ":7399,"ĠFormat":7400,"apps":7401,"Den":7402,"SY":7403,"hat":7404,"))))":7405,"And":7406,"Pos":7407,"Ġgetting":7408,"ĠMay":7409,"Ġcompress":7410,"compressed":7411,"Pub":7412,"Ġtax":7413,"formatted":7414,"Ġ{!":7415,"ĠStore":7416,"Ġdirname":7417,"CLA":7418,"nu":7419,"remaining":7420,"eration":7421,"ĠEither":7422,"magic":7423,"HT":7424,"ĠCallable":7425,"bb":7426,"iguous":7427,"Ġatoms":7428,"Ġ1024":7429,"Ġtenant":7430,"Ġdry":7431,"Ġinterest":7432,"deg":7433,"Ġfall":7434,"offsets":7435,"Factory":7436,"supports":7437,"Sum":7438,"udo":7439,"detail":7440,"ĠFa":7441,"Ġshard":7442,"difference":7443,"IST":7444,"rp":7445,"eral":7446,"Ġexpon":7447,"Ġlc":7448,"confirm":7449,"KEN":7450,"pull":7451,"Ġarbitrary":7452,"Ġlic":7453,"'ve":7454,"WARNING":7455,"Ġplayer":7456,"ĠNaN":7457,"indic":7458,"initialized":7459,":',":7460,"^{":7461,"incip":7462,"illi":7463,"Ġ(_":7464,"ĠSE":7465,"clone":7466,"Ġsucce":7467,"Profile":7468,"kill":7469,"nc":7470,"Ġutool":7471,"Ġtopology":7472,"variants":7473,"Ġrendered":7474,"Ġreally":7475,"ĠValidate":7476,"Ġleading":7477,"CLI":7478,"Ġ()":7479,"Ġretval":7480,"Ġminion":7481,"matching":7482,"Select":7483,"Ġestimated":7484,"Ġprob":7485,"buff":7486,"Ġbounding":7487,"Checks":7488,"yntaxError":7489,"Gra":7490,"ev":7491,"how":7492,"Ġreached":7493,"lica":7494,"``)":7495,"litude":7496,"numeric":7497,"contact":7498,"Ġ/=":7499,"tempts":7500,"Ġtun":7501,"Ġnewline":7502,"vention":7503,"aking":7504,"Ġworkers":7505,"Ġexpressions":7506,"RPC":7507,"Ġfire":7508,"Ġol":7509,"Ġcos":7510,"ultiple":7511,"Local":7512,"ĠNum":7513,"corr":7514,"ExecutionError":7515,"Flow":7516,"means":7517,"Ġmeas":7518,"proj":7519,"Ġspin":7520,"DoesNotExist":7521,"Window":7522,"pip":7523,"Ġndim":7524,"ĠCSV":7525,"Ġapplies":7526,"ĠYAML":7527,"Ġrs":7528,"sgi":7529,"GP":7530,"Mark":7531,"hard":7532,"Ġcv":7533,"aging":7534,"sterior":7535,"({\"":7536,"mediator":7537,"Ġoccurs":7538,"}\")":7539,"Ġfurther":7540,"getcwd":7541,"ĠSystem":7542,"Internal":7543,"objs":7544,"sampling":7545,"structions":7546,"FFFF":7547,"decorator":7548,"Failure":7549,"__:":7550,"PREFIX":7551,"Ġicon":7552,"Ġtol":7553,"degree":7554,"neg":7555,"Ġclusters":7556,"boto":7557,"Ġexchange":7558,"Ġhref":7559,"Ġglyph":7560,"setLevel":7561,"Ġproblems":7562,"Ġlarger":7563,"Ġpanel":7564,"EV":7565,"seudo":7566,"Ġct":7567,"Ġ'\"":7568,"Ġdims":7569,"Ġlisted":7570,"Ġlistener":7571,"Ġcheckpoint":7572,"76":7573,"ante":7574,"chemas":7575,"more":7576,"Ġvisit":7577,"Ġcutoff":7578,"rdf":7579,"Ġgzip":7580,"odb":7581,"ĠImplemented":7582,"USE":7583,"ĠMap":7584,"ides":7585,"generic":7586,"alculates":7587,"Ġhours":7588,"Rule":7589,"WA":7590,"mails":7591,"ĠCom":7592,"agger":7593,"Sec":7594,"Ġinc":7595,"Ġmp":7596,"Ġ\"__":7597,"Ġactivity":7598,"Ġexecutor":7599,"unicate":7600,":\")":7601,"Ġsites":7602,"$',":7603,"aps":7604,"tn":7605,"cycle":7606,"Ġpressure":7607,"45":7608,"Option":7609,"Unsupported":7610,"Ġaff":7611,"Ġexcluded":7612,"Ġhaving":7613,"team":7614,"Ġtransformation":7615,"quee":7616,"Ġouter":7617,"irt":7618,"ĠStr":7619,"general":7620,"six":7621,"met":7622,"ATCH":7623,"Ġmasked":7624,"integr":7625,")**":7626,"ĠPri":7627,"Ġcomputation":7628,"streams":7629,"Ġcleanup":7630,"inition":7631,"Ġcipher":7632,"ysql":7633,"SSAGE":7634,"Ġbroadcast":7635,"ĠHttpResponse":7636,"Ġtrial":7637,"Ġcrypto":7638,"usr":7639,"imit":7640,"NN":7641,"unused":7642,"alignment":7643,"Ġpercentage":7644,"><":7645,"front":7646,"probab":7647,"ĠEnd":7648,"Ġneg":7649,"Ġclassification":7650,"ĠYields":7651,"flo":7652,"ĠThen":7653,"Ġopened":7654,"Ġsignals":7655,"\"}":7656,"Ġred":7657,"([(":7658,"Ġordering":7659,"Ġsilent":7660,"unded":7661,"ĠPh":7662,"precation":7663,"Ġgeneric":7664,"Ġverbosity":7665,"mtree":7666,"Ġexpanded":7667,"Ġmeasurement":7668,"rho":7669,"))[":7670,"(\"'":7671,"notes":7672,"Ġprocessor":7673,"Ġcallbacks":7674,"critical":7675,"llo":7676,"Ġtranscript":7677,"Ġmet":7678,"Ġintersection":7679,")`":7680,"solver":7681,"Ġnu":7682,"Ġmagnitude":7683,"URCE":7684,"two":7685,"Denied":7686,"GO":7687,"revision":7688,"Ġreload":7689,"room":7690,"digits":7691,"Ġsmaller":7692,"acl":7693,"cending":7694,"fits":7695,"SSL":7696,"compatible":7697,"ĠHowever":7698,"[_":7699,"Ġrename":7700,"extent":7701,"dag":7702,"ĠUses":7703,"Ġneighbors":7704,"ontsize":7705,"(\"\"":7706,"Fetch":7707,"Ġborder":7708,"collections":7709,"Ġrestrict":7710,"dients":7711,"Ġupd":7712,"Ġrepresented":7713,"mx":7714,"Ġtoler":7715,"ilename":7716,"(\",":7717,"Ġnewly":7718,"defs":7719,"ĠPerform":7720,"spice":7721,"Ġdepends":7722,"=[],":7723,"QUI":7724,"38":7725,"osed":7726,"Ġphone":7727,"Ġcorresponds":7728,"Policy":7729,"ĠColumn":7730,"/',":7731,"BASE":7732,"Med":7733,"fq":7734,"Ġcoverage":7735,"ught":7736,"ĠRO":7737,"Ġspecies":7738,"ĠHelper":7739,"chanism":7740,"Vis":7741,"nick":7742,"composition":7743,"ALI":7744,"SCII":7745,"hdr":7746,"Ġlex":7747,"PORT":7748,"Ġbank":7749,"Ġmicro":7750,"tolist":7751,"actual":7752,"legend":7753,"Ġdeployment":7754,"GU":7755,"saved":7756,"Ġincoming":7757,"ĠĠĠĠĠĠĠĠĠĠĠĠĠĠĠĠĠĠĠĠĠĠĠĠĠĠĠĠĠĠĠĠĠĠĠĠĠĠĠĠĠĠĠĠĠĠĠĠĠĠĠĠ":7758,"compound":7759,"WORD":7760,"Matrix":7761,"recursive":7762,"Ġgap":7763,"working":7764,"registered":7765,"latitude":7766,"utures":7767,"consumer":7768,"Ġaccepts":7769,"Ġcapture":7770,"located":7771,"BY":7772,"SUB":7773,"gu":7774,"ctypes":7775,"should":7776,"Ġweighted":7777,"maybe":7778,"'^":7779,"Ġ^":7780,"checksum":7781,"LAB":7782,"partitions":7783,"surface":7784,"riendly":7785,"Current":7786,"rn":7787,"mitive":7788,"leton":7789,"Ġaliases":7790,"information":7791,"Ġstation":7792,"(\"_":7793,"ATOR":7794,"Ġusually":7795,"terminal":7796,"Ġscaling":7797,"randint":7798,")')":7799,"Ġ'$":7800,"Dist":7801,"EP":7802,"lored":7803,"thers":7804,"('')":7805,"osome":7806,"Ġur":7807,"Ġcrop":7808,"Ġwildcard":7809,"cks":7810,"Ġoverla":7811,"Ġ\"\".":7812,"ĠNullArgument":7813,"irtual":7814,"Ġtries":7815,"Ġnamespaces":7816,"ĠET":7817,"DELETE":7818,"Ġformula":7819,"Lookup":7820,"Ġchoose":7821,"mig":7822,"Ġ:,":7823,"ups":7824,"ĠSort":7825,"Descriptor":7826,"CACHE":7827,"dns":7828,"windows":7829,"Ed":7830,"war":7831,"pie":7832,"Ġhigher":7833,"tzinfo":7834,"={},":7835,"Now":7836,"Ġreach":7837,"001":7838,"gies":7839,"locity":7840,"tenant":7841,"ĠTemplate":7842,"%%":7843,"Lib":7844,"ĠReferences":7845,"Ġprovides":7846,"neighbors":7847,"Wait":7848,"Ġnotes":7849,"when":7850,"xies":7851,"ĠĠĠĠĠĠĠĠĠĠĠĠĠĠĠĠĠĠĠĠĠĠĠĠĠĠĠĠĠĠĠĠĠĠĠĠĠĠĠĠĠĠĠĠĠĠĠĠĠĠĠĠĠ":7852,"Ġsuitable":7853,"impl":7854,"ttl":7855,"ĠContext":7856,"Interrupt":7857,"STATUS":7858,"kv":7859,"sla":7860,"ann":7861,"spy":7862,"naif":7863,"hours":7864,"_[":7865,"Ġfinish":7866,"Ġsquare":7867,"usion":7868,"ĠRecord":7869,"ĠAddress":7870,"Ġdummy":7871,"checks":7872,"Ġpartitions":7873,"Ġmanually":7874,"jar":7875,"Ġindexed":7876,"Ġvariants":7877,"ornado":7878,"\",\"":7879,"flu":7880,"unity":7881,"artesian":7882,"Grid":7883,"predicate":7884,"CC":7885,"VAR":7886,"_):":7887,"hdf":7888,"Ġdetail":7889,"constraint":7890,"mmar":7891,"Ġoffsets":7892,"countered":7893,"Ġlooking":7894,"globals":7895,"QUEST":7896,"Ġrestore":7897,"mapper":7898,"west":7899,"border":7900,"rols":7901,"Ġance":7902,"Ġcap":7903,"xis":7904,"Ġduplicates":7905,"Ġvcf":7906,"matched":7907,"caller":7908,"ĠJob":7909,"Ġdisplayed":7910,"gateway":7911,"Ġequation":7912,"inct":7913,"interfaces":7914,"Ġmaking":7915,"acc":7916,"REC":7917,"partic":7918,"retcode":7919,"nor":7920,"}')":7921,"ising":7922,"Ġart":7923,"moving":7924,"mapped":7925,"masked":7926,"Ġthreading":7927,"rsplit":7928,"Ġann":7929,"tau":7930,"gnc":7931,"sentence":7932,"Ġgrade":7933,"Ġpredictions":7934,"alancer":7935,"django":7936,"must":7937,"Ġage":7938,"UNT":7939,"Ġevaluation":7940,"Ġoverrides":7941,"Ġextent":7942,"sudo":7943,"ĠUTC":7944,"Ġtranslate":7945,"normalized":7946,"authorization":7947,"SPACE":7948,"Ġinserted":7949,"ĠSpecifies":7950,"Role":7951,"Ġfun":7952,"Ġ13":7953,"...\")":7954,"UND":7955,"_=":7956,"hot":7957,"Ġtools":7958,"ĠApi":7959,"Ġpreserve":7960,"Ġiteritems":7961,"secure":7962,"'})":7963,"ITE":7964,"Try":7965,"intext":7966,"Ġvlan":7967,"Ġunion":7968,"Font":7969,"]',":7970,"}',":7971,"Ġcr":7972,"Ġbalance":7973,"Ġchat":7974,"ugment":7975,"negative":7976,"shapes":7977,"Ġminor":7978,"Ġ'-'":7979,"********":7980,"LD":7981,"aming":7982,"ĠSince":7983,"velength":7984,"Ġextend":7985,"Ġcharset":7986,"ĠDoes":7987,"Ġpopulation":7988,"-+-+-+-+-+-+-+-+-+-+-+-+-+-+-+-+":7989,"Ġsatis":7990,"wind":7991,"ĠCode":7992,"translate":7993,"ĠSerial":7994,"Generator":7995,"SubElement":7996,"Ġscheduler":7997,"Ġmedi":7998,"player":7999,"Builder":8000,"ĠPoint":8001,"Ġplease":8002,"Ġcanvas":8003,"Ġzeros":8004,"ĠApply":8005,"sat":8006,"references":8007,"leaf":8008,"Ġdeep":8009,"Ġthresh":8010,"Converts":8011,"Batch":8012,"typ":8013,"inspect":8014,"LY":8015,"ased":8016,"Ġnearest":8017,"Ġtrajectory":8018,"ĠCopy":8019,"completed":8020,"enchmark":8021,"Stack":8022,"rx":8023,"Ġcss":8024,"Ġreadable":8025,"ĠEnvironment":8026,"Ġ\"{}\"":8027,"Post":8028,"Rel":8029,"hit":8030,"Ġdc":8031,"ĠPY":8032,"icket":8033,"shutdown":8034,"ĠVariable":8035,"Ġtolerance":8036,"repos":8037,"(\"[":8038,"Ġupgrade":8039,"ĠIPv":8040,"ĠValidationError":8041,"74":8042,"RS":8043,"Stop":8044,"tm":8045,"ĠCPU":8046,"ĠPart":8047,"iodic":8048,"binding":8049,"Account":8050,"Width":8051,"Ġer":8052,"problem":8053,"Ġ-----------":8054,"Ġworkspace":8055,"Ġfiltering":8056,"Ġaux":8057,"Ġmail":8058,"ĠĠĠĠĠĠĠĠĠĠĠĠĠĠĠĠĠĠĠĠĠĠĠĠĠĠĠĠĠĠĠĠĠĠĠĠĠĠĠĠĠĠĠĠĠĠĠĠĠĠĠĠĠĠĠ":8059,"duces":8060,"LIST":8061,"median":8062,"Ġclosest":8063,"Ġfar":8064,"aker":8065,"Ġdefines":8066,"Ġplain":8067,"fragment":8068,"ĠCommandExecutionError":8069,"ao":8070,"ko":8071,"->":8072,"MT":8073,"Ġ{}:":8074,"Ġdoing":8075,"Quant":8076,"........":8077,"relationship":8078,"()['":8079,"Ġkill":8080,"Ġ36":8081,"rune":8082,"Unit":8083,"')))":8084,"MB":8085,"Ġproduce":8086,"Ġacc":8087,"START":8088,"Ġquality":8089,"Files":8090,"ĠTakes":8091,"tun":8092,"Ġreduced":8093,"domains":8094,"EXT":8095,"TOKEN":8096,"Ġestimator":8097,"Interface":8098,"Ġidentifiers":8099,"Empty":8100,"llegal":8101,"represent":8102,"iming":8103,"agg":8104,"limited":8105,"definitions":8106,"NUM":8107,"ture":8108,"rem":8109,"lets":8110,"sph":8111,"Ġboard":8112,"LIB":8113,"Ġhyd":8114,"Ġlaunch":8115,"anging":8116,"Ġcorrelation":8117,"Raw":8118,"Ġbed":8119,"temperature":8120,"SN":8121,"coverage":8122,"parallel":8123,"Ġtyping":8124,"ky":8125,"recur":8126,"Ġwho":8127,"Ġcoroutine":8128,"received":8129,"09":8130,"enotype":8131,"Ġanchor":8132,"gradient":8133,"Ġexpired":8134,"Ġepsilon":8135,"ĠGoogle":8136,"Ġseveral":8137,"sequent":8138,"Ġnotify":8139,"RES":8140,"Root":8141,"izable":8142,"SOURCE":8143,"Ġperformance":8144,"queeze":8145,"Mon":8146,"vailable":8147,"leting":8148,"ĠAND":8149,"Ġunused":8150,"cay":8151,"started":8152,"rollment":8153,"Ġspectrum":8154,"yes":8155,"ctl":8156,"mpy":8157,"mainder":8158,"keyid":8159,"Ġchart":8160,"ĠUN":8161,"Example":8162,"COMP":8163,"repeat":8164,"character":8165,"Http":8166,"Val":8167,"world":8168,"station":8169,"utit":8170,"ĠDownload":8171,"ĠWait":8172,"POINT":8173,"Ġ%.":8174,"contrib":8175,"Ġ500":8176,"void":8177,"Active":8178,"Ġscopes":8179,"Show":8180,"/(":8181,"pillar":8182,"Ġinject":8183,"Ġstand":8184,"Comm":8185,"Ġlooks":8186,"Split":8187,"updates":8188,"Ġappended":8189,"Ġinterfaces":8190,"Segment":8191,"Ġstreams":8192,"Ġgives":8193,"fileobj":8194,"Ġcombine":8195,"xpath":8196,"Ġfrozen":8197,"Ġdead":8198,"Ġhint":8199,"ĠAb":8200,"ĠRemoves":8201,"seqs":8202,"topology":8203,"ĠPost":8204,"pretty":8205,"runs":8206,"likelihood":8207,"localhost":8208,"Ġmappings":8209,"(',')":8210,"500":8211,"ĠAct":8212,"phinx":8213,"Ġlikely":8214,"funct":8215,"Ph":8216,"readlines":8217,"Ġ404":8218,"Tool":8219,"Ġlinked":8220,"Ġglobals":8221,"Ġconfigs":8222,"expires":8223,"peg":8224,"izations":8225,"calar":8226,"Ġleaf":8227,"utcnow":8228,"88":8229,"Ġdeal":8230,"ĠSu":8231,"Ġactivation":8232,"tip":8233,"ylabel":8234,"learning":8235,"Ġpdf":8236,"ĠSchema":8237,"ipant":8238,"Ġlocals":8239,"Ġnormalization":8240,"Called":8241,"square":8242,"...')":8243,"ĠVersion":8244,"ROOT":8245,"Ġconfidence":8246,"ocus":8247,"Ġservers":8248,"ĠConfiguration":8249,":]:":8250,"rmtree":8251,"reaction":8252,"Ġexposure":8253,"ordin":8254,"Ġupon":8255,"canonical":8256,"native":8257,"Ġindependent":8258,"Ġls":8259,"ffff":8260,"pag":8261,"ĠBad":8262,"Ġremoving":8263,"Ġflush":8264,"Ġwindows":8265,"initialize":8266,"Plot":8267,"Plugin":8268,"bol":8269,"batches":8270,"Ġir":8271,"ota":8272,"Ġ`%":8273,"etched":8274,"allen":8275,"ĠExecute":8276,"Go":8277,"arante":8278,"ĠSSL":8279,"ynomial":8280,"groupby":8281,"Ġcalendar":8282,"Ġcorrespond":8283,"termines":8284,"ners":8285,"Ġomitted":8286,"Ġothers":8287,"Ġurlparse":8288,"species":8289,"scopes":8290,"}:{":8291,"Ġidentified":8292,"Ġdescribed":8293,"between":8294,"/\"":8295,"]'":8296,"xlabel":8297,"Ġmaint":8298,"ipy":8299,"ĠMy":8300,"Running":8301,"Accept":8302,"ĠAnd":8303,"tailed":8304,"Unexpected":8305,"versation":8306,"boardInterrupt":8307,"Ġregistration":8308,"Comple":8309,"tests":8310,"Ġreferenced":8311,"000000":8312,"Ġaggregate":8313,"Ġobtained":8314,"Var":8315,"()])":8316,"matplotlib":8317,"ĠRaise":8318,"ĠGenerates":8319,"incipal":8320,"Ġpb":8321,"Ġelapsed":8322,"Ġproduced":8323,"Ġsoft":8324,"Component":8325,"Sc":8326,"ĠWHERE":8327,"minutes":8328,"Protocol":8329,"udit":8330,"svg":8331,"cleaned":8332,"zer":8333,"Ġrepos":8334,"=\"%":8335,"Identifier":8336,"Ġneighbor":8337,"DecodeError":8338,":].":8339,"density":8340,"health":8341,"ĠTarget":8342,"Ġcompiled":8343,"completion":8344,"assignment":8345,"Button":8346,"Ġaws":8347,"gered":8348,"Ġdns":8349,"Ġ'+":8350,"imension":8351,"without":8352,"Ġprojects":8353,"Ġcomplet":8354,"Ġalternative":8355,"Ġarticle":8356,"Script":8357,"Ġarc":8358,"ĠPub":8359,"reddit":8360,"Ġbases":8361,"interpol":8362,"crets":8363,"Ġscene":8364,"macro":8365,"Ġinline":8366,"Ġdom":8367,"ĠMO":8368,"feat":8369,"ailab":8370,"ĠLook":8371,"cmap":8372,"Ġfew":8373,"Ġemit":8374,"Required":8375,"daemon":8376,"Ġcare":8377,"pabilities":8378,"ĠPermissionDenied":8379,"ale":8380,"Ġbulk":8381,"abort":8382,"Ġconsistent":8383,"ĠShow":8384,"longitude":8385,"Ġconverter":8386,"ĠRegister":8387,"Ġrepeat":8388,"Web":8389,"Ġbootstrap":8390,"DP":8391,"Ġalphabet":8392,"Ġvox":8393,"compare":8394,"Ġsudo":8395,"Ġcustomer":8396,"wo":8397,"Ġpf":8398,"Ġpillar":8399,"places":8400,"Ġapps":8401,"Ġdeli":8402,"resolution":8403,")\")":8404,"ĠReplace":8405,"Ġtran":8406,"Ġec":8407,"perform":8408,"usted":8409,"Ġ---------":8410,"ĠSession":8411,"Entity":8412,"Ġbc":8413,"ravel":8414,"foc":8415,"minor":8416,"Ġleave":8417,"Ġspatial":8418,"nonzero":8419,"uli":8420,"ye":8421,"Ġdiv":8422,"poses":8423,"resolver":8424,"charset":8425,"ArgumentParser":8426,"activate":8427,"Style":8428,"Ġsear":8429,"Ġrh":8430,"Ġraster":8431,"Ġalert":8432,"MQ":8433,"Ġcores":8434,"Ġassessment":8435,"bases":8436,"Ġmatrices":8437,"Ġgeneration":8438,"TEST":8439,"operations":8440,"Ġinfer":8441,"ĠOAuth":8442,"overwrite":8443,"Ġrenderer":8444,"================================":8445,"ĠTrace":8446,"Package":8447,"Ġinvert":8448,"Ġhad":8449,"ĠND":8450,"Keep":8451,"directories":8452,"Ġoperand":8453,"Ġdistances":8454,"Ġevaluated":8455,":'":8456,"zed":8457,"artbeat":8458,"Ġmarked":8459,"Ġmeaning":8460,"ĠURLs":8461,"Ġflu":8462,"attachment":8463,"bridge":8464,"ook":8465,"}`":8466,"Ġworld":8467,"fied":8468,"rich":8469,"prod":8470,"imuth":8471,"Ġclosing":8472,"hashes":8473,"CHAR":8474,"Next":8475,"RAN":8476,"metry":8477,"Ġfrequencies":8478,"Ġmk":8479,"exact":8480,"Ġhdr":8481,"ĠSkip":8482,"journal":8483,"Ġpossibly":8484,"Ġnonce":8485,"ĠSpecify":8486,"specified":8487,"Ġlegend":8488,"ĠSN":8489,"Ġprotein":8490,"ĠEX":8491,"Ġqubits":8492,">',":8493,"BE":8494,"TAG":8495,"bf":8496,"quared":8497,"kwds":8498,"spection":8499,"panel":8500,"hn":8501,"UNK":8502,"ITS":8503,"Ġidentical":8504,"79":8505,"Net":8506,"endpoints":8507,"Ġxs":8508,"locked":8509,"Ġadjac":8510,"overflow":8511,"Authorization":8512,"ace":8513,"reload":8514,"Ġmer":8515,"Ġpreferred":8516,"Ġobservations":8517,"Custom":8518,"Msg":8519,"decoder":8520,"rift":8521,"Ġgl":8522,"ĠOPTION":8523,"Ġfilled":8524,"ĠWith":8525,"licable":8526,"authenticated":8527,"ansion":8528,"Ġhighest":8529,"listener":8530,">>>":8531,"Ġrunner":8532,"ashboard":8533,"disconnect":8534,"Ġletter":8535,"hts":8536,"Ġnr":8537,"Ġdy":8538,"Ġdeviation":8539,"take":8540,"resolved":8541,"ĠUUID":8542,"graphic":8543,"widths":8544,"ĠUpdates":8545,"CATION":8546,"rv":8547,"increment":8548,"Ġack":8549,"Ġpys":8550,"ceil":8551,"speci":8552,"Ġ','.":8553,"Ġmodification":8554,"Initialize":8555,"++":8556,"Ġgrouped":8557,"checkpoint":8558,"charge":8559,"Timestamp":8560,"mf":8561,"pw":8562,"lopen":8563,"Ġlearning":8564,"Ġfake":8565,"communicate":8566,"dependency":8567,"kg":8568,"tex":8569,"}\",":8570,"arily":8571,"olding":8572,"Ġ[('":8573,"128":8574,"coef":8575,"ulator":8576,"returncode":8577,"nonce":8578,"Prefix":8579,"ĠColor":8580,"*\\":8581,"alo":8582,"Ġhierarchy":8583,"Ġfloating":8584,"special":8585,"Ġclients":8586,"Shape":8587,"HTTPError":8588,"Dep":8589,"Ġfin":8590,"Ġ'?":8591,"taint":8592,"ĠPage":8593,"under":8594,"mous":8595,"Att":8596,"xc":8597,"ĠTag":8598,"Ġdatastore":8599,"datastore":8600,"imal":8601,"clients":8602,"bindings":8603,"infer":8604,"Ġoauth":8605,"Ġbatches":8606,"__'):":8607,"mega":8608,"Ġfu":8609,"routing":8610,"ulary":8611,"spin":8612,"cade":8613,"literal":8614,"Ġhashes":8615,"velope":8616,"!!":8617,"Ġttl":8618,"Ġnor":8619,"Ġdeclared":8620,"Ġdatacenter":8621,"([])":8622,"iterations":8623,"funcs":8624,"Settings":8625,"arrow":8626,"Ġmgr":8627,"orders":8628,"Ġshutdown":8629,"Ġ256":8630,"ĠBEL":8631,"associ":8632,"PM":8633,"Ġfunct":8634,"Ġsq":8635,"cipher":8636,"ĠRGB":8637,"ĠHDF":8638,"othing":8639,"topics":8640,"OPTION":8641,"Offset":8642,"seen":8643,"Ġincorrect":8644,"Ġbp":8645,"Ġconvention":8646,"outcome":8647,"ĠSelect":8648,"ĠSplit":8649,"Sample":8650,"reat":8651,"Ġfoot":8652,"umor":8653,"Ġcovariance":8654,"('\"":8655,"Ġencrypt":8656,"additional":8657,"phan":8658,"letion":8659,"Ġvarious":8660,"sky":8661,"PR":8662,"Random":8663,"Wh":8664,"dry":8665,"ĠCustom":8666,"Ġ400":8667,"Ġcurrency":8668,"Ġrequirement":8669,"aring":8670,"Ġplots":8671,"abc":8672,"Ġvalidated":8673,"Section":8674,"bio":8675,"gence":8676,"Ġide":8677,"Report":8678,"igure":8679,"Ġproj":8680,"Ġneur":8681,"Ġuniform":8682,"udy":8683,"UTF":8684,"mappings":8685,"sdk":8686,"Ġroutine":8687,"Cate":8688,"FIN":8689,"least":8690,"Ġunexpected":8691,"ĠUsing":8692,"TES":8693,"trunc":8694,"BB":8695,"vpc":8696,"Ġrm":8697,"Ġendpoints":8698,"interp":8699,"ĠConnect":8700,"lapse":8701,"Definition":8702,"'d":8703,"CG":8704,"glyph":8705,"ĠMapping":8706,"relpath":8707,"middle":8708,"TIMEOUT":8709,"Ġperson":8710,"CD":8711,"yield":8712,"Ġnl":8713,"strptime":8714,"ĠInteger":8715,"Ġcontainers":8716,"MESSAGE":8717,"Ġavg":8718,"describe":8719,"Perform":8720,"ĠAssume":8721,"AV":8722,"mongo":8723,"Ġdecoder":8724,"ĠCalled":8725,"pared":8726,"ĠRPC":8727,"linspace":8728,"centers":8729,"haz":8730,"Merge":8731,"ances":8732,"ĠLength":8733,"ĠBu":8734,"pacing":8735,"-{":8736,":.":8737,"hits":8738,"inline":8739,"Ġna":8740,"adow":8741,"ĠBack":8742,"Ġexpires":8743,"Ġguarante":8744,"upt":8745,"Ġcredential":8746,"Ġsanit":8747,"ERS":8748,"OM":8749,"candidates":8750,"urity":8751,"Ġbs":8752,"mpath":8753,"etches":8754,"pagate":8755,"ĠMatch":8756,"Loop":8757,"Ġreceiver":8758,"Ġkwarg":8759,"Bar":8760,"WE":8761,"fm":8762,"Ġste":8763,"accounts":8764,"theme":8765,"Authentication":8766,"Success":8767,"Pi":8768,"isnan":8769,"ĠFetch":8770,"boundary":8771,"Ġorganization":8772,"Ġ[{'":8773,"illiseconds":8774,"functools":8775,"Hub":8776,"gres":8777,"nm":8778,"Ġtorch":8779,"uming":8780,"going":8781,"Ġmyminion":8782,"Ġlargest":8783,",\"":8784,"Cells":8785,"gui":8786,"Ġflask":8787,"Ġstar":8788,"Ġcolour":8789,"ĠCF":8790,"Ġfaster":8791,"requires":8792,"ĠCurrently":8793,"ailability":8794,"hub":8795,"sam":8796,"Ġ\"#":8797,"docstring":8798,"Ġerrno":8799,"9999":8800,"Ġipv":8801,"cleanup":8802,"Attributes":8803,"CR":8804,"gc":8805,"xi":8806,"ories":8807,"ĠIte":8808,"Ġencryption":8809,"subscribe":8810,"Ġindicator":8811,"eg":8812,"Ġlif":8813,"Ġints":8814,"cookies":8815,"phone":8816,"executor":8817,"Ġconverts":8818,"Creating":8819,"`).":8820,"aux":8821,"ios":8822,"raries":8823,"lips":8824,"ĠAccess":8825,"etree":8826,"ributed":8827,"ĠUp":8828,"Ġaddition":8829,"Ġplaceholder":8830,"Ġaggregation":8831,"Ġdl":8832,"Ġdigit":8833,"idxs":8834,"ParseError":8835,"Ra":8836,"TING":8837,"rees":8838,"--+":8839,"Ġhits":8840,"Ġroutes":8841,"workspace":8842,"ANCE":8843,"Ġcombination":8844,"pixels":8845,"07":8846,"SR":8847,"alect":8848,"basis":8849,"amel":8850,"lope":8851,"share":8852,"gov":8853,"Ġangles":8854,"Writer":8855,"Ġinvoke":8856,"rogram":8857,"bp":8858,"Ġpadded":8859,"ingle":8860,"Ġdag":8861,"Ġens":8862,"Ġkmip":8863,"factors":8864,"blue":8865,"STRING":8866,"Ġfour":8867,"Ġrr":8868,"prot":8869,"angular":8870,"Ġocc":8871,"!\"":8872,"HTML":8873,"half":8874,"smooth":8875,"live":8876,"ripts":8877,"Ġencountered":8878,"ftp":8879,"Parses":8880,"Ġassumes":8881,"################################":8882,"400":8883,"igs":8884,"oral":8885,"Inv":8886,"nums":8887,"ĠJo":8888,"Ġfollows":8889,"irect":8890,"Ġinvoked":8891,"MIP":8892,"bon":8893,"ctrl":8894,"':'":8895,"ords":8896,"Ġaccounts":8897,"ConnectionError":8898,"UI":8899,"tls":8900,"yy":8901,"Ġcompiler":8902,"umption":8903,"IDs":8904,"ĠDevice":8905,"Ġhappens":8906,"tell":8907,"ĠAzure":8908,"Ġ</":8909,"Ġstopped":8910,"GRO":8911,"Ġmi":8912,"])[":8913,"KeyError":8914,"levation":8915,"Ġasynchronous":8916,"Ġbelongs":8917,"Flag":8918,"Ġffi":8919,"need":8920,"Ġsheet":8921,"Ġlit":8922,"Ġassets":8923,"Ġoutcome":8924,"embedding":8925,"Ġauthenticated":8926,"qte":8927,"tur":8928,"Ġlive":8929,"lest":8930,"Ġspi":8931,"Ġliteral":8932,"infos":8933,"ĠBin":8934,"marks":8935,"ificant":8936,"Ġsd":8937,"Ġbam":8938,"iline":8939,"sphere":8940,"ARD":8941,"Ġclause":8942,"plane":8943,"94":8944,"finish":8945,"Ġwallet":8946,"Ġvpc":8947,"ĠGO":8948,"Ġregard":8949,"Ġtransactions":8950,"Ġblocking":8951,"Ġplotting":8952,"Ġexpiration":8953,"Display":8954,"focus":8955,")['":8956,"sses":8957,"transcript":8958,"questions":8959,"Stats":8960,"Ġminute":8961,"responses":8962,"One":8963,"Tags":8964,"Ġcn":8965,"ctet":8966,"illa":8967,"minute":8968,"acquire":8969,"Namespace":8970,"Ġdefining":8971,"Ġ90":8972,"periods":8973,"+\"":8974,"scriber":8975,"scriptors":8976,"ĠProper":8977,"Loader":8978,"Allow":8979,"lasticsearch":8980,"ĠOK":8981,"Ġtau":8982,"Ġembedded":8983,"Ġlicense":8984,"Jo":8985,"Ġ18":8986,"fobj":8987,"appa":8988,"ĠDocument":8989,"ĠComm":8990,"sensus":8991,"Ġmanaged":8992,"tcp":8993,"instrument":8994,"atural":8995,"rosa":8996,"Ġstudent":8997,"Ġchr":8998,"ACT":8999,"Lock":9000,"Ġgreen":9001,"Buffer":9002,"ffic":9003,"AI":9004,"Ġcontour":9005,"Ġ[]):":9006,"statistics":9007,"TEMPLATE":9008,"CLASS":9009,"allenge":9010,"=='":9011,"âĢ":9012,"Ġrem":9013,"traj":9014,"Ġsubsequent":9015,"locator":9016,"estimator":9017,"atal":9018,"argspec":9019,"Ġinteractive":9020,"Ġskipped":9021,"DateTime":9022,"ĠUTF":9023,"ĠVerify":9024,"land":9025,"alchemy":9026,"ĠAST":9027,"outdir":9028,"Ġ...,":9029,"Ġsplits":9030,"Ġoptimizer":9031,"enums":9032,"removed":9033,"Ġcs":9034,"pex":9035,"ĠClean":9036,"ĠMAX":9037,"Ġcleaned":9038,"Ġtensors":9039,"Ġpp":9040,"lace":9041,"Ġthro":9042,"Ġhold":9043,"Ġ[%":9044,"Ġmemo":9045,"probs":9046,"Cert":9047,"Total":9048,"klass":9049,"Ġatt":9050,"Ġsuggest":9051,"Ġet":9052,"Ġtok":9053,"Ġforms":9054,"Retry":9055,"ĠKeyboardInterrupt":9056,"Ġboundaries":9057,"Ġsimilarity":9058,"Ġcoefficient":9059,"retrieve":9060,"atched":9061,"Ġreserved":9062,"Ġbranches":9063,"rapping":9064,"Ġ[_":9065,"resize":9066,"ĠLabel":9067,"entifiers":9068,"LOAD":9069,"Ġdatatype":9070,"CDF":9071,"ĠPandas":9072,"ĠKE":9073,"broadcast":9074,"FLAGS":9075,"Ġaren":9076,"Ġinherit":9077,"Ġ\"(":9078,"Ġhorizontal":9079,"Ġmolecule":9080,"PEN":9081,"ĠProject":9082,"Ġvertical":9083,"Ġderivative":9084,"pedia":9085,"Ġmargin":9086,"projection":9087,"Ġoutdir":9088,"RECT":9089,"Ġfeat":9090,"Reads":9091,"Using":9092,"ium":9093,"Ġws":9094,"lax":9095,"Ġyields":9096,"Ġverb":9097,"rmware":9098,"WT":9099,"ĠModule":9100,"ĠLocation":9101,"OrderedDict":9102,"Ġpersist":9103,"rotation":9104,"Ġrespectively":9105,"BACK":9106,"ctype":9107,"formula":9108,"Ġkv":9109,"compose":9110,"Ġprotobuf":9111,"Ġupdating":9112,"crop":9113,"ln":9114,"scipy":9115,"andi":9116,"Ġslices":9117,"routes":9118,"Ġtodo":9119,"Ġparagraph":9120,"reated":9121,"Ġcampaign":9122,"TEN":9123,"Ġdependent":9124,"Ġmarkers":9125,"histogram":9126,"Ġadapt":9127,"hyper":9128,"recipi":9129,"tor":9130,"Ġfits":9131,"Ġdeepcopy":9132,"ĠSec":9133,"])]":9134,"capacity":9135,"translation":9136,"Ġsampled":9137,"Ġvisited":9138,"Ġstores":9139,"Ġauthenticate":9140,"crs":9141,"raster":9142,"renderer":9143,"illing":9144,"REQUEST":9145,"LENG":9146,"adapt":9147,"eper":9148,"around":9149,"Ġslow":9150,"Ġfaces":9151,"regular":9152,"Ġcd":9153,"Ġ'').":9154,"chdir":9155,"ĠSSH":9156,"Ġmock":9157,"Apply":9158,"widgets":9159,"LENGTH":9160,".+":9161,"cha":9162,"ĠSP":9163,"ĠInternal":9164,"trial":9165,"Ġ\"\":":9166,"There":9167,"Execute":9168,"vtk":9169,"Ġoptimization":9170,"Ġrecipe":9171,"wsgi":9172,"Ġtweet":9173,"stmts":9174,"Ġpdb":9175,"Ġpalette":9176,"ĠValues":9177,"Ġending":9178,"containers":9179,"Draw":9180,"gos":9181,"Ġsink":9182,"ĠMerge":9183,"Ġpublished":9184,"HOME":9185,"mant":9186,"atar":9187,"}.{":9188,"Ġdidn":9189,"Columns":9190,"Ġresidual":9191,"mgr":9192,"Ġtheme":9193,"Ġstuff":9194,"Ġascending":9195,"Project":9196,"Ġfollowed":9197,"Elements":9198,"Ġdebugging":9199,"IME":9200,"hierarchy":9201,"inux":9202,"Ġ'(":9203,"classification":9204,"Ġinitialization":9205,"Analysis":9206,")?":9207,"but":9208,"mv":9209,"whe":9210,"Ġdeci":9211,"etect":9212,"ĠĠĠĠĠĠĠĠĠĠĠĠĠĠĠĠĠĠĠĠĠĠĠĠĠĠĠĠĠĠĠĠĠĠĠĠĠĠĠĠĠĠĠĠĠĠĠĠĠĠĠĠĠĠ":9213,"submission":9214,"Ġdestroy":9215,"nowledge":9216,"Ġremoves":9217,"Assign":9218,"mav":9219,"\":\"":9220,"Hel":9221,"Top":9222,"restore":9223,"ĠIPython":9224,"portal":9225,"fu":9226,"kb":9227,"Ġtreated":9228,"erance":9229,"1024":9230,"Ġaligned":9231,"Ġprobabilities":9232,"COLOR":9233,"Ġmol":9234,"Ġprinted":9235,"ĠXXX":9236,"ĠDirectory":9237,"Ġpopulate":9238,":,":9239,"Flags":9240,"RN":9241,"TABLE":9242,"follow":9243,"Ġquick":9244,"serts":9245,"ĠSD":9246,"letter":9247,"Updates":9248,"ĠTimeout":9249,"Ġstripped":9250,"onymous":9251,"/#":9252,"FE":9253,"gpu":9254,"restart":9255,"Ġti":9256,"loy":9257,"Ġhealth":9258,"Ġseems":9259,"ĠChannel":9260,"Ġlocator":9261,">`_":9262,"indicator":9263,"floor":9264,"equ":9265,"Ġsin":9266,"strain":9267,"Ġquantity":9268,"encryption":9269,"lio":9270,"scene":9271,"ĠLa":9272,"COMM":9273,"ATED":9274,"Items":9275,"RT":9276,"ĠImp":9277,"readable":9278,"Ġlocated":9279,"ygons":9280,"separated":9281,"ĠHere":9282,"gi":9283,"{'":9284,"Ġaz":9285,"ĠPa":9286,"Ġhooks":9287,"oute":9288,"Ġprefixes":9289,"Factor":9290,"into":9291,"Ġvtk":9292,"Ġpay":9293,"ValidationError":9294,"Ġplus":9295,"Ġlegacy":9296,"evaluate":9297,"Sto":9298,"covered":9299,"isation":9300,"exposure":9301,"Ġrx":9302,"(\".\")":9303,"scatter":9304,"Install":9305,"splits":9306,"REF":9307,"Ġbuilding":9308,"Ġsampler":9309,"Ġrepeated":9310,"ĠGraphQL":9311,"[^":9312,"cmp":9313,"mul":9314,"']}":9315,"Ġpayment":9316,"')),":9317,"legate":9318,"ĠStruct":9319,"98":9320,"Ġvo":9321,"ĠExtra":9322,"Ġimports":9323,"...)":9324,"mallest":9325,"combine":9326,"(':')":9327,"2000":9328,"Mask":9329,"Space":9330,"don":9331,"wers":9332,"ĠReference":9333,"timeseries":9334,"\")[":9335,"ĠStorage":9336,"Ġrefer":9337,"monic":9338,"ADD":9339,"azard":9340,"aggregate":9341,"Extra":9342,"roots":9343,"fraction":9344,"Ġ128":9345,"ĠReads":9346,"('.',":9347,"ambda":9348,"Ġfunctools":9349,"SB":9350,"elif":9351,"sci":9352,"infile":9353,"eng":9354,"ulus":9355,"thro":9356,"(\"<":9357,"Ġray":9358,"Ġgenerating":9359,"Ġsessions":9360,"54":9361,"Gui":9362,"ball":9363,"ilation":9364,"Ġthus":9365,"maker":9366,"Ġmechanism":9367,"rength":9368,"Ġrhs":9369,"ĠGra":9370,"prefixes":9371,"helpers":9372,"Mix":9373,"inp":9374,"coin":9375,"Ġrpc":9376,"Ġprofiles":9377,"Ġwhy":9378,"Ġrendering":9379,"ĠGeo":9380,"Pattern":9381,"}_":9382,"Ġreject":9383,"Ġnick":9384,"Ġthumbnail":9385,"protein":9386,"notation":9387,"Ġindexing":9388,"Ġsoup":9389,"Ġqubit":9390,"WORK":9391,"duplicate":9392,"spac":9393,"queries":9394,"ĠOptions":9395,"Ġconfigurations":9396,"Ġcomps":9397,"DIS":9398,"Close":9399,")})":9400,"Has":9401,"ĠĠĠĠĠĠĠĠčĊ":9402,"orph":9403,"rout":9404,"Ġeg":9405,"endor":9406,"iteration":9407,"Ġtopics":9408,"grp":9409,"Nodes":9410,"Iterable":9411,"Ġrecommended":9412,"Ġticket":9413,"Ġpprint":9414,"Ġeq":9415,"lision":9416,"ĠOper":9417,"substit":9418,"compiler":9419,"scales":9420,"cpus":9421,"gapic":9422,"large":9423,"Float":9424,"dynamic":9425,"alker":9426,"today":9427,"subplot":9428,"Ġcorpus":9429,"Ġremain":9430,"Ġsco":9431,"DED":9432,"Ġwrites":9433,"SHA":9434,"UTP":9435,"[\\":9436,"lm":9437,"Ġinf":9438,"Ġ({})":9439,"Ġclassifier":9440,"Ġsorting":9441,"overlap":9442,"Ġimplicit":9443,"72":9444,"PH":9445,"Ġorientation":9446,"providers":9447,"modes":9448,"iate":9449,"slots":9450,"attempts":9451,"Ġfc":9452,"ĠSimple":9453,"Ġlisting":9454,"Ġapplicable":9455,"Ġintersect":9456,"Region":9457,"HOST":9458,"Ġfluxes":9459,":{":9460,"Op":9461,"inel":9462,"Ġtaking":9463,"ĠDist":9464,"ĠStringIO":9465,"blacklist":9466,"ĠIgnore":9467,"MD":9468,"MAC":9469,"catch":9470,"delimiter":9471,"Ġins":9472,"anity":9473,"virt":9474,"Ġimportant":9475,"registration":9476,"quality":9477,"pkt":9478,"ipt":9479,"ctime":9480,"Ġsens":9481,"Ġrid":9482,"Stat":9483,"Ġ80":9484,"Json":9485,"lr":9486,"Ġtp":9487,"Ġnargs":9488,"loading":9489,"ialog":9490,"xyz":9491,"rfc":9492,"prediction":9493,"upgrade":9494,"macs":9495,"ĠASCII":9496,"tegr":9497,"allery":9498,"deriv":9499,"ĠRandom":9500,"Ġmaterial":9501,"avas":9502,"ayload":9503,"Ġtransforms":9504,"authorized":9505,"BIN":9506,"Global":9507,"\\\"":9508,"iki":9509,"onic":9510,"degrees":9511,"Encoder":9512,"realpath":9513,"ĠIterate":9514,"Ġdiagonal":9515,"Binary":9516,"Temporary":9517,"GIN":9518,"blank":9519,"bulk":9520,"cdf":9521,"oser":9522,"rea":9523,"Ġinp":9524,"upy":9525,"Expression":9526,"Setting":9527,"dense":9528,"URN":9529,"small":9530,"vault":9531,"Ġinferred":9532,"Ġdevelo":9533,"verbosity":9534,"ĠCIM":9535,"Ġlazy":9536,"Ġscenario":9537,"ĠQueue":9538,"whitespace":9539,"trl":9540,"])))":9541,"Ġnice":9542,"shutit":9543,"Align":9544,".:":9545,"42":9546,"My":9547,"]-":9548,"ech":9549,"Ġresolver":9550,"csr":9551,"checker":9552,"CHAN":9553,"QUIRED":9554,"UTPUT":9555,"Ġdialect":9556,"ĠSCons":9557,"ĠPID":9558,"Ġcapacity":9559,"Ġuploaded":9560,"Ġsense":9561,"SKIP":9562,"Operator":9563,"lv":9564,"Ġmouse":9565,"Ġgran":9566,"Construct":9567,"Ġinstitute":9568,"Ġdescribe":9569,"={\"":9570,"Ġconcaten":9571,"Received":9572,"Ġlittle":9573,"qdm":9574,"rations":9575,"coeffici":9576,"expon":9577,"Ġrng":9578,"protected":9579,"Ġshown":9580,"calendar":9581,"127":9582,"itories":9583,":`~.":9584,"Ġlanguages":9585,"TRY":9586,"Ġproducts":9587,"TT":9588,"vc":9589,"inverse":9590,"styles":9591,"Ġcid":9592,"adj":9593,"Ġimportlib":9594,"LIM":9595,"broker":9596,"/{}/":9597,"Socket":9598,"slices":9599,"dem":9600,"Ġsong":9601,"Ġbond":9602,"magnitude":9603,"constructor":9604,"thernet":9605,"Ġjava":9606,"LES":9607,"Ġgeom":9608,"Fields":9609,"Ġ2016":9610,"dicates":9611,".],":9612,"Ġintended":9613,"Ġaccuracy":9614,"license":9615,"Ġshapes":9616,"DX":9617,"]]:":9618,"Ġamb":9619,"Ġretain":9620,"rome":9621,"ĠPDF":9622,"perms":9623,"grains":9624,"Ġverification":9625,"Ġsecondary":9626,"receive":9627,"Ġcircuit":9628,"Track":9629,"Vari":9630,"Ġgs":9631,"stable":9632,"stride":9633,"ĠFlag":9634,"Ġenc":9635,"ĠNothing":9636,"achine":9637,"Determine":9638,"Ġshortcut":9639,"Enum":9640,"recognized":9641,"Ġsolve":9642,"mags":9643,"todo":9644,"ĠThread":9645,"\\.":9646,"km":9647,"maries":9648,"article":9649,"Ġchan":9650,"ĠDisplay":9651,"Ġamplitude":9652,"Ġdynam":9653,"prep":9654,"Ġshif":9655,"ifiers":9656,"Ġcontinuous":9657,"Ġexecuting":9658,"Ġdetermines":9659,"gw":9660,"Ġwater":9661,"Ġseason":9662,"Ġgenerates":9663,"Ġimpro":9664,"Signature":9665,"Ġscaled":9666,"]{":9667,"iface":9668,"Ġpul":9669,"Ġnc":9670,"Ġdeps":9671,"getvalue":9672,"exchange":9673,"ĠDep":9674,"Ġheat":9675,"newaxis":9676,"graphy":9677,"Encode":9678,"vanced":9679,"GL":9680,"Usage":9681,"[[":9682,"`.\"\"\"":9683,"orientation":9684,"ĠSample":9685,"CMD":9686,"gid":9687,"tot":9688,"stri":9689,"Ġswap":9690,"Ġiso":9691,"namespaces":9692,"Ġcov":9693,"ĠPi":9694,"ĠExt":9695,"requested":9696,"acket":9697,"PASS":9698,"probability":9699,"Ġartist":9700,"Decorator":9701,"iloc":9702,"ptim":9703,"ament":9704,"__',":9705,"Ġsubclasses":9706,"arginal":9707,"dition":9708,"instr":9709,"atalog":9710,"Ġhide":9711,"Ġ_(\"":9712,"Ġshuffle":9713,"ĠLet":9714,"aching":9715,"Ġlocally":9716,"SSION":9717,"(?:":9718,"MC":9719,"DOC":9720,"receiver":9721,"Ġoverridden":9722,"-~":9723,"CCESS":9724,"Scan":9725,"Title":9726,"dy":9727,"secut":9728,"endian":9729,"Ġwire":9730,"ĠAction":9731,"Ġsigning":9732,"Idx":9733,"population":9734,"initializer":9735,"Ġnumerical":9736,"[...,":9737,"]=":9738,"got":9739,"ĠAfter":9740,"etime":9741,"sessions":9742,"Interval":9743,"Ġfastq":9744,"Ġintegration":9745,"ĠOverride":9746,"hazard":9747,"tran":9748,"Ġcm":9749,"Ġfileobj":9750,"ĠOb":9751,"cally":9752,"mplementation":9753,"Ġwidgets":9754,"xlim":9755,"assets":9756,"ĠSto":9757,"ĠVAL":9758,"ĠLink":9759,"Ġphysical":9760,"Ġreports":9761,"builtin":9762,"Ġallele":9763,"avascript":9764,"margin":9765,"mpp":9766,"ĠTer":9767,"ĠFlask":9768,"linux":9769,"starting":9770,"Ġobserver":9771,"Ġ':'":9772,"Ġrecipient":9773,"Double":9774,"hide":9775,"stroke":9776,"Ġplo":9777,"Ġthird":9778,"Ġrand":9779,"='.":9780,"ERY":9781,"Ġmoving":9782,"Ġscripts":9783,"Ġqueues":9784,"LAY":9785,"destroy":9786,"Layout":9787,"Ġorgan":9788,"Comment":9789,"OD":9790,"Windows":9791,"Ġevidence":9792,"Ġmedian":9793,"Database":9794,"Ġsentences":9795,"Ġperiods":9796,"PARAM":9797,"[~":9798,"rash":9799,"ĠSO":9800,"ĠClear":9801,"ĠCalculates":9802,"Ġoperators":9803,"published":9804,"Ġcenters":9805,"Ġdaily":9806,"Ġsubstitution":9807,"Edit":9808,"clock":9809,"dw":9810,"Ġsci":9811,"Ġiface":9812,"Ġwind":9813,"Ġrunas":9814,"disabled":9815,"gradebook":9816,"radians":9817,"=__":9818,"deli":9819,"rier":9820,"too":9821,"stors":9822,"dialog":9823,"('>":9824,"ĠParses":9825,"Ġzipfile":9826,"StringIO":9827,"merged":9828,"afka":9829,"Ġcollected":9830,"Ġtreat":9831,"converter":9832,"512":9833,"Ġpasses":9834,"Ġsystems":9835,"Ġmutation":9836,"Ġhazard":9837,"Retrieves":9838,"ĠRFC":9839,"Ġsqlite":9840,"pressure":9841,"LINK":9842,"bootstrap":9843,"neighbor":9844,"Ġsky":9845,"normpath":9846,"Cluster":9847,"duplicates":9848,"gzip":9849,"ores":9850,"ĠĠĠĠĠĠĠĠĠĠĠĠĠĠĠĠĊ":9851,"Ġuserid":9852,"\"]]":9853,"Ġdiscrete":9854,"Ġpolling":9855,"Ġexported":9856,"Changed":9857,"Ġpiece":9858,"]\"":9859,"squeeze":9860,"limin":9861,"Ġmapper":9862,"Ġ``\"":9863,"Ġviews":9864,"conflict":9865,"Ġunders":9866,"Ġmodname":9867,"writing":9868,"SERVER":9869,"Ġscheduled":9870,"Funce":9871,"silent":9872,"wallet":9873,"encrypt":9874,"arse":9875,"alformed":9876,"ceed":9877,"Ġspacing":9878,"Ġmm":9879,"Ġspecs":9880,":`\\":9881,"Seq":9882,"ducer":9883,"Ġ'.'.":9884,"stackoverflow":9885,"unctuation":9886,"Funceble":9887,"scheduler":9888,"Ġremainder":9889,"Ġaspect":9890,"ĠMon":9891,"ĠInt":9892,"Ġfactors":9893,"legacy":9894,"Transaction":9895,"Fore":9896,"decl":9897,"atable":9898,"ĠBig":9899,"THON":9900,"aligned":9901,"ĠTransform":9902,"mutations":9903,"Bind":9904,"GR":9905,"Ġloads":9906,"observation":9907,"Ġdetector":9908,"'\",":9909,"RUN":9910,"Zip":9911,"fault":9912,"holders":9913,"Ġthough":9914,"Ġpagin":9915,"Ġcorner":9916,"Ġeffective":9917,"similar":9918,"Ġpm":9919,"ĠSup":9920,"ĠBut":9921,"DEX":9922,"ĠOptionally":9923,"TRAN":9924,":')":9925,"Bit":9926,"XY":9927,"qm":9928,"ardi":9929,"Ġhack":9930,"pay":9931,"answer":9932,"ĠShape":9933,"Generates":9934,"isoformat":9935,"Specifi":9936,"ĠOptionParser":9937,"300":9938,"Pe":9939,"codec":9940,"lename":9941,"Ġxi":9942,"ĠInstall":9943,"ĠDecimal":9944,"Ġdescend":9945,"Ġexpire":9946,"=('":9947,"rating":9948,"Ġinfile":9949,"ellow":9950,"INET":9951,"queues":9952,"ĠDocker":9953,"Ġsmart":9954,"Partition":9955,"Ġappears":9956,"Sa":9957,"develo":9958,"Ġfr":9959,"lfile":9960,"ĠEl":9961,"nearest":9962,"Exp":9963,"crease":9964,"transactions":9965,"ĠUnknown":9966,"Ġtriggered":9967,"optimizer":9968,"Axes":9969,"ssue":9970,"Ġ17":9971,"mplements":9972,"ĠĠĠĠĠĠĠĠĠĠĠĠĠĠĠĠĠĠĠĠĠĠĠĠĠĠĠĠĠĠĠĠĠĠĠĠĠĠĠĠĠĠĠĠĠĠĠĠĠĠĠĠĠĠĠĠ":9973,"Ġindentation":9974,"continue":9975,"></":9976,"Pix":9977,"kers":9978,"urable":9979,"Ġprog":9980,"logfile":9981,"priv":9982,"Ġvolumes":9983,"Exists":9984,"Doc":9985,"]`":9986,"hape":9987,"Ġreuse":9988,"lide":9989,"))):":9990,"NOWN":9991,"chines":9992,"exus":9993,"tok":9994,"ĠEOF":9995,"Ġpast":9996,"fromstring":9997,"Ġquadratic":9998,"netloc":9999},"merges":["Ġ Ġ","ĠĠ ĠĠ","ĠĠ Ġ","ĠĠĠĠ ĠĠĠ","s e","i n","r e","ĠĠĠĠ ĠĠĠĠ","o n","a t","Ġ t","e r","o r","s t","Ġ a","e n","Ġ =","Ġ i","ĠĠĠĠ ĠĠĠĠĠĠĠ","d e","h e","\" \"","l e","a r","m e","Ġ f","a l","Ġ c","Ġ re","l f","se lf","i on","Ġ Ċ","u r","Ġ p","Ġt he","Ġ n","i t","c t","Ġ in","a n","Ġ o","c e","Ġ s","g e","r o","a me","Ġ e","Ġi f","in g",") :","u t","\"\" \"","Ġ self","u e","l o","ur n","Ġ d","Ġ b","Ġ de","t urn","en t","Ġ '","- -","ĠĠĠĠĠĠĠĠ ĠĠĠĠĠĠĠĠ","p e","Ġ \"\"\"","Ġ w","at e","l i","f i","s s","u n","o t","ĠĠĠĠĠĠĠĠ ĠĠĠĠĠĠĠ","Ġ m","Ġt o","r a","Ġre turn","i d","Ġf or","Ġde f","Ġ #","e d","c o","m p","Ġi s","a d","on e","v al","u l","Ġo f","Ġa n","l a","Ġ st","p t","at a","Ġ :","c h","ge t","k e","( )","r i","i l","y pe","n ame","Ġ (","i s","t er","N one","u m","Ġ T","e s","c k",". _","d i","e x","Ġn ot","a m","Ġ se","e l","at ion","Ġc o","at h","u p","g s","v er","a s","Ġ \"","Ġc on","t h","p ar","val ue","Ġan d","ct ion","Ġt h","ul t","Ġe x",") )","m a","-- --","( '","r or","' ,","v e","c on","ke y","Ġ h","t ype","Ġ l","Ġb e","o l","b le","o de","Ġf i","se r","[ '","' ]","li st","Ġ g","en d","or m","Ġ None","i me","e ct","it h","Ġ or","b j","Ġ A","p p","R e","in t","ĠĠĠĠĠĠĠĠ ĠĠĠĠĠĠĠĠĠĠĠ","an d","t a","Ġ _","t o","pt ion","p ath","Ġ u","s p","ex t","a ge","Ġ `","o d","i z","or t","Ġ lo","Ġ +","par am","Ġ I","' )","q u","Ġd i","t e","m ent","i g","ro m","i se","f orm","Ġ [","Ġst r","fi le","v i","Ġe l","Ġ 1","Ġd ata","se t","Ġ me","Ġ {","st r","ar gs","Ġ *","Ġel se","Ġa s","r ror","E rror","Ġ value","l y","an ce","re n","Ġ r","Ġ %","Ġ S","( \"","Ġ -","e t","Ġn ame","' :","d ata","Ġ C","p o","Ġp ro","r y","q ue","Ġw ith","p ut","ĠĠĠĠ Ġ","Ġp ar","r ue","Ġ ra","re s","Ġa r","Ġa l","Ġ 0","Ġ= =","a se","in e","a ble","or d","Ġfi le","c he","u b","Ġ P","Ġre s","it e","Ġ F","e w","bj ect","st ance","> >","Ġf rom","i st","i c","er s","o ut","Ġ list","fi g","ĠT he","u s","Ġ Re","a ck","Ġm a","Ġra ise","t s","al l","iz e","o w","re d","f o","al se","el d","p ro","c i","p er","at t","mp le","Ġ v","t ime","o ur",") ,","que st","form at","m s","a pp","Ġ key","a ult","\" ,","Ġ on","k w","d ate","Ġ get","u re","de x","ar t","ĠĠĠĠĠĠĠĠĠĠĠĠĠĠĠĠ ĠĠĠĠĠĠĠĠĠĠĠĠĠĠĠĠ","Ġth at","ren t","r an","Ġ D","Ġw h","s ion","Ġc h","our ce","ra y","co de",". .","ur l","kw args","f f","i v","la ss","in d","se d","Ġo ut","turn s","` `","\" )","Ġ y","Ġlo g","ce ss","un d","Ġth is","Ġ E","s h","t ext","il l","Ġex ce","Ġl en","j o","s c","] )","Ġse t","at ch","er ror","Ġ` `","ame ter","l en","' '","g er","m m","u st","i le","o c","re ate","Ġb y","ct or","p re","Ġp a","u g","un t","Ġ x","Ġ en","d d","ode l","Ġp o","Ġs h","i p","Ġres ult","Ġ N","m o","p a","it ion","h t","Ġo bject","un ction","sp on","Ġ 2","0 0","ad d","c l","ss age","th od","ar y","Ġa re","app end","i ve","p y","Ġi t","it y","in stance","ce s","i m","Ġt ime","] ,","re ad","b er","ĠT rue","lo w","Ġt ry","um ent","Ġn ew","co l","ĠĠĠĠĠĠĠĠĠĠĠĠĠĠĠĠ ĠĠĠĠĠĠĠ","val id","ss ion","b o","Ġp ath","p i","ĠI f","d er","u le","Ġexce pt","Ġco l","ut e","Ġw e","Ġt ype","di ct","a mple","di r","Ġstr ing","li f","an ge","Ġ he","_ _","Ġ ro","o m","Ġ M","Ġw ill","de d","v ent","Ġal l","Ġp re","o p","ri b","spon se","Ġ V","ĠRe turns","Ġ la","ro up","at or","lo g","ver sion","r int","Ġ* *",") .","Ġ un","ig n","Ġe lif","Ġ >>","c a","in fo","p h","Ġn um","Ġ' ''","---- ----","Ġ )","or k","p ort","Ġ{ }","il d","Ġ>> >","č Ċ","Ġ R","as k","Ġ O","ar i","Ġ L","er y","ĠF alse","Ġn p","k en","att r","a ve","ĠĠĠĠĠĠĠĠĠĠĠĠĠĠĠĠ ĠĠĠĠĠĠĠĠ","Ġs pe","Ġ U","= '","lo ad","Ġcon t","Ġin t","Ġre quest","Ġ G","ameter s","up date","Ġo s",". \"\"\"","' .","ur rent","Ġis instance","Ġf unction","j s","c lass","o re","T rue","f e","m b","he ck","lo ck","ma ge","Ġ <","con fig","a pe","vi ce","c ation","\" :","Ġdef ault","ate d","I n","Ġu ser","b el","li ent","y s","s ize","ta in","ran s","Ġ ĉ","i al","n e","Ġi d","iv en","se n","p la","jo in","al ue","f a","p s","( ):","qu ery","Ġd o","Ġf il","Ġo ption","Ġ W","l it","= =","js on","o st","Ġh as","F alse","Ġa dd","g ument","Ġdi ct","o k","Ġme thod","Ġcon fig","ĠT h","Ġ k","m in","Ġb o","de f","en er","r ite","l ine","ĠĠĠĠ ĠĠ","um n","mm and","lo at","t ra","[ \"","th er","in dex","ar get","i es","at us","Ġ[ ]","Ġs ub","o s","ul d","Ġ >","str ing","Ġspe ci","Ġg iven","Ġn ode","ar ray","mp ort","Ġc an","m at","ut h","le ment","._ _","Ġ B","un c","ce ption","Ġl ine","E R","Ġre t","Ġp rint","c al","st e","Ġt e","ĠTh is","a g","od ule","Ġu se","n ode","Ġ le","t ing","Ġ at","an t","w ord","i fi","O N","Ġout put","g th","i f","Ġco mp","Ġfi eld","ĠE x","Ġ+ =","i r","o bj","n um","Ġre sponse","ar d","re turn","b ase","b ack","ow n",": `","t y","Ġa pp","re ss","Ġvalue s","C on","Ġ error","ate s","\" ]","l in","u ser","n ot","Ġn e","e c","l l","mp l","o uld","ad er","Ġi te","fi x","\" .","ĠA r","i ch","b ug","r ame","ĠV alue","co unt","Ġme ssage","c ord","a b","g ra","qu i","ĠĠĠĠĠĠĠĠ Ġ","m it","b y","Ġ H","sc ri","up le","fi eld","Ġ ..","d a","I N","Ġ li","Ġst art","re e","u mp","Ġma x","ĠValue Error","st art","Ġc urrent","n ing","ar ch","ter n","ĠI n","ver t","Ġspeci fi","y n","a ch","Ġse r","m l","Ġc heck","Ġwh ich","b u","po int","ĠP ar","o und","r st","v el","Ġm odel","Ġ --------","Ġin stance","Ġcon tain","re quest","Ġin dex","w a","Ġin put","sp lit","Ġnum ber","] .","Ġ 3","Ġn o","Ġa c","Ġ /","Ġs o","Ġf a","Ġar gs","ma x","m d","Ġc all","s ub","ctor y","u de","Ġi mport","{ }","att rib","or y","w ork","f rom","' s","li c","E x","Ġ !","l s","Ġu sed","Ġar ray","ser t","Ġc reate","t ri","en ce","t t","u ct","c ur","res ult","g roup","Ġ \\","A T","po s","Ġ! =","ke t","re am","Ġ end","d ing","Ġ one","st ate","mo ve","S t","m odel","S T","se s","Ġ url","co mp","ation s","e p","( [","a c","s or","ul l","ma p","de bug","w e","a ct","ari able","Ġpar am","def ault","() )","p en","Ġb ase","it er","ite ms","Ġpa ss","Ġ z","param s","il s","R E","Ġr un","d s","o bject","Ġb u","j ect","con t","s ing","Ġ |","ĠAr gs","Ġp er","Ġdi re","n el","Ġc a","f or","w rite","an g","o ption","Ġ ent","value s","it s","pla ce","Ġar gument","ne ction","Ġ valid","le d","Ġ kwargs","r on","r un","Ġst ate","Ġf loat","ro w","o g","Ġco de","i eld","Ġm ust","Ġt ext","Ġh ave","Ġex ist","at ure","lo t","* *","Ġd is","pe ct","Ġe vent","ad ers","sh ape","u al","Ġs u","and l","ĠPar ameters","ig ht","c s","jo b","Ġon ly","Ġ version","en ame","re g","Ġsh ould","t es","Ġre g","sp a","fi len","ic al","Ġlog ger","Ġc al","mpl ate","Ġ query","ot e","Ġr ange","Ġ }","ĠĠĠĠĠĠĠĠĠĠĠĠĠĠĠĠ ĠĠĠĠĠĠĠĠĠĠĠ","Ġite m","w ith","th on","= \"","Ġl in","' t","o u","Ġ-------- --","ad ata","a ction","Ġe ach","' ):","Ġan y","Ġ j","filen ame","Ġm atch","and le","Ġi mage","Ġfor mat","Ġa x","in al","Ġp y","fi l","me ssage","ment s","a k","Ġo ther","to ken","en sion","K e","Ġm at","e f","Ġt arget","f unc","la bel","[ :","Ġcol umn","key s","n d","Ġre ad","Ġ up","la ble","Ġin ter","Ġm in","le ct","# #","ent s","Ġc lass","Ġs up","a x","Ġt rans","che d","g n","name s","Ġin to","Ġspecifi ed","Ġro w","fe ren","Ġoption al","Ġco mmand","Ġs ource","st atus","Ġd ate","Ġw he","cl ude","Ġfil ename","Ġ @","lo b","l at","in ter","par se","Ġfi rst","t adata","li b","ma in","i x","la y","ig h","L E","T ype","le ction","Ġe lement","ur ation","Ġparam s","Ġ ----","re f","Ġfile s","M E","ction ary","s o","co m","Ġt ra","Ġo ver","ut ion","a p","I D","Ġ update","Ġt uple","Ke y","vi ew","Ġwh en","c all","Ġto ken","Ġg roup","spa ce","f t","Ġbo ol","al t","c lient","ĠC on","s g","'] ,","out put","ite m","a v","che ck","id th","an nel","ri p","fil ter","ar g","n ew",": :","type s","Ġo pen","O R","d f","Ġs ize","n ect","b lock","le te","ack age","andl er","as h","a pi","Ġf ound","ample s","s pe","Ġĉ ĉ","ta ble","s i","s um","g ing","Ġt able","ut es","scri ption","sen t","Ġ attrib","pt s","it ial","le an","Ġo bj","a in","Ġg ener","Ġpo s","in put","-- -","ri es","pro cess","re sponse","Ġd oc","Ġ 4","id s","b e","y ste","ar ning","/ /","D E","s ource","n p","() .","od y","Ġla bel","or re","it le","Ġm odule","Ġ- >","m i","Ġcon text","N ame","d oc","c lo","Ġcont in","ting s","e vent","c reate","d o","( (","== ==","u se","c re","Ġw ork","Ġdo es","Ġs p","ri x","Ġ{ '","h ost","P I","ar k","r c","file s","ms g","on g","'] )","Ġi ter","D ata","() ,","ri g","G et","et work","cl s","b s","Ġpo int","un k","orm al","ot h","Ġfil ter","st a","P ar","Ġpar t","yste m","ump y","m odule","Ġ J","Ġc lient","ol d","iz ed","Ġcontin ue","v ar","len gth","C o","d b","u res","Ġm sg","feren ce","r id","qu ence","` .",": //","Ġdi ctionary","Ġu sing","i mage","P ro","che ma","Ġ json","Ġs ign","r type","ile d","res h","c y","u me","0 1","Ġb ut","di re","Ġa ss","o ff","Ġg ra","er r","che s","l ug","a y","Ġres ource","me thod","ra w","Ġv ariable","Ġ---- ---","ĠĠĠĠĠĠĠĠ ĠĠ","and om","a uth","Ġm o","con text","d is","Ġ.. .","Ġcont ent","Ġ X","I d","Ġlen gth","co re","Ġc ls","at tern","Ġth en","A L","] [","Ġy ield","Ġs ort","pe d","a i","se ssion","Ġre qui","pp ing","t arget","que ue",")) )","Ġas sert","Ġt a","a st","ri al","m atch","Ġwh ile","Ġresult s","o me","t rans","Ġpro cess","S E","Ġdire ctory","in s","ĠS e","n o","mp ty","col umn","] :","A R","p end","Ġreturn s","n t","Ġf e","ut ils","Ġt ask","ta g","Ġb lock","Ġ_ _","at s","Ġre cord","ind ow","R es","Ġpro vi","cont ent","o us","read y","Ġser ver","if y","Ġargument s","Ġa uth","S e","ent ifi","lin k","ot al","Ġst atus","Ġfor m","Ġw as","option s","le vel","fo re","T E","Ġpar ameters","c ent","vi ron","ro ot","Ġb ack","Ġh ost","ĠEx ception","p ri","Ġun i","Ġa v","or s","Ġex tra","ĠĠĠĠĠĠĠĠ ĠĠĠĠĠ","v ed","le t","ise s","Ġdef in","Ġ ver","at ing","Ġname s","re ak","id x","co ding","Ġ val","Ġex t","co mmand","Ġor der","Ġc ur","f ind","u d","c cess","c ul","f loat","Ġa ct","l d","Ġla st","c ket","Ġo per","Ġ qu","i o","fa ce","Ġpro per","Ġof f","F ile","n s","Ġy ou","Ġ job","Ġs ame","par t","i ble","m t","Ġpar ameter","Ġc orre","Ġc ase","Ġoption s","Ġreturn ed","n er","form ation","o f","Ġa d","S et","ĠG et","p r","mb da","c ate","con d","le s","Ġs c","res ource","Ġs ys","lin es","Ġar g","en sor","f ter","s ign","m an","pla y","Ġin di","Ġse ssion","ur i","Ġch ar","Ġ .","ca che","t x","Ġkey s","Ġtime out","R L","Ġne ed","Ġa ction","Ġch ange","( *","c urrent","' ))","i ss","iz ation","yn c","st rip","ff er",") ]","Ġma ke","te mp","a re","Re turn","ĠRe turn","sta mp","Ġ ['","Ġhe ader","im um","ĠS t","i ck","T I","po p","ef ault","Ġwhe re","ĠA n","ĠI D","Ġpa rent","Ġp age","f rame","v id","ition s","c md","Ġsh ape","er t","Ġexce ption","Ġp ri","Ġm ult","w ise","en v","Ġf ind","co py","Ġp ort","P E","Ġt ag","ĠĠĠĠĠĠĠĠ ĠĠĠĠ","ĠC o","Ġf ol","Ġm ode","Ġre pre","ar ts","Ġlo ad","Ġco unt","Ġal ready","ran ge","l p","r it","ai lable","ĠT ype","Ġt f","di m","t ask","num ber","U n","Ġ 5","s u","6 4","1 0","st ream","Ġhe aders","x y","ex ist","Ġe d","Ġ( '","Ġ Q","Ġlo cal","Ġ --","re place","Ġh tt","Ġser vice","D e","Ġs ing","Ġn ext","field s","Ġpar se","Ġch ild","Ġal low","A r","a ger","f unction","he ader","ht t","lob al","low er","[ -","pre fix","ma il","Ġb reak","rig ht","li cation","Ġa g","c or","la s","h o","Ġst ream","ch ange","Ġro ot","A N","Ġ Key","st ore","Ġcon nection",") ):","gra ph","Ġ q","add ress","Ġm an","la st","Ġte mplate","Ġprovi ded","Ġlog ging","Ġent ry","Ġn umpy","Ex ception","Ġd type","re turns","ol s","ust om","t ies","E N","Ġf unc","mi ssion","p rint","el l","as sed","Ġex ec","Ġc md","li mit","pa rent","ex ception","con ds","Ġobject s","Ġax is","l an","p lot","d u","wa it","A C","Ġthe re","Ġor ig","entifi er","} )","Ġpar ser","ord er","Ġfield s","Ġ' .","Ġdi ff","ser ver","O G","y load","Ġin fo","u id","w idth","ĠĠĠĠĠĠĠĠĠĠĠĠĠĠĠĠ Ġ","F I","Ġt w","') ,","Ġte st","str uct","mple ment","le ase","op en","r t","Ġsing le","L ist","m ary","ra p","T P","o se","ch ild","Ġre f","Ġth an","3 2","tern al","li ke","pect ed","Ġi ts","r ing","ĠĠĠĠĠĠĠĠĠĠĠĠĠĠĠĠ ĠĠĠĠĠĠĠĠĠĠĠĠĠĠĠ","m ote","Ġin te","ex ec","ve ctor","Ġm ore","m ode","Ġsup port","scri pt","p age","Ġcontain ing","Ġen um","Ġle vel","he aders","ent ial","D O","g ment","Ġattrib ute","pa ss","en code","to p","er ge","Ġse arch","at ive","ce pt","Ġme tadata","Ġp assed","Ġlin es","Ġcol or","( _","e lement","co mm","'] :","en cy","oc ket","` ,","S S","M e","L I","Ġin formation","Ġca che","Ġma y","Ġpre fix","Ġin st","Ġite ms","Ġbe t","at ures","S er","v is","co pe","pp er","off set","Ġ attr","Ġre move","i b","se arch","Ġoff set","T o","f n","Ġde l","Ġla y","n own","t ry","col or","Ġn on",". \")",". ')","ĠĠĠĠĠĠĠĠ ĠĠĠĠĠĠ","- +","D i","ĠD efault","`` .","ĠP y","st er","g or","ĠW e","Ġco py","d out","Ġby tes","lo cal","g en","Ġs alt","y mb","re cord","Ġget attr","h ash","ist er","ĠĠĠĠĠĠĠĠĠĠĠĠĠĠĠĠ ĠĠĠĠĠ","Ġf la","st arts","Ġd f","p on","Ġpro ject","lo c","ĠA dd","Ġin clude","Ġso me","Ġw rite","we en","Ġp ackage","ĠF or","F rame","clo se","ĠC reate","n et","an s","re move","Ġte mp","ut il","Ġcon vert","te st","Ġconfig uration","ĠType Error","Ġ' %","M L","ĠĠĠĠĠĠĠĠĠĠĠĠĠĠĠĠ ĠĠĠĠ","bu ild","h andle","ht ml","Ġa b","pt h","con nect","i ce","me tadata","Ġde st","## ##","t itle","ĠĠĠĠĠĠĠĠĠĠĠĠĠĠĠĠ ĠĠ","se ction","Ġ> =","G E","Ġadd ress","ĠL ist","Ġdi m","exist s","pro ject","or age","ax is","Ġin itial","R O","Ġco mple","a ke","Ġdi st","ĠD ata","un i","by tes","Ġdate time","S ON","Ġlin k","Ġc lo","Ġli mit","V alue","ch ar","Ġ Y","te mplate","q l","ĠD e","Ġs um","Ġgra ph","Ġerror s","log ger","re q","ser vice","Ġa fter","ĠR a","Ġi gn","f low","Ġbe fore","ption al","ro und","c at","S I","ter m","t ed","'] .","et ch","Ġc l","starts with","ust er","Ġf rame","Ġdoc ument","ĠS et","ĠA PI","gra m","ug h","time out","er ate","Ġf ull","Ġmat rix","f y","-+ -+","Ġ vi","Ġde vice","Ġd b","Ġco mm","C O","] ]","Ġse quence","Ġav ailable","Ġb ody","d type","er o","Ġlo cation","Ġn ormal","1 2","sen d","Ġme m","f ul","own load","s ort","y le","Ġo ld","ut o","ut f","Ġdata set","Ġch annel","k ip","a it","t ree","Ġbu ild","'] ['","l ation","ith er","R I","A dd","Ġbet ween","b in","de red","a ss","con nection","qu al","par ser","} '.","Ġsort ed","Ġe mpty","tt rib","Ġex p","( {","Ġs ample","Ġrequi red","pre ssion","date time","Ġ< =","po st","st ra","Ġstr uct","ition al","Ġcall back","node s","Ġco ord","it ies","m on","ar n","m ask","ĠU n","v ariable","i de","Ġtw o","spe c","ca le","Ġma p","ĠĠĠĠĠĠĠĠĠĠĠĠĠĠĠĠĠĠĠĠĠĠĠĠ ĠĠĠĠ","g o","o red","g ener","il ity","point s","me ta","ver se","co un","lug in","on ent","ĠĠĠĠĠĠĠĠĠĠĠĠĠĠĠĠĠĠĠĠĠĠĠĠ Ġ","id get","Ġto p","Ġh andle","Ġexist s","u age","de code","ang uage","Ġra w","igh ts","Ġ \"\"","viron ment","Ġt er","ĠP ro","Ġhas attr","U L","di st","ul ar",".. .","ĠĠĠĠĠĠĠĠĠĠĠĠĠĠĠĠ ĠĠĠĠĠĠ","Ġdata base","Ġnode s","e st","ĠC heck","in it","00 0","ch o","Ġli b","Ġch unk","Ġcolumn s","Ġbe en","c ry","lo cation","\" ):","bo ol","Ġpass word","set tings","Ġp h","Ġw ord","Ġco m","iz er","vi ces","ent ry","bo se","U T","Ġa li","C reate","Ġ err","ar gument","de lete","w arning","Ġcreate d","bo x","Ġ ]","T TP","u x","t uple","n ow","ch annel","Ġset tings","i str","Ġv ar","f er","ĠU RL","Ġed ge","F a","IN G","x ml","Ġenum erate","} ,","e ar","w er","ro ll","ifi cation","ip le","( **","Ġ 6","tri c","r s","b ody","st ack","an ts","me m","Ġb in","N A","ĠĠĠĠĠĠĠĠĠĠĠĠĠĠĠĠĠĠĠĠĠĠĠĠ ĠĠ","ol ume","t he","p ol","ri de","ver y","in ation","der r","T he","pro per","l t","Ġfol low","p ub","ci es","p k","Ġ &","ge st","Ġf inal","Ġp attern","Ġg en","Ġhas h","ĠN ot","m od","T ime","Ġkey word","ion s","htt p","c f","A D","T Y","ra pper","las ses","ok up","N ot","Ġal so","b it","Ġt otal","iss ing","ab s","Ġn etwork","Ġen v","s a","di fi","Ġcal led","Ġm ask","Ġc li","o lean","w ard","ed ge","ttrib ute","en s","Ġen coding","ĠRa ises","v es","oth er","ĠKey Error","f l","ex p","Ġcol lection","Ġrequest s","it or","able d","la mbda","Ġg o","Ġp lot","g r","o b","Ġ' '","Ġ1 0","Ġr andom","Ġ' /","ic s","result s","ĠJ SON","ext ra","end s","per i","Ġre ference","ymb ol","ĠSe e","ge x","a ded","M A","Ġde scription","call back","Ġs ave","al og","y m","p date","] ))","pa ce","le ar","p ack","Ġbo und","to col","p ackage","m ark","se rial","Ġbase d","ĠT O","vi ous","ĠR un","Ġst op","Re turns","ĠEx ample","Ġtype s","object s","Ġse ction","f la","C h","Ġth read","ro p","pon se","s ave","==== ====","on t","o pts","us h","Ġsu ccess","ent ity","de l","2 5","he d","Ġde pend","C E","Ġt ree","ent ic","se q","ro l","o ver","L o","Ġli ke","r iter","Ġs chema","Ġac cess","Ġ view","Ġthe m",". ,","Ġwhe ther","m y","d ump","Ġh andler","lic y","Ġsp lit","Ġb atch","Ġdiff e","ri pt","con f","Ġa pi","h as","h andler","Ġ 8","de scription","Ġp i","E n","li ce","an not","Ġattrib utes","bo ok","b atch","ol der","at er","val s","b ar","Ġpy thon","co ord","Ġex ample","Ġse nd","o ci","Ġchar act","ta ils","ĠI t","Ġexist ing","cl u","ension s","Ġhe lp","s ample","Ġde lete","ir s",": ]","N o","n ext","Ġp ub","Ġother wise","Ġt itle","Ġĉĉ ĉ",". \"","column s","Ġstring s","Ġ K","Ġ queue","Ġpos ition","or g","Ġse lect",") [","f ull","Ġdefin ed","Ġv ari","ke ep","ĠD i","Ġs a","red ential","al id","Ġj ust","Ġcon nect","Ġ\" %","Ġw ant","Ġpoint s","Ġse e","sc a","Ġi m","-------- --------","Ġw idth","Ġpro file","ste p","c p","it ude","Ġo p","bu ffer","r ary","ĠO ptional","ex c","in di","F A","Ġe ither","Ġst ep","U N","Ġhtt p","D I","com ment","ss ible","g ory","`` ,","ĠPy thon","[: ,","ext end","me di","Ġo b","de vice","lay er","AT E","Ġcal cul","Ġex c","Ġid x","Ġre place","Ġpa yload","C H","st op","th ing","Ġcorre spon","re t","') .","= [","L O","Ġw ait","mat rix","Ġlabel s","Ġinte ger","act ive","rib ution","g in","Ġelement s","ĠN ote","par ameters","dire ctory","P O","ĠN ame","label s","st at","um ber","ph a","z ip","ĠTO DO","on ly","p attern","in st","pass word","Ġz ip","'' '","ĠĠĠĠĠĠĠĠĠĠĠĠĠĠĠĠĠĠĠĠĠĠĠĠ ĠĠĠĠĠ","f fix","z one","Ġfor ce","s chema","Ġg lobal","] ):","d uct","in ce","r andom","Ġ vector","ĠĠĠĠĠĠĠĠ Ċ","Ġvariable s","ol ution","ca use","Con fig","P ath","iv ed","In valid","Ġrepre sent","C ON","Ġfe ature","Re quest","Ġorig inal","o per","re qu","e ve","Ġs ystem","ro ugh","Ġ' \\","Ġr ule","il y","nd array","Ġpo st","Ġm ark","n etwork","e red","n a","C ol","Ġsh ow","set s","cry pt","bo und","an k","me d","g ress","Di ct","re qui","Ġfa iled","Ġlay er","ste ad","T h","as on","fi rst","M P","Ġse rial","co mple","group s","s rc","ĠL OG","Ġc ustom","Ġde sc","Ġthe y","dire ct","def in","up port","d en","ta gs","Ġp la","L A","do main","Ġst at","f s","Ġcontain s","Ġcontain er","Ġoper ation","mplement ed","} \".","add r","k er","ĠĠĠĠĠĠĠĠĠĠĠĠĠĠĠĠĠĠĠĠĠĠĠĠ ĠĠĠĠĠĠ","Ġre mo","Ġst ore","le ft","da y","Ġin d","ol ve","] ['","ra ise","Ġme ta","Ġfa il","path s","Ġd on","si de","g rid","Ġuni que","m ult","C heck","g ine","Ġma pping","e k","e ded","t en","Ġ right","Ġname space","li ed","cur s","Ġf l","Ġse conds","ator s","Ġde cor","Ġ' {","c li","Ġreg ion","w h","lat ive","me an","ac cess","he re","Ġuser name","cre t","Ġhe re","he ll","Ġcon d","ing s","str u","t ect","Ġw indow","Ġac count","ra ph","i as","Ġmult iple","Ġ' -","v ari","Ġrow s","Ġn ow","Ġs i","ran sp","or ig","user name","ical ly","on ents","s ys","Ġse n","v en","resh old","gor ith","Ġo pt","n ap","Ġm issing","ut ure","Ġpar sed","vid er","Ġa wait","Ġrepre sen","O bject","ff ect","E L","st ats","1 6","Ġta gs","Ġs ix","NA ME","Ġs rc","Ġre mote","Ġign ore","Ġuni code","Ġre n","con tain","di ff","d own","sh ot","= {","ĠĠĠĠĠĠĠĠĠĠĠĠĠĠĠĠ ĠĠĠĠĠĠĠĠĠĠĠĠĠĠĠĠĠĠĠ","Ġcoord in","Ġgener ate","er os","ĠM e","ĠR es","Ġdi r","Ġp ol","al led","al ys","TY PE","Ġcon n","pro file","row s","Ġpre vious","ta ch","del ta","am l","Ġre ce","Ġin stead","pos it","Ġre sp","ma ke","st dout","Ġp d","Ġu s","r ate","UL T","ra ises","ver age","Ġse nt","ri ver","i ces","Ġproper ty","Ġ und",":` ~","val u","Ġm on","Ġun it","r ule","Ġlo op","Ġsup er","Ġad ded","N ode","k nown","p c","og le","ran ch","Ġass oci","s ystem","re st","C T","istr y","Ġla mbda","in k","Res ponse","Ġextra ct","p l","re l","Ġdo main",")) ,","Ġle ft","Ġa bs","Ġproper ties","Ġre port","v o","Con t","py thon","s amples","Ġ ge","F ound","h er","ter min","en cies","Ġ{} \".","action s","9 9","F F","pos ition","ĠL o","Ġi ss","__ ['","Ġp k","00 00","Ġm erge","L og","wa re","redential s","St ring","St ate","Ġi p","Ġth rough","sca le","Ġact ual","se lect","Ġex pected","and ard","Ġwith in","\\ \\","unt il","F orm","Ġin valid","w d","c ase","Ġend point","man ager","c an","u red","Ġpath s","Ġre l","ce d","time stamp","and as","Ġbe cause","Ġ' ,","ĠW h","con st","Ġse cond","ex it","Ġpo ssible","de st","t otal","t r","error s","n ormal","ce ll","Ġdiffe rent","i e","ch ain","v ate","1 1","alys is","Ġ\" .","Ġfollow ing","Ġtime stamp","g it","el y","Ġen vironment","tra ct","m ath","it es","Ġsupport ed","O T","s v","ch unk","Ġby te","gorith m","TI ON","Ġsign al","Ġid entifier","Ġw arning","st yle","In dex","Ġthe ir","Ġm od","un it","r m","'] [","Ġs kip","Ġta ke","Ġmat ches","en ces","a u","ction s","s alt","indi ces","0 4","exec ute","th read","I T","t f","lat form","i mport","Ġc lean","Ġdis able","Co mp","in itial","Ġspecifi c","Ġt mp","Ġnot e","Ġ ):","FA ULT","Ġpre sent","Ġdi stance","Ġc tx","g y","mo unt","and id","Ġst ack","option al","Ġp e","\" ],","P o","Ġdis play","tra in","con n","valid ate","ĠA ttribute","h a","= (","o pt","Ġas ync","Ġs amples","Ġapp ro","w indow","Ġmessage s","Q u","Ġen code","E T","p ly","m al","ĠU se","Ġrun ning","stra int","ist ory","n g","C lient","it ch","Ġbe ing","Ġs im","Ġindi ces","Ġs cale","Ġmax imum","Ġ( \"","Ġcon s","mb ers","Ġme an","w w","Ġdire ct","Ġvalid ate","Ġse par","Ġex pression","ck er","de v","ĠS er","Ġhtt ps","ĠCo mp","ca st","Ġc ate","Ġo pts","Ġtra in","Ġch o","Ġcorre ct","Ġfi g","E lement","data set","Ġo c","ĠH TTP","Ġtrans form","ĠĠĠĠĠĠĠĠĠĠĠĠĠĠĠĠĠĠĠĠĠĠĠĠĠĠĠĠĠĠĠĠ Ġ","Ġcal lable","Ġab out","Ġm y","Ġw rit","var s","pe line","la p","Ġ{ \"","I O","Ġcon f","Ġmatch ing","de sc","Ġret ri","ĠĠĠĠ Ċ","I te","ut ed","Ġco un","st im","Ġl ong","i er","Ġver bose","Ġwith out","ter s","he ight","s cope","ct x","Ġ keep","P y","Ġc ent","Ġcorrespon ding","Ġ' _","E vent","fi ci","name space","Ġv is","Ġ[ \"","ĠO n","Ar ray","t mp","Ġre al","g ments","u ild","Ġe very","Ġdoes n","U S","p lo","de pth","i re","Fa iled","In fo","p id","Ġre q","Ġsu ch","e mail","Ġc ell","attr s","z eros","in is","wa ys","up lic","Ġapp ly","Ġ{} '.","ser v","up per","l ate","u uid","G ER","Ġevent s","proper ties","reg ion","N T","lo op","nap shot","ĠEx amples","ĠRun time","de pend","Ġbo olean","p atch","st derr","pro xy","F ield","S C","a red","Ġy our","fa ctor","i an","Ġdefault s","/ {","Ġp lt","Ġfla g","ĠT o","Ġt rue","mb ed","Ġ 7","Ġf n",". '","model s","ari es","Ġass ign","ri ct","Ġb oth","Ġspe c","Ġs cope","coun ts","\" ])","Ġiter able","s ig","Ġcomp onent","Ġs ure","Ġ utils","Ġag ain","le ep","requ ency","n umpy","Ġs ocket","Ġb ot","co der","t rue","Ġlo ok","Ġspeci fy","ĠAttribute Error","tri cs","o id","Re ad","fe atures","T ext","Ġc ert","if t","se conds","tx t","M odel","(' \\","Ġn d","term ine","Ġund er","f older","D F","Ġcan not","sh ow","Ġ' {}","end ing","Ġhe ight","par ts","Ġcur sor","Ġco uld","K E","Ġmem ory","che me","Ġe mail","child ren","posit ory","iz es","en coding","Ġpar ts","g re","Ġcli ck","T ER","id entifier","b ab","c ard","s ure","n on","te red","ma g","Ġma in","ĠĠĠĠĠĠĠĠĠĠĠĠĠĠĠĠĠĠĠĠĠĠĠĠĠĠĠĠĠĠĠĠ ĠĠ","I P","D B","Ġde bug","ci fi","se quence","Ġs pace","col lection","clu ded","e mpty","Ġassoci ated","0 2","Ġre lative","ro ss","clo ud","Ġthe se","Ġauth or","to ols","word s","c lasses","u sed","Ġa ut","Ġmethod s","Ġs ig","b ers","f ra","t on","A B","Ġindi c","c er","Ġ' *","Ġin it","he x","ĠRuntime Error","Ġfunction s","Ġs ince",": %","__ ,","b ot","Ġd own","fe ature","co res","Ġapp lication","c ut","wa y","Ġinter face","g round","l int","#### ####","ĠF ile","li sh","Ġse ries","ac count","ched ule","ver s","add ing","exception s","al le","se ries","Ġallow ed","Ġtime s","-+-+ -+-+","Ġo ur","ang le","Ġan not","S O","Ġd a","Ġcl uster","R un","Ġcont ents","attrib utes","difi ed","A n","g reg","A pp","di ms","j ust","en ded","Ġp lugin","in sert","pa yload","Ġz ero","ma pping","ĠG ener","re po","Ġtoken s","d ot","2 4","Ġstruct ure","w arn","w s","Ġch ain","Ġwe ights","bo ard","Ġo w","it ive","Me ssage","po ch","Ġcon st","dump s","iv es","Ġbu ffer","Ġsign ature","Ite m","Ġl anguage","k i","Ġs ite","b its","col s","I ON","le ctor","di us","le ss","Ġh ow","E X","i od","Par ser","trans form","Ġrepresen ting","Ġext ension","Ġse q","Ġt ensor","R A","Ġ 9","mp t","Ġinput s","re ference","(' /","re c","re port","Ġbin ary","Ġclo se","ĠC LI","V ER","Ġfi x","Se ssion","Ġremo ved","Data Frame","ome try","pa re","feren ces","Ġar ch","ho ok","al cul","Ġt ri","Ġst dout","g lobal","Ġd one","dir name","he ad","li g","ol ute","Ġl at","Ġst ats","Res ult","Ġfe atures","is ion","ĠS h","fa ct","U RL","A uth","cur sor","en viron","G ener","S H","Ġ until","Ġx ml","Ġent ity","con vert","y ear","Ġf it","la b","Ġst orage","Ġw rapper","ends with","Ġw rap","Ġsc ript","Ġse gment","Ġp ix","Ġret ry","Ġrequi re","al y","Ġfla gs","Ġv olume","attrib ute","ch ine","Ġreg ister","c lean","Ġb it","Ġ vert","c le","om at","_ ,","U ser","el s","Ġg rid","5 0","an y","lic it","comm it","Ġt x","ĠP ath","Pro cess","cs v","Ġd ownload","d t","we ight","Ġe qual","load s","b l","s core","ta x","Ġne eded","Ġcom ment","2 0","Ġrepresent ation","Ġupdate d","log ging","E D","ĠI P","Ġent ries","let ed","Ġre po","= %","Ġbu cket","t c","Ġfol der","ist ered","] ),","T O","iv ity","B y","to m","tra ce","DE FAULT","/ %","Ġtra ce","Ġac cept","ĠĠĠĠĠĠĠĠĠĠĠĠĠĠĠĠĠĠĠĠĠĠĠĠĠĠĠĠĠĠĠĠ ĠĠĠĠ","doc ument","f name","as ure","ĠAn y","Ġh o","Ġc types","f etch","ces sed","Ġact ive","Ġ čĊ","inter val","ge d","Ġh igh","Ġw ould","igh b","Ġf ra","() ):","ĠN o","Ġlo wer","v m","Ġde pth","S h","il ter","Ġwe ight","auth or","Ġbe st","di o","av ed","f it","S P","v ing","iv ely","ol ver","\" ))","Ġst ored","il der","Ġcomple te","ĠAr gument","cent er","Ġinstance s","Ġc re","yn am","Ġde tails","doc s","M O","Ġwh at","Ġind ent","Par se","reg ister","ang o","Ġme tric","Ġ\" {","ĠE n","variable s","s pect","H andler","i a","att en","Ġre st","Ġ1 00","() ))","Ġ_ ,","s ite","} .","st d","event s","att ed","al low","Ġfa ctor","Ġdest ination","ĠWh en","Ġdist ribution","Ġt r","Ġdim ension","c ert","N O","[: -","ad ded","Ġn et","he s","re mote","Ġdecor ator","Ġde code","Ġrequest ed","le m","ith ub","ers ion","Ġcomp ute","se ss","Ġd t","L OG","ul ation","time s","s q","B U","Ġh t","__ )","Ġnd array","Ġc or","Ġpro xy","htt ps","Ġgener ator","Ar gument","Ġpy lint","entic ation","par ameter","e ps","ne ss","Ġinst all","(' %","Ġ' --","y p","T H","he lp","Ġadd itional","w here","Ġi mp","Ġex clude","ĠDefault s","token s","ĠU pdate","t i","Ġlo ck","Ġchange s","ut able","ve c","AT H","Ġcoordin ates","ut ing","im g","ĠO ther","qu ences","Ġgroup s","mission s","n orm","uni que","r ation","st ates","U E","Ġex it","Ġper form","Ġinter val","s ocket","() [","Con text","es c","st orage","contain er","Ġe stim","Ġs core","w rap","GE T","ren ce","Ġname d","for med","id den","ĠĠĠĠĠĠĠĠĠĠĠĠĠĠĠĠĠĠĠĠĠĠĠĠĠĠĠĠĠĠĠĠ ĠĠĠĠĠĠĠ","Ġdis k","ĠC h","Ġs yn","Q L","Ġin sert","U pdate","Ġin ternal","le g","ĠD o","upport ed","ex pected","vis ion","cf g","as ic","ar r","con fi","(\" %","roll er","ransp ort","Ġass ume","Ġpla ce","ur se","Ġst andard","ĠO S","c la","Ġper iod","Ġren der","Ġro le","lo aded","at io","w itch","ĠI O","cl uster","Ġfilter s","Ġdefin ition","st ed","Ġgener ated","dis play","< /","Ġcharact ers","end point","Ġdel ta","file path","3 3","z e","i ent","he ther","il t","ble m","} '","o x","Ġset ting","c b","Ġpre di","I L","Ġd ay","vi de","ifi cate","C lass","Ġs cal","Ġm ost","resource s","Ġid s","Ġmodel s","ĠA s","re al","In ter","Ġ Z","Ġat temp","Ġal ways","\" ),","A P","ĠIn dex","Ġz one","Ġfinal ly","Ġk er","pre c","t ensor","Ġter m","app lication","r u","uni code","me tric","bu f","( ['","po ol","se cret","co me","Ġen sure","Ġst yle","Ġco mb","Ġtrans action","bu cket","T R","ĠO r","s id","Ġ\" \\","c c","Ġre gex","ĠP er","m erge","f d","Ġl on","ĠN umber","P er","S ub","Ġ uri","KE Y","Re g","c ustom","ĠM ake","peri ment","A PI","ĠData Frame","ual ly","Ġc at","Ġpo p","Ġpart ic","si red","G roup","ĠĠĠĠĠĠĠĠĠĠĠĠĠĠĠĠĠĠĠĠĠĠĠĠĠĠĠĠĠĠĠĠ ĠĠĠĠĠ","rt ual","Ġrecord s","a f","Ġselect ed","Ġf etch","Ġwe re","Ġbo x","al ias","In stance","Ġsh ort","al k","a uto","se p","U R","en u","Ġal pha","l anguage","Ġexception s","Ġpo ol","Ġpri or","Ġht ml","module s","Ġali gn","un its","ase s","Form at","1 00","V alid","b ind","ĠW hether","cur ity",". *","sign al","Ġb ash","am ily","la ck","Ġiss ue","Ġe valu","_ {","ĠV alid","n an","Ġback end","- %","Ġpro tocol","all back","Ġun its","ĠA pp","Ġme ans","Ġcharact er","j ango","Ġover ride","Ġf ill","Ġan g","requi red","ur ing","ĠR E","lug ins","Ġf name","Ġim g","edge s","a z","me th","({ '","ci mal","ER R","c lear","B ase","andl ers","Ġimage s","Ġsuccess ful","input s","Ġ join","Ġw ay","Ġs m","to re","re lease","Ġcomm on","mem ber","for ce","Ġ2 00","Ġax es","P re","log y","Ġsub process","A S","ci i","Ġa uto","fla gs","in clude","base name","Ġmult i","(\" \\","I ter","Ġ'* '","Ġw idget","fi ll","Ġ1 2","A M","ta il","Ġpa ir","Ġf mt","F O","n ull","Ġsu ffix","z ero","T rans","default s","O r","s ql","pt er","cess ary","s k","ar s","M an","plo y","8 0","H E","s ymbol","ĠĠĠĠĠĠĠĠĠĠĠĠĠĠĠĠĠĠĠĠĠĠĠĠĠĠĠĠĠĠĠĠ ĠĠĠĠĠĠ","Ġsu bject","3 0","pi x","L e","ĠD E","{} '.","Ġg re","Ġle ast","' \\","Ġlo c","T e","by te","Ġcond ition","Ġc f","li m","di stance","ĠSt ring","link s","ifi ed","il ar","' }","AT ION","y g","ĠIn valid","Ġlist s","ĠĠĠĠĠĠĠĠĠĠĠĠĠĠĠĠĠĠĠĠĠĠĠĠĠĠĠĠĠĠĠĠ ĠĠĠĠĠĠĠĠ","al ign","ag ent","T able","coord s","1 5","ut put","ces ses","Ġcomm it","j e","data base","Ġapp end","plot lib","2 01","lo okup","ĠU ser","C K","Ġb ro","script or","Ġ( (","ĠRe move","Ġneed s","su ccess","er ic","he et","Ġ- =","re gex","Ġex pi","U P","l er","we ights","im er","Qu ery","Ġf uture","Ġtra ck","Ġf p","ver bose","po licy","Ġvi a","In put","ĠCon fig","Ġi mplement","bo ve","Ġali as","Ġattr s","peri od","s leep","f mt","pa c","Ġchild ren","Ġlib rary","Ġcate gory","ath er","cord ing","l ong","ype s","on s","Ġman y","Ġm ath","gra de","ĠB y","ĠCon vert","ĠX ML","andid ate","l per","ĠRe ad","Ġs ymbol","c orre","Ġresource s","Ġs ql","int e","Th is","ro le","sum mary","Ġmem ber","Ġst ates","tri eve","Ġpro bab","Ġchange d","pro p","Ġp andas","ign ore","ĠA l","ok ie","ma ster","H TTP","g ative","Ġa st","mpl ing","Ġth ose","sa fe","Ġlo okup","mi ss","Ġst derr","en gth","Ġre verse","und le","ifi er","Cont ent","N S","P RO","} \\","Ġuse s","Ġal gorithm","Ġcommand s","Ġan other","Con nection","ĠT ime","proper ty","ĠQ u","curs ive","l ing","Ġver ify","Ġsum mary","ta b","5 5","inst all","ĠOn ly","Ġ2 01","p u","Ser ies","Ġprovi de","w idget","Ġde tect","Not Found","Ġopt im","St atus","so le","d r","Ġ\" ,","ut ation","__ .","ul ate","P C","oc ation","Ġpro duct","Ġwarning s","res sed","t ion","en se","Ġl ar","} {","du ce","ĠArgument s","p lugin","filter s","'] (","en o","Ġcurrent ly","FI LE","Ġencode d","main ing","Ġh params","Ġp ick","pe c","I mage","ĠC ol","am s","Ġpa irs","Ġvari ant","Ġexec ute","comp ile","Ġmin imum","ĠOther wise","S ize","Ġc lasses","() ]","k ind","Ġ\" /","u i","Ġcon ver","se c","en e","Ġs ur","sh a","sort ed","di a","ow er","Ġaut omat","Ġa mount","P ATH","s m","D is","Ġex port","change d","change s","o le","Ġpub lic","mem ory",", )","F or","t z","ex pr","gener ate","Ġker nel","g ithub","Ġ kw","app ly","_ .","g b","Ġuser s","t ic","ra g","ser ved","ste ps","Ġ\" {}","A s","part ition","fa il","Ġcomp onents","E nt","} \"","sess ment","se gment","Ġre ason","oc ab","fla g","Ġd er","Ġde sired","= _","at ches","Ġb ranch","Ġca ched","Ġedge s","Ġset up","exp and","cont ents","res ses","Ġsup p","ĠF ind","Ġpa cket","Lo ad","( -","v s","Ġd raw","Ġnum bers","Ġup per","Ġpro gress","Ġlo aded","rib e","r b","Con vert","Ġpart ition","ens ity","O n","Ġ} ,","Ġpro p","F rom","H e","Ġup load","Ġcall s","D ate","s lice","Ġt rig","inter face","n one","V AL","p b","ut er","A GE","Ġre lease","Ġwe b","Ġs lice","Ġk ind","(' .","w in","Ġarray s","ass ign","sp an","Ġ1 6","Ġac cording","Ġ' ')","r l","t ick","Ġc redentials","fa ctory","PO ST","Ġs hell","Ġdire ction","ra in","D S","Ġth reshold","1 9","os ition","E S","ance l","v olume","en um","Ġcon fi","mon th","a fter","el ls","Ġre set","C S","ad min","go ogle","' re","Ġy ear","Ġne cessary","w rit","Res ource","d ownload","â Ķ","element s","T ML","N D","` :","Ġb ind","Ġr ate","Ġoc cur","C ould","Ġinst alled","Ġid ent","resh ape","Ġsc an","ma c","ke ts","Ġword s","Ġst d","Ġs ym","li es","re set","Ġter min","Ex ec","Ġpk g","m id","r f","u ch","Ġpo licy","Ġpre v","Ġ util","ĠPar se","su ffix","extra ct","Ġhe ad","g ers","Ġre c","Ġ% (","Ġoper ator","Ġraise d","er ature","V ersion","Ġ/ /","Ġagain st","SE T","al s","fa ces","Ġsi mple","to ol","Ġro ute","log in","Ġreg istered","(' -","Ġgen e","ĠIO Error","G raph","ctor ies","gor ies","Ġ} )","alcul ate","M ap","Ġcent er","s n","Ġcont rol","Ġre lation","Ġa bove","I G","arg v","Ġcalcul ate","lay ers","Ser vice","pro tocol","', '","Ġdim ensions","al pha","ĠN O","cate gory","e cho","Ġstart ing","Ġmon th","Ġro t","ac y","fo o","s l","St art","inis hed","d at","miss ing","dir s","serial ize","3 4","Ġse ts","not e","u ff","um b","ls o","g ate","Ġe ffect","Ġrece ived","h istory","Ġin v","pri ate","St ream","pub lic","lig ht","Ġfail ure","di c","Ġorig in","O P","bin ary","Ġav oid","ERR OR","ta ct","Ġ[ (","Ġman ager","Ġconvert ed","argument s","Ġbu f","tra ck","set up","b ed","Ġ( %","al ity","A l","N umber","T ensor","c d","i fe","y aml","Ġmodule s","back end","ĠUn i","======== ========","Ġ# #","alle l","Ġp ut","Ġ' ',","is file","ef fici","task s","cat alog","M S","le v","sh ort","} /","s im","Ġa p","Ġb its","dim ension","Ġd uration","Ġc y","Ġan alysis","C ode","Ġign ored","pa ir","image s","Ġappro priate","Ġe tc","Ġ\" -","D o","k s","re try","Ġset attr","o ms","ĠA lso","] +","Ġf requency","Ġtask s","or ary","red u","di gest","as cii","\"] .","comple te","mult i","ind ent","Ġretri eve","= {}","Ġse ed","uplic ate","comp onents","Ġcomp at","sign ature","1 4","Ġ[ ])","f un","ut or","iter items","per ation","message s","6 0","Ġre pository","s ym","Ġon ce","dered Dict","straint s","Ġin cluded","Ġform atted","je ction","run ning","Ġdirect ly","ĠS pe","Ġp id","> `","ol ved","i ew","en gine","W S","Ġw ell","Man ager","sq rt","Re cord","k ed","s d","comp onent","Ġ $","ist ics","mpl ates","Ġarch ive","Ġautomat ically","Ġde termine","Ġsupp lied","Ġc lear","h ome","l on","p g","de tails","Ġg ot",") ])","av a","Ġabs olute","L ine","AT A","set default","a bel","Ġd rop","su bject","U M","spe cifi","medi ate","Ġal ong","code s","pk g","ĠDi ct","Ġcf g","pro vider","and s","Ġ ut","ren ts","n n","sh ip","defin ition","Ġs aved","ast ype","Ġre direct","ĠI mport","ĠLo ad","re r","stru ction","Ġho ok","ic ro","__ (","b ro","ex pression","ren der","Ġmo ve","vid ual","t ty","comm on","record s",": -","Ġin spect","Ġk nown","re p","F OR","T ree","Ġd st","ĠY ou","\"] :","clu ding","Ġpri vate","C annot","con s","o ot","Ġs ide","ex pi","Ġvalid ation","c ision","e val","ĠA ll","Ġt ab","Ġf low","coun ter","2 00","gen e","f p","re ce","ent ion","am ma","le x","Ġma g","Ġh ist","cl us","ĠT rans","TI ME","D esc","o om","ex ample","Ġfile path","Ġtuple s","Ġexec ution","Ġt ile","ĠĠĠĠĠĠĠĠĠĠĠĠĠĠĠĠĠĠĠĠĠĠĠĠĠĠĠĠĠĠĠĠ ĠĠĠĠĠĠĠĠĠ","sc an","T S","Ġm ight","j or","Ġst rip","ife st","Ġde leted","di fy","Ġy et","Ġcall ing","Ġp adding","abs path","A G","( __","Ġre p","A ttribute","Ġi mplemented","da ys","Ġd uring","in es",": \\","ib ility","cont rol","r and","Ġd ump","Ġto o","pro c","spa ces","Ġwrit ten","me mbers","ax es","block s","f inal","d river","O ptional","sc ape","ent ries","d uration","host name","in ed","d raw","v as","ĠOS Error","Co unt","f req","row ser","mat ches",") }","in valid","tri es","p d","defin ed","di ent","channel s","pro duct","Ġbe gin","fo und","Po int","V I","stru ctor","oper ation","Ġr ank","Ġar r","Ġy aml","Ġcheck s","Ġn orm","vari ant","b ins","Ġv m","g g","u ous","Ġover write","t k","e m","C a","Ġh y","Ġlog in","ĠL og","Ġat tach","Ġ' __","Ġle t","Ġpro vider","Co mmand","be fore","Ġex pect","read er","ĠNot es","ĠC an","ĠCo mmand","Ġnormal ize","C P","Ġd at","g a","Ġwork er","ar m","Ġma ster","user s","Ġ' '.","id ent","sing le","Ġfe ed","command s","SI ON","Ġspeci al","sc al","ĠLOG GER","AB LE","ue s","ra ps","Ġag ent","re pr","Ġin side","Ġhe x","sum er","Ġpi peline","B u","s hell","Ġoutput s","Ġper cent","Ġconnect ed","D efault","p latform","Ġ ))","Ġc sv","Ġpro gram","co s","L ay","5 6","th reshold","qui val","(' ,","ĠĠĠĠĠĠĠĠĠĠĠĠĠĠĠĠĠĠĠĠĠĠĠĠĠĠĠĠĠĠĠĠ ĠĠĠĠĠĠĠĠĠĠĠ","Ġĉĉĉ ĉ","Ġs napshot","ĠP re","Ġiter ator","bound s","ver ify","Ġsa fe","S tore","w riter","se cond","\"] [\"","Ġtop ic","Ġde termin","Ġen gine","we b","Ġstate ment","Ġt yp","un ch","o gram","ex clude","Ġp ad","Ġex act","crypt ed","ww w","C lo","b ranch","ĠD is","ĠI ter","Ġ{} )","Q U","s up","cond ition","Ġp latform","Ġbe low","reg istry","re ssion","cre ment","ci py","Ġapp lied","it ed","Ġe mbed","iter able","source s","p ad","Ġe ven","ro ute","ĠB uild","o ugh","Ġbound s","Ġme trics","string s","Ġrequi res","FI G","Ġma c","one s","AC K","Ġrel ated","Ġb ar","s kip","} :","Ġ[ [","Ser ver","en abled","o o","25 6","Ġse lection","ĠO bject","Ġcoun ter","c ing","col ors","c u","ymb ols","comp ute","Ġen abled","os id","limit er","__ .__","av ailable","li s","Ġma chine","ĠE ach","ult i","lo ts","1 3","e ff","Ġcoun ts","Ġwork ing","pri or","Ġd id","ot ential","Ġang le","Ġchannel s","Me thod","Ġtake s","ha vi",": ])","Ġpro blem","n dim","Ġk now","S ER","yg on","Ġro und","h ing","ĠRe g","per cent","BU G","Ġm id","Ġme sh","t ile","ĠRe quest","Ġcol ors","prec ated","lay out","Un able","Ġne sted","0 3","Ġst ill","con cat","Ġra dius","W arning","pre ss","Ġ ~","ĠP o","il ities","Ġm d","pro to","Ġpart ial","1 8","ss l","av ing","Ġph ase","] ])","Ġc ut","ĠCreate s","Ġn s","ĠO pen","work er","struct ure","Ġ ,","Ġus age","w rapper","Ġexp licit","D ef","re sp","Ġse quences","ut ton","ad a","Ġme asure","\") .","tt p","me trics","h igh","Ġd ot","Ġcollection s","Ġsource s","Ġversion s","J ob","b am","Ġlo w","Ġas yn","Ġen able",". )","U B","mit ted","F ilter","Ġ---- -","EN T","Ġ ),","Ġf ont","H O","g ree","is dir","'] ))","Ġ{} ,","Un known","create d","fer red","M et","h our","Ġvi rtual","I C","O f","indow s","Ġh app","d le",". \",","el per","op s","ĠB ase","i ed","Ġg it","Ġ\" --","C all","ĠT e","Ġreg istry","To ken","h s","Ġp ers","ver ts","qui red","Ġrule s","Ġcon struct","V E","d st","ur al","ĠG iven","frame s","me sh","Ġwork s","Ġme mbers","Ġmo dified","ker nel","Ġag greg","A c","S ource","Ġfig ure","L ink","fl ush","li p","d one","Ġwrap ped","( ?","F ind","Ġpro cessed","Ġin ner",".. ..","s yn","al g","Ġc ir","ĠĠĠĠĠĠĠĠĠĠĠĠĠĠĠĠĠĠĠĠĠĠĠĠĠĠĠĠĠĠĠĠ ĠĠĠĠĠĠĠĠĠĠ","Ġreg ular","2 2","Ġc la","Ġp lan","ynam ic","Ġmat plotlib","St r","se ed","ve lo","Ġscal ar","ren cy","Ġtrain ing","ist ent","F unction","p an","mo st","Ġtarget s","ch ron","ched ul","request s","Ġre ci","Ġspecifi cation","âĶ Ģ","d rop","Ġpackage s","serv ation","Ġow n","rid ge","e ver","Ġnot ification",")) .","g lob","fa st","s ync","Ġlink s","A SE","u dio","ron t","in ner","I M","Ġor g","Ġ[ ],","Ġaction s","ot es","th is","Ġfil tered","requi re","w i","un pack","ĠH TML","sen s","ĠCon t","v l","Ġp l","ĠN ode","Ġblock s","as is","ti fact","W rite","gener ator","Ġauth entication","mo oth","ier arch","= -","pro b","lo ss","Ġas set","Ġs cheme","fa iled","Ġprocess ing","package s","Ġid entifi","h ist","s cheme","IN T","Ġact iv","ru pt","e mon","pro gress","O K","ĠI mage","ĠIn put","job s","Z E","comp at","Ġpos itions","m ar","o bs","ch an","in v","Ġ' )","Ġ' <","Ġto ol","target s","top ic","end er","Ġat om","ir st","EN D","Ġre pe","au ss","config uration","se par","Ġpro to","ĠU RI","Ġconfig ured","du ced","Ġs n","Le vel","'] ]","process ing","ĠH e","c um","trans action","ep copy","Ġe poch","g t","Ġdepend encies","Ġst eps","ro py","ect or","Ġbase string","al ance","at om","Ġn one","i mp","Ġl ate","x x","Ġpos itive","in f","Ġd river","Ġsm all","M o","Ġle ss","\\ '","=' ',","Ġne ighb","Ġde v","ser vices","Ġsi mp","be st","Ġsp an","oc ument","F e","L IN","s on","quival ent","Ġpre dict","A t","pre di","pre sent","CON FIG","Col umn","P RE","ĠS ub","1 7","up load","qu ote","arch ive","Ġdesc rib","p ers","Ġsim ilar","** **","m k","a ut","Ġco ver","Ġare a","P S","ĠI d","Ġqu ant","B uild","ly ph","il er","so ck","I mplemented","p lan","Ġwh ose","Ġ Error","Ġ2 0","o ols","} }","Ġf alse","Ġ\" _","act iv","er ies","Ġlay out","Ġattemp t","ĠIndex Error","st it","Ġp ower","G S","ust ers","Ġchunk s","c r","li ct","Ġco urse","ĠH andle","Ġa verage","Ġan s","ĠGener ate","Ġmat ched","Ġhost name","O S","Ġback ground","f ont","cp u","Ġh our","Ġne gative","Ġs pa",") \"","av es","Ġt ar","de lay","Ġp s","Ġreturn ing","Ġit self","cre en","Ġimplement ation","orig in","ri c","ex port","Ġl ater","A d","or ing","Ġcol s","Ġpi pe","_ )","Ġd s","bo ot","Ent ry","Ġre ader","A ction","Ġi o","O L","al ly","X X","es ca","Ġse cret","V iew","ou ble","pri vate","c m","ro t","Ġadd r","0 5","M M","T ag","Ġjob s","g its","rag ma","ext ension","S ystem","Ġg lob","W e","se m","Ġ( :","-+-+-+-+ -+-+-+-+","Ġre cursive","lan k","ĠĠĠĠĠĠĠĠĠĠĠĠĠĠĠĠĠĠĠĠĠĠĠĠĠĠĠĠĠĠĠĠ ĠĠĠĠĠĠĠĠĠĠĠĠ","' \"","h andlers","p m","z y","Ġnot hing","t w","ul a","par sed","ci o","={ '",". '''","se ek","ron g","connect ed","Ġfl ux","Ġpix el","key word","Ġnormal ized","on al","ref resh","Ġpri mary","Ġdocument ation",". '.","') [","method s","x im","ub e","ST R","rule s","d l","ar ange","Ġb l","ĠB o","Ġinter pol","gre es","on ical","ĠF I","Py thon","corre ct","Ġre maining","andid ates","ĠIn itial","ĠMe ssage","8 6","or ter","or iz","fa sta","T ra","ut c","ĠC all","Ġsh util","vo ke","confi gs","pac ity","Ġe scape","ĠT ensor","Ġannot ation","po logy","are a","Ġw in","Ġcol lect","ser ve","Ġuse ful","Ġre ply","Ġcert ificate","U ID","ra dius","ĠAr ray","{} \".","n b","la g","Ġu uid","g z","pt ure","Ġcomp ar","stat ic","Ġf d","i li","Ġs chedule","Ġdire ctories","ue ss","(' _","rst rip",") *",". ',","ator y","ĠOr deredDict","B lock","di an","as sert","est im","I S","Ġ1 000","at tach","in ternal","ption s","Ġread ing","coord in","ant i","p us","quest ion","d x","qui re","Ġpro c","S ign","ĠW rite","e poch","---------------- ----------------","Ġres pect","Ġallow s","u int","Ġser vices","Ġoper ations","dire ction","Ġad min","Ġcre ating","Ġco re","as set","Ġindi vidual","pi peline","ss h","ong o","P AR","Ġsome thing","Ġa da","be ta","u ses","ĠF orm","Par ameter","Ġcase s","Ġis n","as ync","c wd","Ġa round","Ġindex es","Ġse en","instance s","Ġno ise","ho od","orig inal","Ġpartic ular","######## ########","Ġres olve","ĠNot Implemented","co ver","str ument","Ġb ins","Ġpre cision","own er","p red","Ġf req","pro mpt","Ġmark er","Ġiter ation","Log ger","( \\","inte ger","bo s","Ġclo sed","Ġ[ {","Ġbu ilt","DI R","ue ue","ĠDi ctionary","ation Error","m ut","Ġde lay","las k","ĠThe re","w b","Ex ist","fe ed","Value Error","oper ator","Ġauthor ization","Ġbe havi","re en","Ġb el","Ġex periment","ma ss","redu ce","se lection","ran k","output s","Ġle g","Ġc andidate","ry pt","ref s","Ġcoordin ate","\" \\","H andle","or n","Ġcat alog","a ctor","Ġkeyword s","Ġsig ma","c kets","Ġb ad","Ġse gments","Ġmerge d","Ġe lem","Ġex ternal","Ġfilename s","r al","ra ct","ction aries","const ants","or ld","version s","b ig","ĠB e","= \"\"","s ur","s napshot","Ġt s","ĠF unction","] *","Ġresult ing","Ġtable s","qu are",". \".","e mbed","k it","ĠComp ute",") '","Ġc b","Ġh istory","e qual","re ct","Ġde ploy","Ġp atch","Re move","6 6","un ic","ĠImport Error","Ġupdate s","P art","il ing","Ġpar sing","dis k","de p","Ġp ragma","Ġn b","E M","ĠID s","Ġp ur","app ing","Ġst age","cre te","D ir","Ġf ore","Ġp r","function s","Ġsub scription","c ript","ĠS o","B ox","Add ress","c redentials","f ree","ĠC lo","ĠQ t","r r","b i","Ġma de","Ġse p","e mit","stra ct","a mp","z en","Ġ6 0","ĠĠĠĠĠĠĠĠĠĠĠĠĠĠĠĠĠĠĠĠĠĠĠĠĠĠĠĠĠĠĠĠ ĠĠĠĠĠĠĠĠĠĠĠĠĠ","Ġ< <","Ġfix ed","s age","i ver","qui et","Ġversion added","W idget","co gn","pi ck","% (","cl ar","Ġ3 2","_ (","ĠC lient","PI PE","po se","7 5","sign ed","Ġactual ly","mo ves","fl ux","Ġper mission","Ġstat ic","cli p","O utput","Ġline ar","T ask","ĠA t","IN FO","Ġref resh","2 3","ta ck","sub process","ed it","Ġcon v","b ank","Ġst rict","am o","over ride","M AT","load er","ĠSt art","p df","Ġdata frame","AL L","Ġsen sor","Ġgre ater","Ġde scriptor","Ġst o","ĠT ra","Ġun known","Ġwork flow","form s","Get s","Ġfa ils","W OR","ce pts","Ġman age","D ATA","al th","Ġin cluding","Ġcheck ed","E nd","Ġre pr","ro id","al f","co mb","A ct","ot ype","AC E","s r","Ġ' :","f amily","ME NT","select ed","Ġmo difi","ites pace","Gener ate","ierarch y","host s","di ag","Ġan aly","G B","s upport","Par ameters","Pro per","cho ice","riter ia","re lation","id er","ci al","Ġt urn",". \\","= ['","A pi","ol ds","Ġen er","ward s","d n","ad cast","(' .')","Ġout file","re v","ip s","t ar","re verse","Ġde vices","um an","cry ption","p lugins","ĠP O","Ġfa st","part ial","Ġs olution","Ġs witch","istr ation","curs ively","Ġindic ating","() ),","ist ic","Ġ ve","pa irs","Ġap pe","CO L","O pen","con v","url s","inis h","ut down","Ġt z","ran script","Ġtrans ition","Ġt ick","ter ms","te in","ac cept","ĠH ow","old ers","Ġse curity","Ġsh ared","P Y","w raps","Ġsub set","Ġvi de","Ġ ).","li er","pt r","us age","s lug","cal c","ĠI N","se mb","ed itor","Ġow ner","lib rary","Ġad just","ĠMe thod","P a","r atio","ĠA ss","') ]","ĠM o","Ġc ells","` )","is o","table s","clo sed","ns ure","ĠQu ery","ch or","ma ked","Ġrun time","re ason","Ġd ue","on d","unk nown","w alk","c n","Ġtemp erature","Ġtrig ger","P TION","SI ZE","medi a","id entity","Ġco effici","Ġid entity","Ġge ometry","Ġpro mpt","Se arch","rit ical","f alse","re direct","run time",") /","C an","res olve","be gin","en vironment","Ġar tifact","Ġh and","Ġor dered","ĠD B","Ġp ack","and atory","AR N","ca ched","Ġtrace back","de cor","port s","Ġf s","li ance","get attr","Ġtime zone","/ '","al let","ne ighb","Ġlay ers","Ġ\\ \\","ise d","C L","R ow","Ġb ig","MA X","se e","Ġn ull","Ġspe ct","split ext","Ġf h","index es","Par ams","Ġinter pre","ma chine","ta ched","esca pe","pre v","ransp ose","> '","Ġob tain","g ent","p ng","ĠA c","Ġdi ctionaries","ĠU T","cal cul","DE BUG","normal ize","se curity","Ġretri e","ĠNO TE","sig ma","f time","de rer","ĠS top","Ġ`` '","ĠRes ponse","f in","ĠA uth","v ol","po wer","Ġinte gr","B O","TE D","4 0","S A","m er","Ġal t","lis hed","N E","S p","Ġlate st","N G","h y","(' --","Ġthread s","s chedule","Ġnum eric","b lob","(' :","Ġda ys","Ġw riter","ĠM ust","encode d","ĠNotImplemented Error","O bj","Ġex pr","pre dict","tain er","re ply","s upported","Ġs creen","de vices","Ġlo ss","Ġsub net","Ġb lob","ot o","Ġu id","Ġcur ve","w n","ill ar","tri e","Ġs k","depend encies","not ification","we ek","section s","Ġsepar ate","Lay er","chedul er",") (","re ctory","ĠT ry","ĠF irst","ed s","pre pare","ĠM ax","Ġe p","bu ilder",". %","Ġclo ud","an alysis","mo dified","Ġvector s","sh ift","] ],",", ))","k a","Ġc ross","Ġe quivalent","vari ance","Ġper missions","LOG GER","Ġs w","ĠSt ate","ra se","[: ]","Ġframe s","Ġpro cesses","Ġpattern s","Ġprior ity","ro y","Ġsh a","end ar","ĠM odel","Ġassign ed","bos ity","Ġm ut","t ransport","ver sed","fra c","W ork","ĠN e","US ER","b reak","oc al","ĠW indows","Ġter ms","Ġbot o","Ġdi ag","Ġcoord s","pend ing","P ER","Ġcont roller","(' {","ĠC alculate","allow ed","Ġe qu","as array","Ch ange","VER SION","Ġp otential","Ġmult ip","Ġal tern","Ġvert ex","Ġpar allel","Ġcur r","Ġs cipy","ge ometry","ul k","key words","Re f","Ġre cent","ĠĠĠĠĠĠĠĠĠĠĠĠĠĠĠĠĠĠĠĠĠĠĠĠĠĠĠĠĠĠĠĠ ĠĠĠĠĠĠĠĠĠĠĠĠĠĠ","ĠPro cess","depend ent","L L","ran t","Ġent ire","Ġs at","ag greg","Ġca st","Ġcomp are","page s","Ġsa mpling","un ct","De lete","Ġtemp orary","P A","opt im",") ',","Ġs parse","Ġ1 5","Ġsur face","Ġ\\ '","p ush","Ġcon version","gra ms","Ġpe er","I f","Ġbo ot","ĠG raph","Ġurl lib","si dered","Ġauth entic","ĠT ext","or th","Ġco pi","9 0","P U","a w","Ġhe lper","Ġdefin itions","clus ive","tri p","fl atten","Ġse c","âĶĢ âĶĢ","Ġa udio","a il","d it","De vice","Ġexp and","amo unt","tri g","FI X","Ġsen der","h idden","line ar","lap sed","f uture","Ġed it","dest ination","Ġ'{} '","co urse","OR T","Ġcom ments","al gorithm","Ġmo unt","Ġpix els","ul ated",") \\","Ġr atio","ĠF ilter","C F","ĠT uple","ĠO ne","am er","list s","Ġdict s","andl ing","Ġc er","ou se","com ing","str ftime","comp ress","] [\"","li ces","Ġme dia","Ġcon sidered","Ġgo ogle","Ġconst ant",", '","\" '","F S","ri ption","Ġde precated","per m","split lines","A ll","Ġp an","ate gy","Ġfl atten","Ġpick le","Ġfor ward","Ġor d","min ion","Ġquery set","Ġun pack","ly ing","Ġkey id","char s","the ta","de c","AN D","3 6","is on","log ical","Ġread s","> \\","Ġdef ine","il ent","as sessment","Ġr v","ĠS T","Ġbut ton","h older","s in","FI EL","l ang","ĠĠĠĠĠĠĠĠĠĠĠĠĠĠĠĠĠĠĠĠĠĠĠĠĠĠĠĠĠĠĠĠ ĠĠĠĠĠĠĠĠĠĠĠĠĠĠĠ","8 4","C ur","c id","par k","P ol","Ġs ync","pos ure","Ġ* =","ĠIn ter","auss ian","Ġcall er","c ar","Ġ ])","Ġre ferences","an ded","Ġd en","jo int","Th read","m enu","v cf","at ic","maked irs","e lem","Ġde limiter","work flow","ge o","um my","N etwork","Ġst arts","ind er","Ġvide o","se g","Ġcon structor","Ġdepend ency","b and","er red","ex cept","Ġso ck","at ial","Ġstart ed","at ter","Ġth ree","ĠUni code","re lative","out ine","Ġcheck ing","RO M","r pc","mpl er","me s","Ġ ?","ur ations","qu ant","bo olean","S V","Ġs cores","li hood","ra m","M ake","ph i","Ġsub class","Ġdo cker","Create s","se gments","gn itude","J SON","Ġle ad","m as","st rap","en ate","si mple","thread s","V ariable","cal lable","u ble","Ġval s","sc reen","Ġen viron","uplic ates","Ġcalcul ated","` ):","r um","Ġt ransport","st age","In itial","ĠW ork","Ġcomple x","I I","SI G","(\" /","Ġdoc string","Ġres id","l st","Ġm ime","Ġpre tty","ĠĠĠĠĠĠĠĠĠĠĠĠ Ċ","exist ing","O ver","ifi c","d ence","he lper","3 5","p x","ĠSet s","Ġserial ized","q a","ent er","pa cket","Ġmo dify","pub lish","t ol","() ``","Ġsign ed","1 000","Ġasyn cio","S L","is instance","P age","X T","Ġc ard","Ġthe ta","base d","do cker","b g","Ġb asic","ec or","Se quence","Ġextract ed","ON E","Ġre ct","gra d","Ġrun s","7 7","ci p","Data set","m q","are st","an ization","Ġraise s","annot ation","Ġcond itions","c ss","f fici","t l","ĠS end","update d","ĠEx ec","Ġli g","last ic","L abel","ta ge","P rint","for ward","Ġpub lish","al lable","S D","Ġcon cat","ff t","en ari","Ġm andatory","b ad","Ġse g","en able","ĠThe se","pro ps","Ġsh ift","Ġfa ctory","mark er","on ts","Ġ---- --","si ble","ir d","umb na","L ength","Ġ3 0","Ġsuccessful ly","Ġin place","find all","R ange","p andas","Ġadd resses","arg in","dist ribution","Ġrepresen ts","Ġe ps","to ur","t d","(' {}","Ġlo gs","Ġma ss","Ġcomp uted","lin eno","Ġrequire ments","D U","Ġexec uted","C TION","M ode","Ġim mediate","t le","Ġv ocab","Ġp lay","Ġl ang","Ġbot tom","vide o","Ġs ca","Ġconnection s","Ġvert ices","ra di","Re ference","ph ase","ild card","so ft","Ġbe ta","ul ly","ĠSer ies","9 6","pro gram","F T","w t","at ype","Ser ial","Ġco okie","level s","HE AD","sem ble","Ġener gy","M I","m u","Ġr df","Ġpre pare","i or","Ġp lugins","vis ible","s cores","red is","S u","Ġe val","Q t","m ip","Ġc pu","MA P","Col or","co very","ĠS QL","Ġre cur","ue st","ad r","Ġun less","j a","Ġs sh","ĠN ew","Ġadd ing","Ġgo od","B o","f c","u ation","Ġf lat","Ġp ending","Col lection","Ġb undle","]) .","Time out","Y ou","ig en","C RE","L AN","at rix","A X","ĠAdd itional","S pec","se ct","Ġg u","CE SS","a ws","Ġdi gest","ĠP rint","Ġany thing","no ise","Ġf ree","ĠG o","ĠH ttp","D D","M ax","R ed","j ac","an it","iz ing","ĠEx tract","Ġover lap","Ġhapp en","P ri","Ġcon sole","Ġcomple ted","de ploy","U p","o auth","de scriptor","ext ensions","LE TE","de epcopy","Ġb and","Ġ'/ '","B e","s heet","Ġv ol","Ġper m","LE CT","en ch","di v","_ %","Ġs y","ĠT ake","wh ich","Ġinitial ize","rel ated","S end","f requency","ic le","de s","CO DE","Ġcode s","lo gs","Ġcreate s","p adding","per mission","cate gories","ĠDe lete","chron ous","B in","N um","s olution","Ġco st","Ġdoc s","ĠUn ion","w ave","Ġ\" '","ĠO peration","Ġlar ge","i red","Ġm x","pri mary","is m","call s","Ġw a","Ġstate ments","Ġhost s","Ġdepend ing","s izes","ma ps","Ġone s","([ [","ĠV M","ĠAdd s","s parse","Ġm is","ro les","st mt","Ex it","Set s","I s","el se","pi pe","Ġnote book",") -","_ :","fig ure","Ġfa ce","ĠT able","Ġcre ation","ch rom","us ing","pa b","wi ki","C M","se lector","Ġd jango","'] ),","b r","b ra","n l","a N","Ġe s","pt ime","ma jor","ĠF ield","Result s","oriz ont","7 8","di ctionary","Ġg ive","vi ation","G I","Ġpre vent","ro zen","ĠA d","Con nect","vert ices","lev ant","Ġ[ -","server s","ĠE lement","Ġdo uble","ĠSh ould","l ations","time delta","Ġget s","Ġlocation s","Ġsepar ator","Ġassume d","9 5","V ector","auth entic","Ġpage s","Ġd uplicate","i ms","ST AT","ens ure","f w","Ġe v","ada pter","e ffect","Ġe as","temp t","Ġh idden","Ġvalid ator","Ġde cimal","H ER","Ġm ix","ĠO ver","Ġinte gers","Ġ' ':","Ġch rom","A ccess","ing er","Ġh ard","comple x","Ġspecify ing","He ader","b utton","ject ory","[ (","q s","Ġre dis","] (","Ġp red","Ġv s","man y","Ġ'. '","cli ck","Ġwh ole","Ġbo ok","Ġinclude s","( [\"","Ġcon straints","pol y","it ation","ĠĠĠĠĠĠĠĠĠĠĠĠĠĠĠĠĠĠĠĠĠĠĠĠĠĠĠĠĠĠĠĠ ĠĠĠĠĠĠĠĠĠĠĠĠĠĠĠĠĠĠĠĠĠĠĠĠĠĠĠĠĠĠĠĠ","Ġcount ry","7 0","re pe","ĠC O","Ġre duce","name d","att ing","object ive","Ġqu ote","we et","Ġmap ped","k ing","ca p","Ġt re","late st","rypt o","il on","project s","Ġpe ak","Ġannot ations","C A","Ġcheck sum","* (","t p","Ġs v","get her","ren ces","ĠU sed","Ġlevel s","Format ter","Ġw ave","Ġobject ive","ĠSe arch","O F","ĠO utput","Ġne ver","A ML","scal ar","is h","Ca che","re ci","ĠS alt","att ention","Ġs lug","di git","\"] [","Ġm s","Ġg ate","C I","n ed","st o","Ġs lot","lin alg","rec v","ĠW ill","al i","ĠGet s","Ġr c","Ġtrans lation","S K","W ith","f lat","n i","Ġlist en","Ġf amily","Ġab ort","ĠC urrent","m ts","D ATE","Ġun able","Ke ys","A UT","M atch","b us","Ġh it","let te","A F","S pe","un ce","ran ches","ĠRes ource","Ġstat istics","S chema",":` .","Ġgen es","in c","Ġde p","lo ur","Ġdo ct","cont roller","Ġexplicit ly","f fi","y ment","ad o","list dir","comp liance","Ġpri ce","au dio","Ġres olution","Ġcont ract","Met adata","Ġexec utable","25 5","s w","Ġm enu","diff e","H elper","Ġiter ations","co v","Value s","Ġrot ation","Ġre v","sen der","Ġbehavi or","M in","Ġf inished","ff set","ĠR ed","! \")","Ġprobab ility","Ġ â","Ġse lector","'] ):","(\" -","ĠRe trieve","Ġdecode d","O UT","v ocab","Ġw rong","ok ies","Ex tract","chunk s","Ġqu al","Ġmake s","Ġs sl","get ter","po inter","ĠE nsure","pattern s","Ġtr unc","M odule","Ġo bs","po sed","P UT","Ġen ough","pri ce","co d","Ġread y","Ġinitial ized","i ke","Ġm u","ĠG roup","Ġno qa","ri ve","Ġformat s","c ce","Ġh andling","[' _","annot ations","ARN ING","+ '","Ġlon ger","ĠD ate","yn tax","serv ations","pri se","Ġext ensions","T A","W N","Ġ* ,","ud ent","me asure","ĠM ark","sup er","Ġcer tain","r gb","d ouble","re pository","Ġde grees","get Logger","' ll","g ap","p ing","Ġp ush","Ġph i","Exec ution","Ġd ates","Ġ\" )","ĠE vent","sert ion","R C","a a","or ch","Ġ2 55","ag raph","Ġformat ter","ĠCheck s","Ġsent ence","Ġans wer","Ġm ot","D ocument","b lack","Ġcho ices","in x","con struct","ex ternal","Ġlo cale","location s","Comp ute","R F","Ġw arn","man age","orizont al","o v","Ġs ol","Ġpro jection","ĠP lease","dis able","b asic","Ġsection s","c ule","(\" {","Ġver y","Ġe tree","Ġ' #","Ġcontain ed","ĠRes ult","w atch","IN TER","pe ak","In t","A A","O ut","r d","Ġh andlers","local s","Ġevery thing","D ER","h i","m ot","Ġ ],","Ġth row","Ġlo ader","Ġpol y","M issing","Ġper formed","ĠKey word","requ encies","c red","B ad","se quences","Ġst ypes","Ġbu ilder","Ġlimit s","v lan","pro g","Ġpo inter","Ġmin utes","char act","vo ice","Ġout side","Ġprevious ly","On ly","ble ms","ph ab","Ġmon itor","vers al","Ġb asis","{} )","Ġ{} ).","Ġfra ction","umbna il","' ``","ro po","Ġback up","b a","ĠD ef","ĠN etwork","wa p","ug gest","RE D","P ort","ad just","Ġ: :","ns upported","NotFound Error","iter ator","Ġinter vals","Ġalign ment","} /{","Ġf ully","vi rtual","Ġdiffe rence","S U","T uple","l c","te mplates","Ġsupport s","Ġlong itude","* .","8 5","C ell","(\" .","Ġ2 4","Ġpre ss","co okie","format ter","sc ribe","ph er","Ġgra dient","Ġreplace d","Ġdecor ated","} ]","al an","Ġsh are","vent ory","Ġta ken","Ġindic ates","Ġt rip","set ting","Ġpro ps","ĠN OT","reg ions","com ments","bot tom","Ġconst ants","res id","ys ical","Ġcho ice","Ġsimp ly","Q UE","Ġres olved","a ched","st all","ĠCon nection","Q ueue","ra d","ĠC ON","Ġspe ed","dis patch","Ġdown loaded","ĠSpe cifi","g ame","p at","Ġw atch","Ġm ig","prior ity","ĠPO ST","pre vious","process or","ient ation","C om","e valu","ro u","Ġex amples","MO DE","ent ities","Ġbet ter","Ġdi rs","phab et","\" %","par s","ok ed","ĠCon struct","amer a","Ġin cre","te ger","Ġconfig ure","os ite","Ġspa ces","Ġre start","Ġon to","cell s","FOR MAT","coordin ates","ve red","Ġr ather","ĠS ave","om ial","Ġcomple tion","Fa il","3 9","N OT","de tect","ge s","ĠĠĠĠĠĠĠĠĠĠĠĠĠĠĠĠĠĠĠĠĠĠĠĠĠĠĠĠĠĠĠĠ ĠĠĠĠĠĠĠĠĠĠĠĠĠĠĠĠĠĠĠ","Ġlat itude","Ġge o","LIN E","Ġa ctor","Ġd d","fi re","Ġpa rents","Un i","a verage","Ġdataset s","Ġtx t","Type s","Ġrelation ship","Ġmin im","ast er","ue print","pla in","sub net","Proper ty","P L","m c","Ġs id","ĠĠĠĠĠĠĠĠĠĠĠĠĠĠĠĠĠĠĠĠĠĠĠĠĠĠĠĠĠĠĠĠ ĠĠĠĠĠĠĠĠĠĠĠĠĠĠĠĠĠ","sub mit","Po ol","Ġaccept ed","std in","Ġder iv","N ew","con tract","Ġx range","connection s","Ġserial ize","ffici ent","ss ib","Ġcons ider","tick s",") .__","z a","Ġre spon","Ġcon tact","cont in","out file","! ')","l u","Ġf allback","ĠSer ver","ip her","state ment","UL L","ki pping","j id","Ġto gether","work ers","Type Error","Ġ` ~","Ġresponse s","pos itions","Ġvar s","uff le","b undle","Ġtri m","Ġada pter","Ġg uess","Ġlog ic","view s","fail ure","Y Y","Ġf w","ch r","Ġbegin ning","enari o","P ass","x es","() }","Ġ5 0","LA GS","Ġn an","te ction","ub class","Ġcate gories","con ver","scri pts","Ġwrit ing","ĠS ome","Con tainer","Ġfra gment","c ancel","ĠĠĠĠĠĠĠĠĠĠĠĠĠĠĠĠĠĠĠĠĠĠĠĠĠĠĠĠĠĠĠĠ ĠĠĠĠĠĠĠĠĠĠĠĠĠĠĠĠ","Ġte am","Ġbu ff","ĠY ield","Ġder ived","4 4","Ġin verse","pe er","spe cs","or dered","Ġwe ek","= ''","s y","er ial","Ġc red","Ġp ull","ĠT ask","che my","R R","lif y","Ġe ar","ph rase","pl us","H ost","Ġcal c","exec utable","vector s","Ġs leep","Ġ vec","an aly","ex periment","fix ed","count ry","Ġ 64","Ġc wd","Ġst mt","Ġtime delta","Ġte mplates","gen es","ex e","Ġed itor","Ġcli p","O peration","sub scription","D A","Ġ ri","AR T","Ġsyn tax","VAL UE","ĉ ĉ","bu ilt","d m","y les","Ġbound ary",") ],","Ġs ymbols","ind s","Ġca use","ful ly","Te mp","i mple","ne sted","Ġdis patch","specifi c","Ġmid dle","H A","Ġb box","Me m","S M","re tries","Ġra di","Ex t","Ġm ar","2 6","T est","' },","Ġa mp","Ġs izes","Ġb lank","ist ers","g amma","se l","st andard","Ġ: ]","pa rents","her it","pe t","es ian","ĠS p","att ice","A ss","M IN","O B","Ġcon straint","Ġurl s","Ġtrans fer","Ch annel","Ġwait ing",", ),","a ign","c nt","Ġd ensity","(\" --","Me ta","Iter ation","ĠV er","Ġevalu ate","ecor ator","G e","art i","ĠG ET","Ġ| =","ang les","Ġarg parse","Add s","pix el","C alculate","or ization","able s","ĠE nt","Ġent er","e q","Ch ar","J E","Ġrece ive","Ġta il","Ġman ifest","ĠDE FAULT","Ġexact ly","semb ly","Ġtest s","Ġwh ite","RE AD","bit rary","ĠSer vice","rou ped","Ġcon sumer","(\" {}","ĠM ulti","Ġat tached","De code","pol l","read line","Ġqu eries","iss ue","man ifest","Ġident ify","Ġre action","li d","ile s","ĠL e","ener gy","du ction","Ġdocument s","D ownload","P T","Re trieve","Ġac ross","ript or","Ġpi e","t imer","Ġro ut","Ġro les","FIEL D","h ip","Ġcons ist","arti fact","( ('","de leted","Ġover rid","Ġretrie ved","trie ves","Ġpass ing","it al","ip v","ĠM in","Ġreg ions","LE D","ĠWe b","Ġunder lying","b ias","Ġc p","Ġ1 1","Ġ1 9","Ġadd s","back up","Name s","as ses","vis it","Ġpredi cate","Ġlig ht","U rl","v ance","Ġ ke","ĠI SO","pro cessed","Ġload ing","Ġtermin al","H ash","ma y","Re ce","w all","ĠN ormal","mo ved","Ġcompar ison","N e","Ġa m","al ive","ĠT est","Ġc riteria","Ġh uman","date s","col lect","Ġro uting","Ch ild","I mport","Ġ question","in ja","ot ed","ex pect","Re ader","') ):","Ġoptional ly","valid ation","ĠM an","mult iple","SC RI","Ġimport ed","Par am","mult ip","sertion Error","n x","ri end","per missions","is ode","Config uration","Ġappro xim","fast q","Ġs mooth","array s","Ġdis abled","~ ~","L ocation","Ġlog ical","err no","\" {","er ce","Ġh ome","Ġma ps","cur rency","Ġreci pi","he st","ume d","trace back","P lease","z oom","le tes","con straints","Ġpredi ction","Ġdetermin ed","ri ces","Ġ\" <","Con st","Ġlin eno","5 8","out er","ĠG it","n r","u er","m ime","ro uter","abs olute","e e","t b","Ġde c","ation al","Ġreplace ment","Ġsen ding","can vas","Ġcompat ible","ĠMax imum","Ġp in","Ġb ra","(' <","sen sor","Clo ud","v a","ro ke","ĠB lock","Ġtemp file","('/ ')","Ġmag ic","L S","li cies","`` :","Ġinst anti","Ġre vision","gs ize","not ify","Ġo k","co st","Ġcorrect ly","Do es","Ġappe ar","d p","Ġen crypted","ĠN ow","Ġimmediate ly","Ġb rowser","Ġth ing","ci rc","Ġiss ubclass","Str uct","d c","h ref","Ġconf lict","Fe ature","Ġin struction","sh ared","2 7","B ack","S ave","h and","x s","st rict","Cur sor","l ated","s witch","A gent","Ġ( {","serial izer","wh ite","Ġcopi ed","Ġse ver","Ġdi alog","2 8","M ulti","c ross","s lot","Ġc andidates","Ġs r","ĠG e","TYPE S","plo ts","Ad min","un set","iv ing","__ ))","Ġent ities","A b","w cs","con sole","df s","ĠSe quence","gor ical","Ġprobab ly","Ġ= >","spe ed","cla red","Ġe st","Ġl st","Ġrange s","Ġq s","tuple s","An y","Ġde gree","Ġcomp ression","/ {}","i con","ĠD on","ST ATE","Ġindi cate","parser s","A li","U RE","i ence","Ġdi gits","Ġsub mission","Ġfloat s","range s","dim ensions","callback s","ĠClo ud","en c","ci fy","h int","ĠS im","const ant","ĠCont ent","V er","ĠP ol","Ġro uter","ĠO ption","min imum","I F","Ġdefault dict","ab ility","Ġcy cle","ĠPer mission","c andidate","m icro","Ġ( `","Ġk lass","l uster","at oms","Ġw alk","back ground","ĠFI X","2 9","b box","Ġst ride","ĠDe termine","S QL","T arget","ur ther","un ion","ĠC lass","inter vals","Ġcl one","i j","sen ce","Ġsepar ated","ropo ut","b rowser","Ġt en","mp aign","Ġbe come","max imum","E C","la gs","cond itions","ĠPar ameter","_ '","b et","Ġc atch","Ġ{ :","Ar gs","Ġ\"\" )",") ``","A ME","X ML","t ranspose","on gs","Ġs s","vid ers","Te mplate","Ġre levant","add resses","valid ator","vid ence","Ġf g","un ts","Ġwh itespace","num bers","ĠBo olean","4 04","Ġn x","inter section","expand user","require ments","\" >","ĠD jango","-------- ----","iter al","ĠAs sertionError","f h","f path","p ur","mo difi","C re","j ava","l ar","warning s","Ġda emon","By tes","Ġattach ment","s ites","cogn ized","O per","i i","limit s","LO CK","Reg ister","Ġmac ro","l strip","Ġc ancel","Trans form","sens itive",") +","Ġsub stit","yste ms","JE CT","dict s","Ġro ll","Ġcomp ound","Co py","ch at","Ġ( ``","ĠN ull","vert ex","Ġb lack","Ex pected","Un ion","D R","v or","Ġre versed","Ġ( -","Ġext ended","Ġvis ible","m ol","st ar","le cule","iss ues","ĠI s","Ġend s","Ġbind ing","C AL","ul ative","Ġpol ygon","AR Y","ĠData set","Ġdoct est","ĠP ass","th resh","gre en","format s","Ġgener al","trans fer","eff s","C B","] }","(' [","act ivity","clar ation","( %","Ġ quiet","crypt o","ĠIter able","W rapper","Ġin crement","ĠC a","ĠF e","Ġcalcul ation","Ġstd in","lo cale","Ġchar s","Ġcomb ined","pick le","P open","st and","de ps","cur ve","cur acy","CH E","LO W","50 9","Ġestim ate","U RI","ig hest","Ġbase name","leg al","A ST","Ġb ias","ĠĠĠĠĠĠĠĠĠĠĠĠĠĠĠĠĠĠĠĠĠĠĠĠĠĠĠĠĠĠĠĠ ĠĠĠĠĠĠĠĠĠĠĠĠĠĠĠĠĠĠ","adr atic","S o","b re","Ġf oo","Ġre cursively","state ments","Ġproper ly","Ġarg v","ĠInitial ize","HEAD ER","m is","ar c","Ġw x","serial ized","Ġiter tools","Ġdetect ed","calcul ate","led ge","3 7","le arn","TE XT","Ġth ings",")) ]","Ġen coder","uto ol","Ġhy per","='' ):","it ute","() ).","iz ers","Ġro om",": \"","ex amples","av g","rit es","HER E","an za","Ġa ble","Ġc c","Ġlength s","writ ten","Ġcoeffici ents","P osition","z z","Ġt imer","Ġal le","Pro xy","fin ite","p n","Ġp at","ol low","length s","ĠTo ken","Ġc ar","as a","Ġcomp ile","Ġfa sta","hex digest","ili o","Ġp g","ĠD O","by ref","Ġp ip","app ro","sub set","Ġbyte array","de cimal","Ġe cho","Ġm uch","be at","Ġhist ogram","as ing","ĠIn stance","Ġfiles ystem","Ġform atting","Ġ\"\" ,","cut off","Ġb ug","Ġsub mit","Ġcan onical","TE MP","Ġtw ilio","ven ience","F unc","m time","Ġt b","wrap ped","Ġoccur red","VI CE","= ',","ĠAl low","ĠStop Iteration","ssib ly","uni form","I ds","f inished","Ġd x","() `","Ġg amma","ĠA WS","f r","et c","Ġret ries","CO M","Ġvis ual","b um","de t","it able","Ġs la","SE LECT","Ġtest ing","ce l","te p","ĠF ROM","trans ition","ĠFIX ME","ĠS ign","Ġtry ing","ĠSt ream","at ives","fil tered","Ġ4 0","Ġhandle s","inger print","ali ases","data sets","Ġiter ate","Ġgen ome","hook s","2 1","U ST","in ations","Ġa ffect","cl usters","Ġgo ing","so me","Cont rol","s ame","Ġf ront","time zone","Not Exist","train ing","z ure","Ġb g","un ter","prec ision","Ġembed ding","L ATE","c les","p in","Ġb i","Ġnum er","Ġgra d",": ],","V M","tect ed","C ore","Ġg ame","ĠRe quired","Ġob served","Desc ription","ĠA R","bo lic","[: :-","--- +","App lication","Ġcompat ibility","Ġo ps","ĠCon verts","cho ices","ĠCh ange","b alance","Ġma jor","mon itor","Ġissue s","ĠOperation Failed","s ymbols","Or der","dimension al","trig ger","C allback","s ince","__ [","Ġz oom","re name","he m","it ter","an e","ĠD esc","ib ration","da p","Ġtrans formed","ttrib utes","Ġserial izer","ĠO R","... ,","inst alled","=\"\" ,","Ġhand led","s ol","list en","pro cesses","ĠM et","qui ck","St orage","custom er","Ġe igen","Ġstr ategy","Ġpos itional","Ġmo ment","Ġob servation","Ġbro ker","g l","Ġs olver","Ġr gb","Ġcomp ressed","on y","Ġp t","ĠS ource","Ġport s","ĠNot Found","m ix","Ġc um","lo cate","Ġb us","Ġw on","Ġr ho","read s","Ġspecifi es",") \",",": \",","Ġn ative","Ġos id","OR Y","Ġcom ma","Ġassign ment","Ġdescrib ing","G iven","m g","Ġx y","Ġvari ance","Ġcho sen","Ġattemp ts","Ġ1 4","Di rectory","a gs","run ner","N ormal","> ,","urn al","(' #","mk dir","Valid ate","Ġconfi rm","Ġinterpol ation","> \"","qu bits","ty le","U se","in i","Ġc map","Ġre comm","Ġmay be","cert ificate","Ġtra iling","exec ution","query set","Ġfa ct","AUT H","0 8","sc rib","Ġhash lib","Ġsim ulation","ĠU sage","Ġpol l","cu it","' {","C AC","c v","En abled","VAL ID","O ptions","M apping","Ġ' [","Ġar tic","ĠP lot","cul ar","concat enate","F C","d om","h params","en coder","ĠL ine","tri m","note book","Ġplan e",
[...]
