{"version":"1.0","truncation":null,"padding":null,"added_tokens":[{"id":0,"special":true,"content":"<unk>","single_word":false,"lstrip":false,"rstrip":false,"normalized":false},{"id":1,"special":true,"content":"<pad>","single_word":false,"lstrip":false,"rstrip":false,"normalized":false},{"id":2,"special":true,"content":"<s>","single_word":false,"lstrip":false,"rstrip":false,"normalized":false},{"id":3,"special":true,"content":"</s>","single_word":false,"lstrip":false,"rstrip":false,"normalized":false}],"normalizer":null,"pre_tokenizer":{"type":"ByteLevel","add_prefix_space":true,"trim_offsets":true},"post_processor":{"type":"BertProcessing","sep":["</s>",3],"cls":["<s>",2]},"decoder":null,"model":{"type":"BPE","dropout":null,"unk_token":"<unk>","continuing_subword_prefix":null,"end_of_word_suffix":null,"fuse_unk":false,"vocab":{"<unk>":0,"<pad>":1,"<s>":2,"</s>":3,"0":4,"1":5,"2":6,"3":7,"4":8,"5":9,"6":10,"7":11,"8":12,"9":13,"a":14,"b":15,"c":16,"d":17,"e":18,"f":19,"g":20,"h":21,"i":22,"j":23,"k":24,"l":25,"m":26,"n":27,"o":28,"p":29,"q":30,"r":31,"s":32,"t":33,"u":34,"v":35,"w":36,"x":37,"y":38,"z":39,"Ċ":40,"Ġ":41,"xx":42,"er":43,"me":44,"Ġs":45,"Ġc":46,"Ġt":47,"on":48,"Ġp":49,"in":50,"re":51,"xxx":52,"at":53,"Ġn":54,"Ġa":55,"li":56,"le":57,"od":58,"ame":59,"st":60,"Ġf":61,"et":62,"Ġe":63,"th":64,"ion":65,"or":66,"Ġm":67,"Ġd":68,"Ġre":69,"Ġb":70,"Ġi":71,"meth":72,"method":73,"ct":74,"Ġst":75,"Ġg":76,"name":77,"nt":78,"methodname":79,"methodnamexxx":80,"xxxmethodnamexxx":81,"ss":82,"Ġxxxmethodnamexxx":83,"al":84,"ro":85,"Ġin":86,"ub":87,"lic":88,"ce":89,"Ġth":90,"an":91,"Ġv":92,"Ġpub":93,"Ġpublic":94,"te":95,"Ġcon":96,"ing":97,"Ġget":98,"ew":99,"ur":100,"ar":101,"Ġo":102,"is":103,"ul":104,"ate":105,"Ġnew":106,"ut":107,"Ġl":108,"it":109,"se":110,"Ġh":111,"Ġco":112,"Ġthis":113,"id":114,"Ġstr":115,"Ġex":116,"pe":117,"Ġpro":118,"la":119,"ue":120,"Ġte":121,"pt":122,"Ġstring":123,"il":124,"Ġde":125,"Ġw":126,"Ġset":127,"ed":128,"ag":129,"ert":130,"xt":131,"ri":132,"ation":133,"el":134,"ck":135,"ch":136,"up":137,"mp":138,"Ġfi":139,"Ġname":140,"ad":141,"en":142,"ab":143,"Ġret":144,"Ġid":145,"ull":146,"ig":147,"ent":148,"urn":149,"ect":150,"Ġli":151,"Ġreturn":152,"Ġcla":153,"ra":154,"Ġtest":155,"Ġnull":156,"Ġass":157,"ption":158,"Ġclass":159,"ype":160,"Ġconte":161,"ter":162,"Ġtype":163,"Ġj":164,"Ġto":165,"Ġvo":166,"un":167,"Ġassert":168,"Ġma":169,"ment":170,"Ġvoid":171,"Ġlist":172,"Ġme":173,"ot":174,"able":175,"Ġtr":176,"Ġconf":177,"Ġ1":178,"ic":179,"Ġlo":180,"Ġcontext":181,"Ġbu":182,"qu":183,"Ġres":184,"Ġad":185,"Ġr":186,"Ġ0":187,"Ġch":188,"ject":189,"ction":190,"Ġk":191,"age":192,"ult":193,"der":194,"Ġca":195,"lo":196,"Ġse":197,"ode":198,"ception":199,"Ġint":200,"ver":201,"Ġif":202,"Ġconfig":203,"Ġfile":204,"oo":205,"Ġfin":206,"row":207,"as":208,"ctor":209,"Ġser":210,"Ġar":211,"Ġen":212,"Ġexception":213,"Ġpar":214,"Ġsup":215,"Ġfa":216,"Ġadd":217,"Ġvi":218,"Ġis":219,"Ġval":220,"ata":221,"um":222,"Ġmap":223,"us":224,"Ġvalue":225,"Ġbuil":226,"Ġan":227,"Ġview":228,"Ġcomp":229,"Ġthrow":230,"vi":231,"Ġstat":232,"Ġmy":233,"Ġfor":234,"Ġdef":235,"Ġsuper":236,"Ġke":237,"ime":238,"es":239,"and":240,"Ġcol":241,"Ġequ":242,"Ġfinal":243,"Ġob":244,"Ġkey":245,"Ġequal":246,"Ġby":247,"iz":248,"our":249,"ol":250,"Ġinst":251,"Ġpri":252,"ource":253,"Ġdo":254,"ance":255,"int":256,"que":257,"ctory":258,"Ġdata":259,"ist":260,"Ġcre":261,"ve":262,"Ġap":263,"ers":264,"eld":265,"Ġpa":266,"am":267,"Ġequals":268,"Ġpat":269,"Ġsh":270,"Ġon":271,"sc":272,"per":273,"cted":274,"Ġpre":275,"unt":276,"Ġtime":277,"Ġtrue":278,"Ġfield":279,"ault":280,"ff":281,"Ġdefault":282,"ity":283,"Ġman":284,"Ġnot":285,"vice":286,"Ġdi":287,"Ġbuilder":288,"ener":289,"vate":290,"Ġcreate":291,"Ġmod":292,"Ġal":293,"Ġfactory":294,"Ġprivate":295,"Ġobject":296,"Ġinstance":297,"Ġpo":298,"Ġle":299,"ator":300,"Ġnode":301,"Ġmess":302,"Ġstate":303,"ize":304,"ager":305,"Ġcase":306,"Ġmessage":307,"if":308,"Ġboo":309,"Ġut":310,"Ġtext":311,"Ġthrows":312,"ex":313,"ali":314,"lean":315,"Ġ2":316,"Ġmanager":317,"Ġsize":318,"ans":319,"Ġreg":320,"ang":321,"Ġele":322,"Ġat":323,"Ġprop":324,"Ġbe":325,"Ġev":326,"che":327,"ler":328,"Ġboolean":329,"Ġcont":330,"ort":331,"ine":332,"Ġproject":333,"Ġun":334,"atch":335,"Ġtrans":336,"po":337,"ssion":338,"Ġthe":339,"ger":340,"Ġstatic":341,"Ġla":342,"Ġout":343,"Ġservice":344,"quest":345,"Ġutil":346,"Ġfal":347,"Ġmo":348,"Ġrequest":349,"Ġba":350,"Ġcli":351,"ray":352,"Ġpath":353,"av":354,"Ġfalse":355,"Ġinf":356,"cess":357,"Ġro":358,"ader":359,"Ġx":360,"Ġevent":361,"put":362,"ain":363,"Ġus":364,"Ġor":365,"Ġarray":366,"00":367,"Ġclient":368,"Ġapp":369,"ure":370,"ition":371,"Ġind":372,"out":373,"Ġlog":374,"ide":375,"Ġpropert":376,"ong":377,"Ġcom":378,"Ġresult":379,"Ġhe":380,"Ġmet":381,"ore":382,"Ġur":383,"Ġdesc":384,"Ġsource":385,"Ġbyte":386,"Ġsc":387,"Ġaction":388,"Ġcount":389,"lu":390,"Ġinte":391,"uration":392,"Ġhas":393,"Ġsy":394,"ith":395,"ec":396,"ow":397,"Ġlistener":398,"Ġmethod":399,"ry":400,"rent":401,"Ġu":402,"Ġregist":403,"mpl":404,"ute":405,"art":406,"Ġelement":407,"itor":408,"Ġhand":409,"Ġinfo":410,"ser":411,"Ġlong":412,"Ġent":413,"Ġover":414,"ule":415,"Ġof":416,"Ġprote":417,"Ġwith":418,"Ġqu":419,"Ġprotected":420,"Ġup":421,"Ġac":422,"ies":423,"Ġinter":424,"ive":425,"Ġconfiguration":426,"Ġas":427,"Ġexp":428,"Ġexec":429,"Ġindex":430,"ord":431,"Ġche":432,"ma":433,"Ġloc":434,"Ġall":435,"Ġinit":436,"Ġatt":437,"Ġcheck":438,"ream":439,"und":440,"em":441,"Ġuser":442,"Ġmodel":443,"ument":444,"Ġlay":445,"Ġoverr":446,"Ġoption":447,"ava":448,"Ġmock":449,"nd":450,"Ġcal":451,"rib":452,"ly":453,"Ġstream":454,"Ġgro":455,"mple":456,"Ġend":457,"Ġsele":458,"Ġand":459,"Ġoverride":460,"ind":461,"tem":462,"nect":463,"pa":464,"vid":465,"Ġjava":466,"Ġtable":467,"Ġne":468,"Ġsub":469,"Ġarg":470,"om":471,"ile":472,"Ġjs":473,"Ġht":474,"aliz":475,"Ġact":476,"Ġresource":477,"im":478,"iv":479,"con":480,"Ġinteger":481,"Ġprovid":482,"Ġstart":483,"Ġer":484,"Ġput":485,"Ġcur":486,"Ġed":487,"Ġconnect":488,"Ġref":489,"Ġcache":490,"Ġlayout":491,"ster":492,"stem":493,"Ġerr":494,"Ġel":495,"Ġnum":496,"Ġthre":497,"Ġhandler":498,"Ġwe":499,"Ġthat":500,"Ġem":501,"ings":502,"rap":503,"arg":504,"Ġserver":505,"tp":506,"Ġgroup":507,"ange":508,"Ġ3":509,"onent":510,"Ġab":511,"Ġcontain":512,"Ġitem":513,"oc":514,"Ġconst":515,"Ġprovider":516,"Ġcode":517,"Ġutils":518,"Ġrec":519,"ress":520,"ard":521,"Ġfil":522,"Ġelse":523,"leg":524,"Ġerror":525,"ffer":526,"ree":527,"Ġexecut":528,"Ġmax":529,"ask":530,"Ġpr":531,"Ġprocess":532,"Ġdis":533,"Ġsett":534,"Ġhttp":535,"Ġsystem":536,"Ġbo":537,"Ġcomponent":538,"Ġproperty":539,"Ġjo":540,"ns":541,"rol":542,"Ġcolor":543,"Ġlen":544,"Ġhash":545,"Ġtask":546,"Ġoper":547,"pon":548,"Ġdec":549,"Ġinput":550,"Ġfro":551,"sh":552,"ializ":553,"Ġrun":554,"Ġrespon":555,"ht":556,"Ġsession":557,"Ġresponse":558,"Ġimpl":559,"Ġthread":560,"Ġfrom":561,"red":562,"arget":563,"Ġtarget":564,"unction":565,"Ġwh":566,"Ġjson":567,"lock":568,"ble":569,"Ġsp":570,"point":571,"Ġno":572,"Ġbuild":573,"Ġdescri":574,"Ġsq":575,"ant":576,"ence":577,"ip":578,"Ġfilter":579,"Ġdoc":580,"Ġoptions":581,"Ġcolum":582,"Ġurl":583,"gth":584,"Ġcomm":585,"Ġim":586,"Ġcolle":587,"Ġz":588,"Ġ4":589,"ork":590,"ial":591,"ted":592,"Ġlength":593,"Ġtree":594,"lication":595,"Ġform":596,"Ġsettings":597,"ost":598,"Ġfr":599,"Ġbuffer":600,"Ġbase":601,"pty":602,"let":603,"Ġhel":604,"Ġmem":605,"Ġprot":606,"Ġcontent":607,"lay":608,"Ġback":609,"ery":610,"Ġconnection":611,"date":612,"ase":613,"Ġroot":614,"Ġgener":615,"orm":616,"Ġempty":617,"Ġper":618,"ber":619,"ory":620,"Ġquery":621,"Ġ5":622,"Ġfunction":623,"mo":624,"Ġstore":625,"Ġtransl":626,"Ġpan":627,"Ġsql":628,"Ġread":629,"Ġrep":630,"Ġfind":631,"ust":632,"ml":633,"Ġdb":634,"ract":635,"ack":636,"Ġregister":637,"set":638,"not":639,"nc":640,"erence":641,"Ġdire":642,"Ġso":643,"si":644,"Ġexpe":645,"Ġstatus":646,"luster":647,"Ġchar":648,"Ġapplication":649,"wn":650,"ameter":651,"ft":652,"ug":653,"Ġparam":654,"ribute":655,"Ġoutput":656,"lit":657,"ersion":658,"Ġversion":659,"ke":660,"Ġblock":661,"ifi":662,"adata":663,"Ġtypes":664,"Ġparameter":665,"ken":666,"Ġy":667,"Ġformat":668,"Ġcolumn":669,"Ġau":670,"Ġmetadata":671,"Ġcurrent":672,"Ġcluster":673,"sent":674,"Ġendpoint":675,"Ġflo":676,"Ġenable":677,"Ġvar":678,"Ġmodule":679,"Ġcall":680,"Ġfoo":681,"Ġpref":682,"line":683,"Ġload":684,"Ġbar":685,"tern":686,"Ġactiv":687,"Ġtoken":688,"ression":689,"Ġsw":690,"Ġpart":691,"di":692,"ated":693,"ary":694,"Ġcollection":695,"end":696,"raw":697,"Ġattribute":698,"Ġtra":699,"Ġtry":700,"Ġvis":701,"Ġinv":702,"co":703,"Ġuri":704,"Ġproperties":705,"Ġcontrol":706,"Ġupdate":707,"Ġabst":708,"ptor":709,"Ġfields":710,"Ġheader":711,"ron":712,"Ġabstract":713,"Ġsi":714,"Ġexpression":715,"Ġio":716,"Ġmatch":717,"use":718,"ru":719,"Ġannot":720,"Ġhost":721,"Ġrecord":722,"ign":723,"Ġbut":724,"Ġbean":725,"Ġparent":726,"Ġactivity":727,"Ġexte":728,"Ġjob":729,"Ġlocal":730,"Ġregistry":731,"Ġpresent":732,"Ġresol":733,"Ġver":734,"Ġpack":735,"ann":736,"Ġdir":737,"ap":738,"Ġpsi":739,"Ġrow":740,"rit":741,"ink":742,"Ġiter":743,"Ġnon":744,"Ġpos":745,"Ġdate":746,"Ġhelper":747,"ge":748,"Ġline":749,"Ġargument":750,"Ġxml":751,"Ġremo":752,"Ġexecutor":753,"Ġexpected":754,"Ġeditor":755,"Ġwork":756,"Ġsa":757,"Ġoperation":758,"apt":759,"Ġentity":760,"Ġmode":761,"Ġtag":762,"Ġimage":763,"pend":764,"Ġdeleg":765,"Ġcontainer":766,"Ġoff":767,"Ġnext":768,"Ġsche":769,"ir":770,"cs":771,"uble":772,"Ġdouble":773,"act":774,"Ġadapt":775,"Ġparser":776,"Ġentry":777,"arch":778,"Ġdocument":779,"Ġcatch":780,"Ġauth":781,"Ġenabled":782,"uld":783,"Ġcan":784,"Ġparse":785,"Ġpanel":786,"Ġnames":787,"Ġmin":788,"vel":789,"ication":790,"og":791,"Ġbod":792,"Ġfiles":793,"ton":794,"ched":795,"Ġpattern":796,"lable":797,"cket":798,"indow":799,"Ġspe":800,"Ġfla":801,"ak":802,"Ġpoo":803,"Ġmetri":804,"yle":805,"queue":806,"Ġtranslation":807,"Ġwindow":808,"ix":809,"Ġadapter":810,"Ġcommand":811,"Ġbind":812,"Ġuse":813,"Ġweb":814,"Ġclo":815,"gin":816,"Ġrule":817,"action":818,"Ġbytes":819,"Ġaccess":820,"mplate":821,"raph":822,"Ġqueue":823,"Ġtemplate":824,"ould":825,"Ġloader":826,"Ġbutton":827,"pace":828,"exception":829,"Ġmemory":830,"Ġcompil":831,"rite":832,"ild":833,"Ġprint":834,"Ġserializ":835,"Ġsupp":836,"Ġpool":837,"mit":838,"Ġshould":839,"riter":840,"Ġfloat":841,"Ġorder":842,"Ġlevel":843,"Ġmult":844,"Ġcons":845,"Ġvalues":846,"Ġstyle":847,"Ġ10":848,"Ġbox":849,"bug":850,"alid":851,"Ġdelegate":852,"Ġbody":853,"Ġelem":854,"Ġaddress":855,"Ġident":856,"Ġport":857,"bo":858,"Ġsimple":859,"Ġstatement":860,"Ġannotation":861,"Ġag":862,"Ġda":863,"Ġflag":864,"cond":865,"Ġsearch":866,"ocol":867,"Ġdescription":868,"Ġdat":869,"ifier":870,"ale":871,"ateg":872,"nsion":873,"Ġobser":874,"Ġnumber":875,"Ġgraph":876,"Ġlab":877,"form":878,"Ġpackage":879,"Ġdebug":880,"one":881,"Ġprotocol":882,"itle":883,"ight":884,"de":885,"Ġdefin":886,"Ġioexception":887,"ca":888,"ync":889,"Ġbit":890,"min":891,"Ġtransaction":892,"cur":893,"Ġreference":894,"annel":895,"Ġcontroller":896,"ark":897,"Ġprog":898,"Ġlabel":899,"Ġunit":900,"ify":901,"Ġext":902,"Ġwrite":903,"Ġfir":904,"Ġwrap":905,"Ġoffset":906,"Ġsing":907,"ght":908,"ilit":909,"Ġchannel":910,"Ġins":911,"Ġreader":912,"lin":913,"fa":914,"Ġfirst":915,"Ġcompiler":916,"ater":917,"Ġfail":918,"Ġchild":919,"Ġspec":920,"alog":921,"ld":922,"Ġplu":923,"ual":924,"Ġreal":925,"Ġchange":926,"nder":927,"Ġwhen":928,"older":929,"Ġdescriptor":930,"Ġaw":931,"Ġenc":932,"Ġdraw":933,"Ġgr":934,"Ġplugin":935,"itch":936,"Ġlang":937,"lick":938,"Ġattr":939,"Ġrunn":940,"Ġallo":941,"of":942,"Ġtool":943,"Ġparams":944,"Ġframe":945,"Ġclick":946,"Ġintern":947,"Ġprocessor":948,"pos":949,"Ġtitle":950,"lete":951,"Ġposition":952,"Ġwid":953,"Ġpaint":954,"back":955,"Ġswitch":956,"Ġasync":957,"Ġlocation":958,"gn":959,"Ġsubsc":960,"Ġown":961,"led":962,"Ġms":963,"Ġschema":964,"Ġlink":965,"Ġdefinition":966,"Ġdep":967,"Ġconv":968,"Ġcompile":969,"Ġlogger":970,"Ġil":971,"legal":972,"Ġinternal":973,"Ġtests":974,"load":975,"Ġconstant":976,"map":977,"Ġillegal":978,"otlin":979,"Ġkotlin":980,"viron":981,"Ġsha":982,"Ġdirectory":983,"vironment":984,"Ġprogress":985,"ep":986,"Ġbund":987,"Ġinstanceof":988,"Ġenvironment":989,"Ġsk":990,"Ġpartition":991,"ok":992,"ample":993,"Ġintent":994,"Ġha":995,"Ġfrag":996,"Ġdet":997,"uc":998,"Ġ6":999,"Ġrece":1000,"Ġwriter":1001,"qui":1002,"Ġapi":1003,"Ġclose":1004,"Ġph":1005,"Ġbundle":1006,"Ġvari":1007,"ification":1008,"Ġfragment":1009,"Ġexch":1010,"Ġtop":1011,"Ġresolver":1012,"Ġdisp":1013,"ick":1014,"Ġnet":1015,"Ġconstru":1016,"face":1017,"Ġdialog":1018,"Ġorg":1019,"Ġlast":1020,"Ġeng":1021,"Ġany":1022,"Ġexample":1023,"ics":1024,"Ġ8":1025,"Ġcontains":1026,"Ġhead":1027,"ell":1028,"fi":1029,"Ġlock":1030,"Ġsched":1031,"Ġrender":1032,"Ġexecution":1033,"Ġpoint":1034,"Ġstand":1035,"Ġchang":1036,"Ġare":1037,"Ġconvert":1038,"Ġcust":1039,"Ġpost":1040,"Ġmeta":1041,"count":1042,"Ġaut":1043,"Ġbre":1044,"Ġav":1045,"Ġtimeout":1046,"Ġthrowable":1047,"Ġali":1048,"Ġcustom":1049,"untime":1050,"ring":1051,"Ġexchange":1052,"Ġpass":1053,"Ġplay":1054,"Ġproto":1055,"Ġtab":1056,"Ġruntime":1057,"Ġpl":1058,"Ġit":1059,"Ġsetup":1060,"op":1061,"Ġinc":1062,"Ġpage":1063,"abase":1064,"Ġengine":1065,"Ġbreak":1066,"pen":1067,"utable":1068,"arn":1069,"Ġrealm":1070,"Ġselected":1071,"yc":1072,"Ġrequi":1073,"Ġri":1074,"Ġrand":1075,"Ġaccount":1076,"Ġ100":1077,"Ġshow":1078,"Ġmon":1079,"Ġpolic":1080,"Ġstats":1081,"Ġdown":1082,"lace":1083,"Ġimp":1084,"Ġstor":1085,"Ġrepos":1086,"Ġicon":1087,"Ġonly":1088,"Ġstandard":1089,"Ġextension":1090,"Ġanim":1091,"Ġrepositor":1092,"Ġvalid":1093,"Ġselection":1094,"file":1095,"Ġserv":1096,"Ġwidth":1097,"Ġone":1098,"orted":1099,"Ġverify":1100,"Ġarn":1101,"Ġheight":1102,"ature":1103,"ath":1104,"gro":1105,"Ġbas":1106,"xy":1107,"Ġsocket":1108,"Ġinitializ":1109,"pac":1110,"Ġshort":1111,"order":1112,"val":1113,"umer":1114,"tr":1115,"ility":1116,"own":1117,"Ġservlet":1118,"Ġdom":1119,"lob":1120,"Ġbin":1121,"Ġvariable":1122,"Ġopen":1123,"Ġappend":1124,"Ġextra":1125,"Ġstrateg":1126,"Ġpers":1127,"Ġbasic":1128,"Ġop":1129,"Ġrandom":1130,"Ġdatabase":1131,"Ġstorage":1132,"Ġparameters":1133,"Ġpolicy":1134,"ipe":1135,"ible":1136,"Ġ12":1137,"Ġconstructor":1138,"Ġcallback":1139,"lis":1140,"Ġjd":1141,"Ġsubscrib":1142,"ative":1143,"Ġrest":1144,"Ġvisitor":1145,"ere":1146,"Ġsecond":1147,"Ġrepository":1148,"ice":1149,"ont":1150,"Ġcop":1151,"Ġstrategy":1152,"Ġflags":1153,"word":1154,"gment":1155,"Ġstack":1156,"Ġmedi":1157,"Ġmapper":1158,"rift":1159,"Ġextend":1160,"Ġthrift":1161,"Ġproxy":1162,"Ġargs":1163,"Ġremove":1164,"Ġmetrics":1165,"Ġbuf":1166,"Ġcell":1167,"Ġkt":1168,"ping":1169,"Ġselect":1170,"Ġmulti":1171,"Ġadmin":1172,"Ġsingle":1173,"Ġiterator":1174,"Ġedit":1175,"Ġsegment":1176,"Ġcame":1177,"Ġconsumer":1178,"Ġdelete":1179,"work":1180,"Ġcamel":1181,"mi":1182,"loy":1183,"Ġbackend":1184,"Ġresources":1185,"Ġart":1186,"etch":1187,"Ġkeys":1188,"cast":1189,"Ġsplit":1190,"Ġmil":1191,"Ġborder":1192,"Ġss":1193,"Ġign":1194,"Ġpreference":1195,"Ġtrace":1196,"Ġsd":1197,"Ġauto":1198,"Ġleft":1199,"Ġwa":1200,"Ġadvice":1201,"ope":1202,"Ġregion":1203,"Ġui":1204,"Ġfe":1205,"Ġct":1206,"Ġinitial":1207,"fore":1208,"Ġscrol":1209,"ground":1210,"be":1211,"Ġptr":1212,"Ġencod":1213,"Ġthen":1214,"ill":1215,"Ġjoin":1216,"Ġassign":1217,"ector":1218,"ther":1219,"Ġbinding":1220,"Ġbefore":1221,"Ġsend":1222,"Ġmedia":1223,"Ġorig":1224,"nu":1225,"uage":1226,"Ġidentifier":1227,"Ġmark":1228,"Ġheaders":1229,"pacity":1230,"Ġignore":1231,"Ġrenderer":1232,"Ġright":1233,"Ġconstants":1234,"bc":1235,"Ġdrawable":1236,"roid":1237,"Ġsign":1238,"Ġinject":1239,"igh":1240,"Ġdao":1241,"all":1242,"Ġbig":1243,"arator":1244,"wer":1245,"Ġlanguage":1246,"est":1247,"amp":1248,"Ġdirect":1249,"Ġtri":1250,"Ġrange":1251,"Ġ7":1252,"Ġsupport":1253,"Ġandroid":1254,"Ġcapacity":1255,"Ġprod":1256,"ite":1257,"Ġsav":1258,"Ġmaster":1259,"Ġscope":1260,"uid":1261,"Ġobserver":1262,"Ġmenu":1263,"Ġmain":1264,"Ġwas":1265,"Ġmust":1266,"Ġgenerator":1267,"Ġchain":1268,"Ġmetric":1269,"Ġwrapper":1270,"Ġlib":1271,"Ġq":1272,"Ġimm":1273,"Ġhandle":1274,"are":1275,"Ġexecute":1276,"ty":1277,"Ġattributes":1278,"Ġtrack":1279,"Ġorigin":1280,"Ġholder":1281,"Ġred":1282,"Ġhive":1283,"Ġconstra":1284,"Ġprefix":1285,"Ġroute":1286,"Ġdisplay":1287,"Ġoperator":1288,"zon":1289,"Ġama":1290,"curity":1291,"Ġbatch":1292,"Ġprofile":1293,"Ġconstraint":1294,"Ġamazon":1295,"Ġfetch":1296,"Ġimport":1297,"Ġsaved":1298,"Ġscroll":1299,"Ġextends":1300,"Ġnotification":1301,"ization":1302,"Ġchanged":1303,"Ġcompo":1304,"Ġsecurity":1305,"nce":1306,"Ġgra":1307,"Ġhigh":1308,"Ġbackground":1309,"Ġremote":1310,"Ġuuid":1311,"Ġcopy":1312,"ln":1313,"Ġserializer":1314,"log":1315,"inter":1316,"ils":1317,"Ġcollections":1318,"Ġmsg":1319,"string":1320,"Ġshard":1321,"Ġgo":1322,"Ġcond":1323,"Ġimmutable":1324,"Ġ9":1325,"Ġaf":1326,"Ġfix":1327,"Ġbound":1328,"ential":1329,"Ġinline":1330,"ical":1331,"ys":1332,"Ġsyn":1333,"Ġnest":1334,"gre":1335,"ner":1336,"Ġpair":1337,"Ġagent":1338,"Ġalloc":1339,"Ġnodes":1340,"eet":1341,"Ġfl":1342,"Ġowner":1343,"Ġprintln":1344,"Ġdeploy":1345,"sor":1346,"Ġtransform":1347,"Ġsm":1348,"Ġpipe":1349,"Ġjdbc":1350,"stamp":1351,"Ġdevice":1352,"fe":1353,"Ġdist":1354,"Ġ20":1355,"Ġinterface":1356,"Ġselector":1357,"Ġhist":1358,"Ġmapping":1359,"Ġns":1360,"0000":1361,"ach":1362,"oto":1363,"ized":1364,"Ġafter":1365,"Ġpane":1366,"Ġsdk":1367,"uct":1368,"imal":1369,"bility":1370,"Ġskip":1371,"Ġinvo":1372,"Ġflow":1373,"bar":1374,"Ġtimestamp":1375,"ations":1376,"Ġrel":1377,"Ġgrid":1378,"icate":1379,"Ġtw":1380,"cy":1381,"Ġpassword":1382,"Ġshared":1383,"Ġtemp":1384,"Ġfs":1385,"Ġelements":1386,"Ġnamespace":1387,"Ġenum":1388,"uture":1389,"ript":1390,"ms":1391,"fs":1392,"Ġfuture":1393,"ai":1394,"Ġold":1395,"chron":1396,"Ġids":1397,"Ġast":1398,"Ġarrays":1399,"ped":1400,"Ġinterce":1401,"Ġraw":1402,"pc":1403,"Ġnav":1404,"Ġmonitor":1405,"Ġpay":1406,"zel":1407,"lobal":1408,"Ġdepend":1409,"Ġter":1410,"Ġdecimal":1411,"Ġinterval":1412,"Ġwarn":1413,"Ġrole":1414,"Ġmillis":1415,"Ġactive":1416,"Ġnul":1417,"uple":1418,"Ġsn":1419,"ls":1420,"umm":1421,"Ġbitmap":1422,"low":1423,"Ġacce":1424,"Ġrunnable":1425,"ient":1426,"Ġschedul":1427,"Ġrequired":1428,"Ġcomment":1429,"Ġopt":1430,"vable":1431,"Ġavai":1432,"Ġcursor":1433,"Ġlimit":1434,"Ġfoc":1435,"Ġide":1436,"Ġsynchron":1437,"Ġglobal":1438,"ved":1439,"Ġtuple":1440,"Ġsb":1441,"ines":1442,"Ġinstant":1443,"Ġalias":1444,"Ġpersist":1445,"Ġmatcher":1446,"Ġfont":1447,"entials":1448,"Ġauthent":1449,"port":1450,"Ġdeta":1451,"zelcast":1452,"Ġcause":1453,"Ġinsert":1454,"Ġallow":1455,"Ġpipeline":1456,"Ġhazelcast":1457,"Ġanal":1458,"Ġscale":1459,"mission":1460,"Ġnetwork":1461,"Ġplayer":1462,"Ġmer":1463,"Ġconverter":1464,"resh":1465,"Ġworker":1466,"Ġbt":1467,"Ġexpr":1468,"Ġpop":1469,"Ġduration":1470,"Ġevents":1471,"Ġdri":1472,"Ġitems":1473,"ideo":1474,"Ġactual":1475,"Ġexit":1476,"Ġvideo":1477,"Ġexist":1478,"Ġclasses":1479,"Ġseque":1480,"Ġcore":1481,"lish":1482,"Ġsubscribe":1483,"Ġnullable":1484,"Ġgeneric":1485,"rt":1486,"tex":1487,"mt":1488,"Ġartif":1489,"Ġoriginal":1490,"Ġwait":1491,"nown":1492,"Ġiss":1493,"Ġcent":1494,"Ġuns":1495,"rc":1496,"Ġapply":1497,"ived":1498,"Ġcounter":1499,"Ġauthor":1500,"ek":1501,"Ġscript":1502,"Ġtot":1503,"Ġcomplet":1504,"Ġobservable":1505,"Ġartifact":1506,"Ġvector":1507,"Ġwor":1508,"Ġvertex":1509,"Ġtheme":1510,"Ġsame":1511,"Ġmouse":1512,"Ġword":1513,"vm":1514,"Ġrefresh":1515,"Ġcharact":1516,"old":1517,"Ġbro":1518,"iled":1519,"Ġtotal":1520,"Ġscheduler":1521,"Ġsu":1522,"ries":1523,"Ġlook":1524,"Ġdriver":1525,"rect":1526,"Ġmethods":1527,"Ġctx":1528,"Ġworld":1529,"Ġcalled":1530,"Ġaggre":1531,"Ġlines":1532,"Ġpermission":1533,"Ġfo":1534,"Ġiterable":1535,"Ġsample":1536,"Ġssl":1537,"Ġstub":1538,"Ġissue":1539,"Ġother":1540,"reen":1541,"ucer":1542,"Ġcor":1543,"Ġdeployment":1544,"Ġpointer":1545,"Ġhello":1546,"Ġaggreg":1547,"Ġsuc":1548,"rary":1549,"Ġstep":1550,"Ġresults":1551,"zz":1552,"io":1553,"Ġrecyc":1554,"Ġfocus":1555,"Ġcommit":1556,"Ġlinked":1557,"code":1558,"Ġinterceptor":1559,"ph":1560,"Ġcance":1561,"Ġcalc":1562,"Ġphoto":1563,"Ġnavig":1564,"ret":1565,"Ġdime":1566,"Ġconcur":1567,"Ġidentity":1568,"ie":1569,"Ġcondition":1570,"Ġobj":1571,"Ġanimation":1572,"Ġhb":1573,"Ġprops":1574,"Ġdt":1575,"yn":1576,"ibility":1577,"Ġbinary":1578,"Ġreplace":1579,"Ġdependen":1580,"ush":1581,"Ġeval":1582,"Ġcenter":1583,"Ġsequence":1584,"very":1585,"Ġstop":1586,"space":1587,"Ġfeature":1588,"ade":1589,"rix":1590,"Ġmember":1591,"Ġcolumns":1592,"Ġcle":1593,"Ġdest":1594,"ren":1595,"Ġtimeline":1596,"Ġmessages":1597,"Ġscan":1598,"Ġsec":1599,"Ġjvm":1600,"Ġquali":1601,"Ġfull":1602,"Ġ11":1603,"Ġinner":1604,"Ġprimit":1605,"Ġsheet":1606,"Ġvirt":1607,"uce":1608,"Ġdiff":1609,"ncy":1610,"Ġcharacter":1611,"Ġinvalid":1612,"Ġatom":1613,"unk":1614,"Ġcateg":1615,"Ġdomain":1616,"Ġip":1617,"mplement":1618,"Ġexpect":1619,"ov":1620,"Ġunk":1621,"Ġpublish":1622,"Ġchat":1623,"Ġclear":1624,"Ġsnap":1625,"Ġimplement":1626,"Ġneed":1627,"Ġavailable":1628,"Ġsort":1629,"ection":1630,"vis":1631,"lend":1632,"Ġtopic":1633,"Ġhave":1634,"Ġscheme":1635,"Ġlocale":1636,"Ġdecl":1637,"Ġcommon":1638,"Ġnorm":1639,"Ġaccept":1640,"Ġgenerate":1641,"iod":1642,"Ġspan":1643,"field":1644,"Ġsel":1645,"Ġstruct":1646,"Ġcoord":1647,"Ġtim":1648,"Ġdisable":1649,"Ġperiod":1650,"Ġho":1651,"Ġwhile":1652,"Ġtx":1653,"Ġusage":1654,"Ġjar":1655,"Ġtester":1656,"Ġpe":1657,"Ġmake":1658,"Ġfound":1659,"Ġprevi":1660,"Ġpy":1661,"Ġfailed":1662,"bu":1663,"Ġbucket":1664,"Ġgl":1665,"Ġunknown":1666,"iver":1667,"Ġlibrary":1668,"Ġhighli":1669,"Ġplace":1670,"Ġsave":1671,"Ġcalend":1672,"Ġcalendar":1673,"Ġgu":1674,"Ġvirtual":1675,"Ġzone":1676,"Ġcook":1677,"Ġnative":1678,"Ġreceived":1679,"Ġedge":1680,"Ġcert":1681,"Ġrout":1682,"Ġvert":1683,"ay":1684,"Ġconfigure":1685,"Ġinspe":1686,"alidate":1687,"Ġdyn":1688,"Ġlayer":1689,"lass":1690,"Ġextern":1691,"Ġself":1692,"gle":1693,"leton":1694,"Ġlatch":1695,"Ġarch":1696,"Ġenv":1697,"list":1698,"Ġcompletion":1699,"Ġmater":1700,"Ġauthentication":1701,"Ġchunk":1702,"shot":1703,"Ġtyped":1704,"Ġfactor":1705,"Ġschedule":1706,"oder":1707,"Ġinclu":1708,"Ġdelay":1709,"ration":1710,"Ġvisible":1711,"Ġinitialize":1712,"Ġreport":1713,"Ġsrc":1714,"Ġatomic":1715,"Ġcancel":1716,"ution":1717,"Ġsuccess":1718,"Ġgroov":1719,"Ġtransport":1720,"Ġattrs":1721,"Ġsep":1722,"Ġmultip":1723,"rop":1724,"Ġfolder":1725,"Ġnavigation":1726,"Ġplan":1727,"ating":1728,"Ġinfl":1729,"Ġgroovy":1730,"Ġinvoc":1731,"ram":1732,"fied":1733,"Ġhistory":1734,"Ġinstanti":1735,"Ġsnapshot":1736,"Ġproducer":1737,"atcher":1738,"Ġtopo":1739,"ob":1740,"Ġdynam":1741,"Ġrad":1742,"Ġreceiver":1743,"Ġwill":1744,"Ġrequire":1745,"Ġcp":1746,"Ġsingleton":1747,"Ġresolve":1748,"ruction":1749,"Ġrecycler":1750,"Ġhz":1751,"Ġcl":1752,"tempt":1753,"gest":1754,"Ġzoo":1755,"Ġentries":1756,"Ġprimitive":1757,"orter":1758,"Ġlookup":1759,"Ġsection":1760,"Ġfailure":1761,"Ġlisten":1762,"Ġcategory":1763,"ices":1764,"Ġattempt":1765,"Ġdeclar":1766,"Ġcomparator":1767,"Ġnow":1768,"Ġoptional":1769,"Ġreset":1770,"Ġscreen":1771,"ker":1772,"Ġpreferences":1773,"Ġdimension":1774,"Ġvcs":1775,"Ġmat":1776,"Ġconcurrent":1777,"Ġhi":1778,"Ġhtml":1779,"Ġencoding":1780,"ish":1781,"uch":1782,"Ġcreated":1783,"Ġ42":1784,"Ġmath":1785,"Ġtoolbar":1786,"Ġta":1787,"Ġtwo":1788,"for":1789,"Ġawsc":1790,"Ġbr":1791,"Ġarguments":1792,"Ġmaterial":1793,"Ġsafe":1794,"imum":1795,"izer":1796,"Ġclazz":1797,"Ġbal":1798,"ank":1799,"cer":1800,"path":1801,"12":1802,"Ġinterp":1803,"asure":1804,"Ġmerge":1805,"Ġchildren":1806,"Ġtranslate":1807,"redentials":1808,"Ġawscredentials":1809,"Ġam":1810,"ilities":1811,"Ġbus":1812,"lex":1813,"99":1814,"Ġcookie":1815,"Ġcharset":1816,"Ġconstraints":1817,"Ġunder":1818,"Ġts":1819,"Ġmarker":1820,"cent":1821,"function":1822,"ps":1823,"Ġsignature":1824,"Ġgenerated":1825,"Ġinvocation":1826,"56":1827,"ast":1828,"agn":1829,"Ġcomplete":1830,"Ġevalu":1831,"Ġzk":1832,"Ġdumm":1833,"Ġseconds":1834,"Ġquick":1835,"Ġsome":1836,"logy":1837,"Ġactions":1838,"Ġdummy":1839,"down":1840,"Ġinstruction":1841,"ume":1842,"Ġcodes":1843,"Ġcodec":1844,"Ġinvoke":1845,"Ġsync":1846,"ding":1847,"Ġsetting":1848,"Ġsug":1849,"gr":1850,"Ġprepa":1851,"ging":1852,"box":1853,"Ġusername":1854,"Ġdp":1855,"ward":1856,"Ġworkspace":1857,"Ġtmp":1858,"Ġpopup":1859,"ole":1860,"Ġpg":1861,"Ġexternal":1862,"Ġtexture":1863,"Ġservices":1864,"get":1865,"Ġ16":1866,"Ġanaly":1867,"Ġnamed":1868,"Ġprior":1869,"Ġabs":1870,"ache":1871,"Ġbl":1872,"Ġok":1873,"Ġpaths":1874,"icker":1875,"Ġlogin":1876,"Ġ200":1877,"gen":1878,"Ġspace":1879,"Ġ1000":1880,"alle":1881,"Ġmanage":1882,"Ġos":1883,"ax":1884,"leted":1885,"Ġthreads":1886,"ni":1887,"Ġmi":1888,"ycle":1889,"Ġconfigur":1890,"Ġtouch":1891,"Ġpred":1892,"Ġredi":1893,"ular":1894,"ous":1895,"Ġused":1896,"Ġsuggest":1897,"Ġseparator":1898,"Ġrunner":1899,"af":1900,"Ġnone":1901,"Ġapache":1902,"Ġgrav":1903,"node":1904,"ia":1905,"ified":1906,"Ġdiagn":1907,"Ġgoo":1908,"itions":1909,"Ġdecla":1910,"ven":1911,"Ġdiagnost":1912,"Ġstar":1913,"Ġoperations":1914,"Ġaws":1915,"Ġtopology":1916,"Ġhbase":1917,"vers":1918,"icator":1919,"Ġseek":1920,"Ġdownload":1921,"Ġfinish":1922,"Ġswig":1923,"sure":1924,"Ġflowable":1925,"Ġsqlfunction":1926,"ffect":1927,"Ġmeasure":1928,"Ġ123":1929,"Ġannotations":1930,"terns":1931,"Ġtimer":1932,"Ġgravity":1933,"Ġstatist":1934,"Ġasset":1935,"Ġassignment":1936,"Ġsla":1937,"Ġclean":1938,"Ġstyleable":1939,"sed":1940,"Ġcodegen":1941,"Ġstage":1942,"Ġdig":1943,"Ġtimes":1944,"Ġmay":1945,"11":1946,"ook":1947,"Ġtesting":1948,"cle":1949,"object":1950,"Ġcred":1951,"Ġrpc":1952,"Ġtracker":1953,"ear":1954,"comp":1955,"Ġdynamic":1956,"lier":1957,"Ġlaun":1958,"32":1959,"Ġtasks":1960,"Ġcollector":1961,"rec":1962,"ne":1963,"Ġrect":1964,"os":1965,"Ġretry":1966,"Ġcannot":1967,"Ġexc":1968,"mod":1969,"ee":1970,"Ġfill":1971,"Ġsynchronized":1972,"bin":1973,"Ġdependency":1974,"Ġobjects":1975,"her":1976,"Ġdra":1977,"Ġsupported":1978,"Ġld":1979,"ded":1980,"Ġparce":1981,"ily":1982,"Ġmatrix":1983,"Ġclock":1984,"Ġtrig":1985,"Ġbrow":1986,"bers":1987,"Ġrs":1988,"Ġperson":1989,"Ġinjector":1990,"Ġactor":1991,"Ġpriority":1992,"Ġmore":1993,"Ġhome":1994,"Ġtypeface":1995,"mer":1996,"Ġvisibility":1997,"Ġlisteners":1998,"Ġdebugger":1999,"Ġyear":2000,"arsh":2001,"Ġtags":2002,"Ġcat":2003,"gh":2004,"sing":2005,"Ġans":2006,"Ġchanges":2007,"ions":2008,"Ġdto":2009,"Ġstro":2010,"text":2011,"Ġparalle":2012,"Ġarchive":2013,"Ġrm":2014,"Ġidea":2015,"Ġcriter":2016,"Ġanalyz":2017,"Ġpercent":2018,"Ġlaunch":2019,"Ġmaven":2020,"Ġdecor":2021,"Ġmanagement":2022,"atis":2023,"Ġfam":2024,"Ġbot":2025,"Ġdeclared":2026,"Ġinform":2027,"sk":2028,"Ġpredicate":2029,"inc":2030,"Ġcir":2031,"dio":2032,"Ġant":2033,"mark":2034,"Ġconsole":2035,"Ġmutable":2036,"Ġsubscriber":2037,"avi":2038,"Ġmove":2039,"Ġbag":2040,"Ġconnector":2041,"Ġstroke":2042,"ription":2043,"Ġinformation":2044,"Ġfixed":2045,"Ġchart":2046,"Ġinclude":2047,"anner":2048,"Ġinflater":2049,"class":2050,"atform":2051,"Ġpol":2052,"Ġmatches":2053,"Ġbounds":2054,"Ġstmt":2055,"Ġcompat":2056,"Ġcm":2057,"Ġannotated":2058,"Ġcached":2059,"Ġbinder":2060,"Ġcombo":2061,"Ġheap":2062,"ll":2063,"Ġrows":2064,"Ġday":2065,"Ġprecond":2066,"Ġshut":2067,"Ġfunctions":2068,"Ġchoo":2069,"Ġsubscription":2070,"Ġ15":2071,"bed":2072,"Ġidx":2073,"Ġcompare":2074,"Ġanswer":2075,"rency":2076,"eper":2077,"res":2078,"Ġprev":2079,"Ġplatform":2080,"utils":2081,"Ġsite":2082,"Ġrunning":2083,"Ġsent":2084,"Ġgen":2085,"Ġwhite":2086,"Ġtrigger":2087,"Ġside":2088,"Ġvalidate":2089,"ud":2090,"Ġinstances":2091,"ystem":2092,"Ġattach":2093,"ito":2094,"Ġdex":2095,"Ġspring":2096,"ificate":2097,"Ġalg":2098,"Ġcriteria":2099,"upp":2100,"Ġblocking":2101,"bean":2102,"ise":2103,"Ġloaded":2104,"Ġcertificate":2105,"Ġtod":2106,"Ġsym":2107,"pro":2108,"site":2109,"Ġpad":2110,"Ġbeh":2111,"Ġsli":2112,"Ġsen":2113,"Ġgoogle":2114,"Ġboot":2115,"Ġmanag":2116,"idd":2117,"Ġec":2118,"Ġpatch":2119,"Ġincre":2120,"Ġpreconditions":2121,"Ġexists":2122,"Ġgit":2123,"Ġsink":2124,"Ġsources":2125,"Ġtermin":2126,"Ġcreation":2127,"umb":2128,"Ġfilters":2129,"Ġpublisher":2130,"Ġfamily":2131,"Ġusing":2132,"Ġformatter":2133,"Ġusers":2134,"Ġwrit":2135,"Ġoptim":2136,"ws":2137,"only":2138,"pan":2139,"ghter":2140,"Ġdrawer":2141,"Ġdetail":2142,"Ġpayload":2143,"Ġserialization":2144,"Ġmodifier":2145,"son":2146,"incip":2147,"Ġreplic":2148,"Ġcoordin":2149,"Ġprincip":2150,"Ġutilities":2151,"Ġextractor":2152,"type":2153,"itive":2154,"Ġbott":2155,"Ġprincipal":2156,"Ġutf":2157,"host":2158,"Ġsubstring":2159,"Ġsmall":2160,"Ġorgan":2161,"Ġlight":2162,"Ġlogging":2163,"med":2164,"Ġexpand":2165,"Ġrelative":2166,"lap":2167,"cat":2168,"Ġshape":2169,"24":2170,"ero":2171,"Ġlif":2172,"Ġspo":2173,"Ġgrad":2174,"Ġeffect":2175,"Ġstarted":2176,"Ġvalidator":2177,"Ġsl":2178,"Ġsv":2179,"lease":2180,"Ġhit":2181,"Ġwithout":2182,"Ġcompose":2183,"Ġthresh":2184,"Ġthreshold":2185,"erred":2186,"Ġaudio":2187,"serializ":2188,"Ġstatistics":2189,"Ġmonth":2190,"Ġtl":2191,"Ġgc":2192,"wa":2193,"Ġsatis":2194,"Ġrefle":2195,"Ġparcelable":2196,"Ġdraft":2197,"ump":2198,"Ġuni":2199,"Ġdispo":2200,"Ġbottom":2201,"Ġcard":2202,"ndi":2203,"Ġrouting":2204,"000":2205,"Ġcontin":2206,"Ġjndi":2207,"Ġdoes":2208,"Ġhighlighter":2209,"Ġfinally":2210,"Ġprepare":2211,"Ġchecked":2212,"Ġorganization":2213,"Ġreplication":2214,"Ġcreator":2215,"Ġprim":2216,"ixel":2217,"Ġsorted":2218,"Ġ25":2219,"Ġdispatcher":2220,"Ġej":2221,"Ġgroups":2222,"Ġdr":2223,"Ġge":2224,"Ġsum":2225,"Ġreply":2226,"Ġshad":2227,"Ġwidget":2228,"Ġlower":2229,"Ġerrors":2230,"alizer":2231,"Ġsatisfied":2232,"Ġtxt":2233,"Ġfast":2234,"ced":2235,"Ġlists":2236,"Ġforward":2237,"Ġvalidation":2238,"arm":2239,"Ġcamer":2240,"Ġmiss":2241,"aller":2242,"Ġejb":2243,"Ġdecoder":2244,"Ġws":2245,"ecycle":2246,"Ġtranslated":2247,"Ġpress":2248,"Ġshutdown":2249,"Ġwhere":2250,"tent":2251,"we":2252,"Ġprimary":2253,"Ġblob":2254,"test":2255,"Ġpadding":2256,"mail":2257,"Ġcomposite":2258,"Ġshadow":2259,"Ġupdated":2260,"Ġrules":2261,"read":2262,"Ġwarning":2263,"Ġtransformer":2264,"Ġldap":2265,"Ġextract":2266,"ka":2267,"Ġmask":2268,"Ġcollect":2269,"Ġmodules":2270,"Ġbet":2271,"Ġrequested":2272,"Ġcamera":2273,"Ġlifecycle":2274,"Ġbroker":2275,"ged":2276,"Ġmong":2277,"Ġincrement":2278,"Ġmockito":2279,"Ġexclu":2280,"Ġeach":2281,"Ġdetails":2282,"Ġvisit":2283,"vision":2284,"Ġtables":2285,"Ġstructure":2286,"vor":2287,"Ġindicator":2288,"Ġfake":2289,"Ġspout":2290,"Ġreduce":2291,"Ġbegin":2292,"Ġbehavi":2293,"Ġten":2294,"Ġpush":2295,"Ġfac":2296,"Ġcalcul":2297,"Ġperform":2298,"Ġcorrect":2299,"Ġhy":2300,"Ġdeserializ":2301,"Ġflat":2302,"teral":2303,"Ġdrop":2304,"01":2305,"ptr":2306,"Ġorient":2307,"ination":2308,"Ġalph":2309,"Ġnormal":2310,"Ġbook":2311,"Ġabsol":2312,"Ġdone":2313,"Ġemail":2314,"upported":2315,"Ġnsstring":2316,"Ġindices":2317,"Ġdisco":2318,"Ġtodo":2319,"Ġslave":2320,"Ġ14":2321,"Ġbased":2322,"connect":2323,"Ġpayment":2324,"Ġarea":2325,"Ġunique":2326,"Ġliteral":2327,"Ġweight":2328,"Ġviewer":2329,"Ġcptr":2330,"zy":2331,"Ġunsupported":2332,"Ġnote":2333,"Ġmbean":2334,"Ġinspection":2335,"Ġfieldsonly":2336,"Ġscal":2337,"Ġendpoints":2338,"Ġcf":2339,"orith":2340,"Ġembed":2341,"Ġdetector":2342,"Ġkeep":2343,"anch":2344,"Ġstrings":2345,"Ġchars":2346,"Ġprevious":2347,"bol":2348,"Ġadded":2349,"Ġalgorith":2350,"rup":2351,"Ġrt":2352,"Ġheart":2353,"Ġindent":2354,"ending":2355,"Ġinstall":2356,"Ġregex":2357,"Ġpicker":2358,"rupted":2359,"Ġscanner":2360,"Ġconn":2361,"emon":2362,"Ġoc":2363,"Ġcomponents":2364,"Ġdeprec":2365,"Ġloading":2366,"ants":2367,"Ġnested":2368,"Ġpending":2369,"Ġcap":2370,"33":2371,"ql":2372,"Ġfn":2373,"Ġlocalhost":2374,"ful":2375,"ancer":2376,"cut":2377,"Ġtt":2378,"Ġstarts":2379,"Ġloop":2380,"Ġsymbol":2381,"ta":2382,"Ġsle":2383,"Ġmot":2384,"Ġlex":2385,"ift":2386,"Ġrate":2387,"Ġphase":2388,"Ġbroad":2389,"Ġbranch":2390,"Ġpeer":2391,"Ġmanaged":2392,"board":2393,"Ġbackup":2394,"Ġexpi":2395,"Ġpacket":2396,"Ġmongo":2397,"Ġdeclaration":2398,"Ġcompleted":2399,"Ġcompute":2400,"Ġhostname":2401,"Ġcast":2402,"Ġsecret":2403,"Ġlinear":2404,"Ġpager":2405,"Ġgeo":2406,"Ġham":2407,"Ġgat":2408,"ga":2409,"Ġcmd":2410,"Ġtransition":2411,"Ġround":2412,"Ġinvoice":2413,"Ġtb":2414,"Ġmv":2415,"jo":2416,"Ġdel":2417,"Ġtokens":2418,"used":2419,"aws":2420,"Ġamazonaws":2421,"Ġmini":2422,"Ġdfs":2423,"Ġalert":2424,"formed":2425,"Ġjsonobject":2426,"Ġabsolute":2427,"Ġfinder":2428,"Ġchecker":2429,"Ġkeyword":2430,"Ġregistration":2431,"Ġthan":2432,"Ġlazy":2433,"Ġwal":2434,"Ġax":2435,"Ġund":2436,"Ġcpu":2437,"second":2438,"Ġvars":2439,"Ġuid":2440,"Ġmarsh":2441,"Ġoperand":2442,"fer":2443,"Ġsubt":2444,"78":2445,"Ġchooser":2446,"Ġinterrupted":2447,"other":2448,"Ġinstr":2449,"Ġbla":2450,"Ġdiagnostics":2451,"unc":2452,"Ġabc":2453,"Ġupper":2454,"Ġhint":2455,"Ġrepo":2456,"Ġtrim":2457,"Ġpin":2458,"Ġlate":2459,"Ġbad":2460,"Ġzip":2461,"oci":2462,"Ġslot":2463,"uth":2464,"Ġsumm":2465,"Ġcheckpoint":2466,"ess":2467,"Ġalgorithm":2468,"Ġpreview":2469,"df":2470,"Ġneg":2471,"Ġanother":2472,"Ġimplementation":2473,"Ġbrowser":2474,"beat":2475,"Ġrelease":2476,"Ġder":2477,"strap":2478,"Ġflush":2479,"Ġker":2480,"Ġcaret":2481,"he":2482,"ich":2483,"Ġmilli":2484,"Ġhamlet":2485,"Ġgiv":2486,"Ġbootstrap":2487,"Ġod":2488,"Ġdiffer":2489,"Ġdisabled":2490,"Ġrem":2491,"Ġzero":2492,"Ġhandl":2493,"Ġinstrument":2494,"Ġsubject":2495,"Ġmd":2496,"Ġprocessing":2497,"Ġexport":2498,"Ġ13":2499,"Ġshortcut":2500,"Ġgatew":2501,"Ġinitializer":2502,"Ġheal":2503,"Ġdecode":2504,"Ġhd":2505,"Ġcontinue":2506,"Ġcallable":2507,"Ġclosed":2508,"Ġtabs":2509,"vs":2510,"Ġscheduled":2511,"seconds":2512,"rame":2513,"ysis":2514,"Ġhealth":2515,"50":2516,"ict":2517,"Ġappe":2518,"Ġwhich":2519,"Ġanimator":2520,"Ġallowed":2521,"Ġanalysis":2522,"Ġupload":2523,"Ġquo":2524,"Ġra":2525,"Ġkind":2526,"Ġdeli":2527,"Ġsin":2528,"Ġreturned":2529,"ities":2530,"nate":2531,"Ġcontact":2532,"Ġhiber":2533,"Ġalb":2534,"Ġcolors":2535,"ou":2536,"Ġalbum":2537,"Ġmotion":2538,"met":2539,"Ġreser":2540,"Ġvec":2541,"sets":2542,"Ġquot":2543,"mount":2544,"Ġacd":2545,"Ġhelp":2546,"Ġgateway":2547,"Ġheartbeat":2548,"Ġrot":2549,"store":2550,"sson":2551,"Ġassoci":2552,"olt":2553,"Ġhibernate":2554,"Ġmultiple":2555,"Ġstd":2556,"Ġmapp":2557,"Ġmissing":2558,"sca":2559,"Ġsupplier":2560,"Ġbolt":2561,"Ġdisk":2562,"Ġfactories":2563,"Ġredisson":2564,"Ġupd":2565,"Ġamount":2566,"Ġensure":2567,"clo":2568,"Ġvertical":2569,"oop":2570,"Ġfore":2571,"Ġsleep":2572,"Ġmig":2573,"last":2574,"Ġaxis":2575,"Ġpull":2576,"frame":2577,"Ġ19":2578,"Ġenter":2579,"Ġds":2580,"def":2581,"Ġanalyzer":2582,"uff":2583,"Ġauthorization":2584,"Ġes":2585,"Ġdestination":2586,"Ġdaemon":2587,"Ġprotos":2588,"Ġgiven":2589,"Ġvariables":2590,"Ġencoder":2591,"Ġdrag":2592,"Ġmaximum":2593,"Ġcs":2594,"Ġcoordinator":2595,"Ġemp":2596,"Ġbtn":2597,"Ġcontents":2598,"Ġjust":2599,"Ġcar":2600,"Ġhook":2601,"Ġminimum":2602,"ugh":2603,"Ġhere":2604,"Ġpul":2605,"Ġrever":2606,"Ġclasspath":2607,"Ġpoints":2608,"Ġconvers":2609,"Ġframework":2610,"Ġaggregation":2611,"Ġbits":2612,"Ġradi":2613,"Ġcurrency":2614,"Ġsvn":2615,"Ġmembers":2616,"Ġ00":2617,"Ġseed":2618,"lume":2619,"Ġanti":2620,"Ġalign":2621,"fil":2622,"80":2623,"Ġdispos":2624,"Ġmanif":2625,"Ġgd":2626,"const":2627,"64":2628,"Ġcredentials":2629,"Ġshift":2630,"Ġhor":2631,"resent":2632,"Ġaware":2633,"Ġrepe":2634,"Ġbuffered":2635,"Ġpersistent":2636,"panel":2637,"Ġcompiled":2638,"Ġjb":2639,"Ġvolume":2640,"Ġ50":2641,"Ġrepresent":2642,"Ġinspector":2643,"Ġmac":2644,"Ġserialize":2645,"Ġage":2646,"Ġdescrib":2647,"Ġnetty":2648,"actor":2649,"Ġtake":2650,"dir":2651,"Ġregistered":2652,"ween":2653,"Ġbetween":2654,"Ġpk":2655,"Ġdf":2656,"Ġaccessor":2657,"col":2658,"ifiable":2659,"Ġinterpre":2660,"ifiers":2661,"Ġevi":2662,"Ġcatalog":2663,"Ġvm":2664,"Ġallocate":2665,"Ġmanifest":2666,"fig":2667,"Ġdup":2668,"Ġencoded":2669,"itter":2670,"Ġkeycode":2671,"Ġ32":2672,"Ġrelation":2673,"Ġdeprecated":2674,"Ġswipe":2675,"Ġinterpreter":2676,"Ġdiscovery":2677,"ian":2678,"db":2679,"Ġpresenter":2680,"Ġfire":2681,"Ġsince":2682,"Ġpartitions":2683,"Ġfilename":2684,"Ġthumb":2685,"Ġinet":2686,"Ġwritable":2687,"Ġtenant":2688,"Ġinto":2689,"Ġelast":2690,"licit":2691,"Ġacc":2692,"arse":2693,"Ġlabels":2694,"des":2695,"Ġshards":2696,"Ġconfigurable":2697,"ways":2698,"Ġproduct":2699,"Ġdocs":2700,"Ġjpanel":2701,"Ġassigned":2702,"Ġmail":2703,"Ġcheckbox":2704,"Ġpreferred":2705,"Ġsummary":2706,"Ġ30":2707,"Ġep":2708,"ffff":2709,"Ġalways":2710,"vas":2711,"Ġfinished":2712,"Ġhdfs":2713,"thing":2714,"Ġbalancer":2715,"Ġsegments":2716,"check":2717,"34":2718,"Ġbreakpoint":2719,"Ġmach":2720,"Ġ201":2721,"Ġti":2722,"Ġinterpol":2723,"Ġmilliseconds":2724,"Ġcach":2725,"Ġignored":2726,"Ġfol":2727,"Ġtrust":2728,"Ġhighlight":2729,"Ġbool":2730,"Ġtools":2731,"Ġsuff":2732,"Ġack":2733,"Ġsuite":2734,"Ġterm":2735,"Ġdisposable":2736,"Ġcompilation":2737,"Ġscr":2738,"Ġexecutors":2739,"man":2740,"Ġcanvas":2741,"Ġgraphics":2742,"Ġchecks":2743,"so":2744,"atar":2745,"pp":2746,"Ġcompar":2747,"pect":2748,"lism":2749,"Ġparallelism":2750,"Ġmappings":2751,"Ġnever":2752,"Ġqualifi":2753,"Ġelastic":2754,"Ġperformed":2755,"Ġthro":2756,"Ġgest":2757,"acle":2758,"Ġsus":2759,"Ġthrown":2760,"Ġgre":2761,"Ġallocation":2762,"Ġconnections":2763,"aming":2764,"Ġhour":2765,"Ġembedded":2766,"Ġscore":2767,"cies":2768,"Ġappro":2769,"Ġyarn":2770,"Ġpb":2771,"Ġdefaults":2772,"Ġidle":2773,"Ġplugins":2774,"Ġharn":2775,"Ġkeyclo":2776,"Ġharness":2777,"Ġkeycloak":2778,"Ġquota":2779,"Ġ1024":2780,"ros":2781,"Ġkaf":2782,"Ġsecure":2783,"Ġkafka":2784,"Ġpixel":2785,"ribution":2786,"sar":2787,"Ġdependencies":2788,"Ġstores":2789,"Ġrx":2790,"Ġastnode":2791,"char":2792,"Ġfeed":2793,"Ġcand":2794,"Ġacl":2795,"Ġpower":2796,"Ġavatar":2797,"Ġpulsar":2798,"Ġnotify":2799,"Ġdistance":2800,"Ġ22":2801,"icle":2802,"Ġoracle":2803,"ten":2804,"Ġsender":2805,"Ġsuffix":2806,"aml":2807,"Ġskin":2808,"da":2809,"util":2810,"Ġrequests":2811,"xture":2812,"Ġpermissions":2813,"Ġlexer":2814,"30":2815,"Ġcb":2816,"Ġhoriz":2817,"Ġalpha":2818,"Ġrecords":2819,"ision":2820,"Ġminute":2821,"Ġpatterns":2822,"Ġforce":2823,"Ġaddition":2824,"Ġdecorator":2825,"Ġclone":2826,"Ġmachine":2827,"Ġsqlex":2828,"Ġcloud":2829,"Ġradius":2830,"ash":2831,"ments":2832,"Ġbehavior":2833,"Ġsearcher":2834,"Ġsplitter":2835,"auth":2836,"idden":2837,"Ġinsets":2838,"Ġencry":2839,"Ġgrant":2840,"Ġconfigs":2841,"Ġfree":2842,"alect":2843,"Ġwrapped":2844,"Ġtc":2845,"Ġthere":2846,"ates":2847,"ins":2848,"Ġsig":2849,"strix":2850,"Ġhystrix":2851,"Ġfixture":2852,"Ġlauncher":2853,"Ġlow":2854,"Ġoffer":2855,"Ġbug":2856,"Ġvs":2857,"Ġmgr":2858,"Ġsubmit":2859,"Ġgetter":2860,"ts":2861,"Ġreflection":2862,"Ġparsing":2863,"Ġcandid":2864,"Ġesca":2865,"Ġemploy":2866,"Ġrestore":2867,"Ġdump":2868,"Ġjed":2869,"Ġtransfer":2870,"Ġcls":2871,"Ġouter":2872,"Ġhad":2873,"ontal":2874,"Ġblocks":2875,"Ġoutputs":2876,"Ġjdk":2877,"Ġgdx":2878,"Ġsuggestion":2879,"Ġhorizontal":2880,"10":2881,"Ġopcode":2882,"Ġupdater":2883,"off":2884,"Ġawa":2885,"Ġcip":2886,"Ġdon":2887,"lab":2888,"Ġbodies":2889,"Ġparts":2890,"Ġshader":2891,"bound":2892,"Ġdes":2893,"Ġfollow":2894,"Ġserializable":2895,"Ġrecur":2896,"cache":2897,"Ġviews":2898,"Ġhandlers":2899,"Ġspac":2900,"Ġreporter":2901,"cause":2902,"Ġpersistence":2903,"Ġexterns":2904,"constants":2905,"Ġbecause":2906,"ributed":2907,"Ġnormaliz":2908,"Ġawait":2909,"ality":2910,"Ġprefs":2911,"Ġwarnings":2912,"Ġdirection":2913,"Ġreq":2914,"Ġseq":2915,"Ġsoft":2916,"Ġprofil":2917,"mant":2918,"Ġdelta":2919,"Ġbuff":2920,"Ġnan":2921,"Ġlega":2922,"Ġops":2923,"ntax":2924,"Ġring":2925,"Ġlegacy":2926,"Ġassertion":2927,"Ġsemant":2928,"Ġrepresentation":2929,"Ġpojo":2930,"Ġgone":2931,"Ġjm":2932,"Ġsuppress":2933,"Ġgesture":2934,"Ġextensions":2935,"Ġencode":2936,"unit":2937,"Ġartist":2938,"Ġmaybe":2939,"Ġbaz":2940,"Ġjedis":2941,"Ġmag":2942,"Ġdatas":2943,"uby":2944,"Ġcoords":2945,"aa":2946,"Ġmime":2947,"cessor":2948,"Ġsur":2949,"Ġadv":2950,"Ġcapt":2951,"Ġbuck":2952,"Ġspacing":2953,"Ġstrict":2954,"Ġqualified":2955,"array":2956,"Ġdirector":2957,"Ġjdbcutils":2958,"Ġcircle":2959,"Ġyou":2960,"Ġhs":2961,"oper":2962,"Ġrouter":2963,"gb":2964,"Ġwater":2965,"Ġfre":2966,"aging":2967,"Ġtom":2968,"Ġrank":2969,"Ġserialized":2970,"Ġtxn":2971,"fix":2972,"Ġcipher":2973,"Ġmatchers":2974,"Ġprice":2975,"ng":2976,"Ġmodification":2977,"anges":2978,"Ġnaming":2979,"Ġwatch":2980,"Ġcanon":2981,"Ġexisting":2982,"Ġservers":2983,"88":2984,"Ġprogram":2985,"Ġsky":2986,"ony":2987,"Ġprojection":2988,"Ġgradle":2989,"Ġsim":2990,"Ġkeeper":2991,"ability":2992,"Ġcirc":2993,"Ġanch":2994,"Ġeas":2995,"ives":2996,"Ġrevision":2997,"Ġstartup":2998,"Ġallocator":2999,"context":3000,"system":3001,"Ġanchor":3002,"stream":3003,"Ġdigest":3004,"pr":3005,"Ġctxt":3006,"Ġexceptions":3007,"cedure":3008,"ulate":3009,"Ġinfos":3010,"Ġtoast":3011,"Ġintegerfield":3012,"Ġdialect":3013,"Ġroots":3014,"verage":3015,"Ġdirs":3016,"Ġiso":3017,"flow":3018,"lain":3019,"state":3020,"Ġqualifier":3021,"tain":3022,"ird":3023,"Ġce":3024,"Ġevaluator":3025,"Ġdirectories":3026,"Ġhadoop":3027,"Ġdefined":3028,"Ġdifferent":3029,"Ġsce":3030,"Ġhttps":3031,"Ġzoom":3032,"Ġsparse":3033,"Ġtd":3034,"Ġjni":3035,"ulator":3036,"Ġsys":3037,"Ġrepeat":3038,"Ġadj":3039,"Ġthree":3040,"Ġjunit":3041,"Ġremain":3042,"Ġproviders":3043,"Ġlive":3044,"Ġjax":3045,"Ġprocedure":3046,"Ġroll":3047,"card":3048,"Ġdead":3049,"Ġretri":3050,"visor":3051,"ware":3052,"ror":3053,"Ġcoder":3054,"Ġcombin":3055,"20":3056,"Ġdeter":3057,"Ġaddr":3058,"Ġmodified":3059,"Ġaccessible":3060,"Ġrgb":3061,"amb":3062,"Ġstreams":3063,"Ġcc":3064,"component":3065,"Ġdocuments":3066,"ific":3067,"Ġps":3068,"Ġdistributed":3069,"Ġcontaining":3070,"Ġreceive":3071,"Ġregular":3072,"Ġaccepts":3073,"Ġdomtest":3074,"Ġ17":3075,"Ġnb":3076,"Ġinvok":3077,"lability":3078,"Ġcalls":3079,"Ġour":3080,"tt":3081,"Ġclosure":3082,"label":3083,"Ġpresentation":3084,"Ġ40":3085,"Ġ01":3086,"Ġemployee":3087,"Ġfeatures":3088,"Ġmarshaller":3089,"Ġincor":3090,"net":3091,"Ġgain":3092,"Ġrob":3093,"Ġauthority":3094,"uit":3095,"table":3096,"Ġcomments":3097,"null":3098,"Ġblack":3099,"Ġslow":3100,"Ġcfg":3101,"Ġbeen":3102,"Ġserial":3103,"Ġdefine":3104,"Ġmaps":3105,"Ġrename":3106,"oded":3107,"Ġsqlexception":3108,"Ġblue":3109,"Ġinterpolator":3110,"Ġasc":3111,"Ġhbm":3112,"Ġrights":3113,"lip":3114,"Ġaggregate":3115,"Ġduplic":3116,"Ġsets":3117,"arge":3118,"Ġupgr":3119,"Ġwar":3120,"Ġunmod":3121,"Ġhex":3122,"Ġbul":3123,"Ġruby":3124,"oun":3125,"Ġrestart":3126,"Ġmultimap":3127,"Ġarr":3128,"Ġincorrect":3129,"Ġadditional":3130,"Ġdot":3131,"Ġconfigured":3132,"Ġwatcher":3133,"Ġnl":3134,"Ġslic":3135,"Ġwr":3136,"Ġredirect":3137,"Ġstorm":3138,"defin":3139,"Ġcould":3140,"Ġparallel":3141,"Ġcost":3142,"Ġflavor":3143,"Ġshare":3144,"Ġdepth":3145,"Ġutility":3146,"Ġdur":3147,"Ġpoly":3148,"Ġmarg":3149,"Ġsong":3150,"Ġresolved":3151,"vider":3152,"Ġiterations":3153,"ited":3154,"Ġdock":3155,"Ġversions":3156,"Ġunion":3157,"Ġmapped":3158,"Ġredis":3159,"xf":3160,"aries":3161,"bit":3162,"Ġassume":3163,"Ġrefactor":3164,"Ġsuspend":3165,"Ġcollis":3166,"Ġnls":3167,"ready":3168,"Ġstates":3169,"Ġjavax":3170,"Ġquote":3171,"Ġappender":3172,"Ġbc":3173,"Ġunt":3174,"Ġcandidate":3175,"Ġwindows":3176,"Ġson":3177,"data":3178,"90":3179,"Ġsubst":3180,"Ġcaching":3181,"Ġaud":3182,"Ġspeed":3183,"Ġie":3184,"Ġdistribution":3185,"Ġalready":3186,"Ġlogs":3187,"Ġ1234":3188,"00000":3189,"Ġfilesystem":3190,"lide":3191,"Ġroles":3192,"Ġweak":3193,"Ġsuch":3194,"Ġrb":3195,"Ġhistog":3196,"Ġtrade":3197,"nium":3198,"Ġaspect":3199,"Ġreturns":3200,"Ġpoll":3201,"Ġselenium":3202,"view":3203,"Ġretrie":3204,"Ġbindings":3205,"Ġoauth":3206,"pected":3207,"Ġkv":3208,"Ġlocator":3209,"Ġhosts":3210,"medi":3211,"ason":3212,"Ġinvalidate":3213,"Ġhide":3214,"Ġdiagnostic":3215,"Ġmb":3216,"Ġaudit":3217,"Ġremaining":3218,"Ġdefs":3219,"Ġreload":3220,"Ġleaf":3221,"Ġet":3222,"istic":3223,"buf":3224,"Ġcanonical":3225,"Ġ21":3226,"Ġdelegation":3227,"Ġdispose":3228,"Ġgui":3229,"Ġcollision":3230,"Ġsetter":3231,"Ġtemplates":3232,"Ġunmodifiable":3233,"Ġclip":3234,"thon":3235,"Ġdatan":3236,"Ġblank":3237,"Ġglide":3238,"Ġmagic":3239,"ather":3240,"Ġstrip":3241,"Ġproble":3242,"Ġmq":3243,"Ġtomcat":3244,"Ġweek":3245,"Ġnothing":3246,"Ġbalance":3247,"Ġquality":3248,"Ġmigration":3249,"Ġreco":3250,"Ġnm":3251,"Ġnonnull":3252,"Ġfacade":3253,"Ġdeleted":3254,"Ġseries":3255,"Ġuiutil":3256,"Ġlamb":3257,"Ġaliase":3258,"ural":3259,"Ġ18":3260,"loader":3261,"Ġ24":3262,"Ġinstantiator":3263,"Ġhistogram":3264,"Ġlater":3265,"holder":3266,"Ġlarge":3267,"Ġprocessors":3268,"Ġpython":3269,"Ġbroadcast":3270,"Ġjav":3271,"Ġspecification":3272,"afe":3273,"Ġtranslator":3274,"Ġvsync":3275,"Ġmix":3276,"Ġcapture":3277,"Ġthird":3278,"les":3279,"igned":3280,"Ġplaceholder":3281,"Ġinstantiate":3282,"keeper":3283,"Ġqname":3284,"Ġinitialized":3285,"Ġexact":3286,"izard":3287,"Ġexclude":3288,"Ġsiz":3289,"Ġavailability":3290,"Ġequalizer":3291,"Ġhconstants":3292,"ges":3293,"Ġstick":3294,"Ġresolution":3295,"roy":3296,"Ġrefactoring":3297,"ggle":3298,"Ġreplica":3299,"url":3300,"par":3301,"Ġdestroy":3302,"fo":3303,"Ġescape":3304,"Ġsecs":3305,"Ġinteraction":3306,"Ġinstrumentation":3307,"Ġclause":3308,"Ġbi":3309,"Ġotype":3310,"Ġhier":3311,"Ġdatanode":3312,"ider":3313,"Ġudf":3314,"key":3315,"cing":3316,"ds":3317,"Ġentities":3318,"Ġbuilt":3319,"style":3320,"Ġjcomponent":3321,"Ġwrong":3322,"Ġlambda":3323,"Ġsizes":3324,"Ġzookeeper":3325,"defined":3326,"cks":3327,"vileg":3328,"Ġchecking":3329,"Ġeditable":3330,"Ġprofiler":3331,"Ġnumer":3332,"Ġhierarch":3333,"Ġprivileg":3334,"Ġmm":3335,"Ġface":3336,"Ġconversion":3337,"Ġobtain":3338,"Ġdim":3339,"Ġeq":3340,"Ġbacking":3341,"Ġbuffers":3342,"Ġreferences":3343,"Ġgb":3344,"Ġthrough":3345,"less":3346,"Ġpositive":3347,"Ġplain":3348,"here":3349,"Ġdays":3350,"Ġcols":3351,"iddle":3352,"book":3353,"Ġdid":3354,"Ġmus":3355,"come":3356,"Ġremoved":3357,"Ġdiction":3358,"Ġalarm":3359,"sheet":3360,"Ġna":3361,"Ġgeneral":3362,"Ġdns":3363,"Ġrew":3364,"Ġwatermark":3365,"dd":3366,"Ġcopro":3367,"Ġeviction":3368,"rpc":3369,"Ġconsume":3370,"Ġpp":3371,"Ġjms":3372,"force":3373,"inal":3374,"Ġsaml":3375,"Ġprojects":3376,"Ġfooter":3377,"Ġvarchar":3378,"Ġsentence":3379,"Ġfunc":3380,"Ġdefinitions":3381,"Ġconditions":3382,"Ġtoggle":3383,"Ġmiddle":3384,"ac":3385,"Ġupgrade":3386,"Ġexplicit":3387,"Ġsupervisor":3388,"Ġextended":3389,"Ġmany":3390,"content":3391,"Ġsol":3392,"Ġundo":3393,"Ġprom":3394,"group":3395,"Ġty":3396,"Ġreason":3397,"Ġprinter":3398,"Ġmir":3399,"Ġcomput":3400,"Ġcustomer":3401,"Ġparsed":3402,"Ġdigit":3403,"ached":3404,"Ġir":3405,"Ġease":3406,"Ġspark":3407,"Ġinjection":3408,"Ġcoprocessor":3409,"Ġnotifications":3410,"ivate":3411,"Ġunsafe":3412,"Ġoverlay":3413,"Ġcompress":3414,"Ġrotation":3415,"Ġsmart":3416,"Ġkern":3417,"Ġabout":3418,"Ġcleanup":3419,"Ġspecific":3420,"Ġtile":3421,"Ġmargin":3422,"Ġwizard":3423,"Ġalive":3424,"Ġrat":3425,"Ġepo":3426,"Ġhidden":3427,"Ġvertices":3428,"Ġpic":3429,"Ġbulk":3430,"Ġneeded":3431,"Ġapproval":3432,"Ġboth":3433,"Ġreb":3434,"Ġaliases":3435,"Ġcvs":3436,"Ġacqui":3437,"Ġphone":3438,"Ġsure":3439,"Ġdispatch":3440,"Ġuris":3441,"Ġ80":3442,"Ġattachment":3443,"Ġsyntax":3444,"Ġnumbers":3445,"Ġord":3446,"Ġinitialization":3447,"utor":3448,"yy":3449,"Ġagain":3450,"Ġworkers":3451,"Ġedges":3452,"Ġslice":3453,"Ġbuckets":3454,"active":3455,"Ġsubclass":3456,"Ġ23":3457,"Ġpersister":3458,"Ġsubsystem":3459,"Ġtempor":3460,"Ġsee":3461,"Ġjet":3462,"Ġpreload":3463,"Ġprun":3464,"Ġpause":3465,"ba":3466,"Ġcurator":3467,"Ġoccur":3468,"Ġamb":3469,"Ġtlrpc":3470,"Ġxpath":3471,"Ġjavac":3472,"Ġlatest":3473,"Ġconnected":3474,"ting":3475,"Ġsynchronizer":3476,"Ġunex":3477,"Ġmusic":3478,"Ġmatching":3479,"Ġmut":3480,"tip":3481,"Ġconstruct":3482,"Ġtooltip":3483,"sql":3484,"Ġintr":3485,"mend":3486,"Ġjobs":3487,"ass":3488,"Ġbson":3489,"Ġspecified":3490,"Ġnotifier":3491,"Ġsemantic":3492,"java":3493,"Ġmk":3494,"Ġpercentage":3495,"connection":3496,"Ġuncheck":3497,"Ġdtm":3498,"Ġworking":3499,"pted":3500,"now":3501,"Ġsubstit":3502,"Ġcontainers":3503,"Ġhasher":3504,"Ġframes":3505,"Ġbp":3506,"Ġuntil":3507,"Ġpackages":3508,"Ġrecent":3509,"Ġassociation":3510,"Ġcountry":3511,"Ġmvc":3512,"Ġreserved":3513,"config":3514,"Ġdivider":3515,"Ġww":3516,"Ġfold":3517,"Ġunchecked":3518,"Ġverifier":3519,"ii":3520,"Ġinher":3521,"Ġgame":3522,"Ġjbu":3523,"rypt":3524,"Ġtoo":3525,"Ġmirror":3526,"Ġjbui":3527,"Ġdemo":3528,"Ġ033":3529,"Ġmodifiers":3530,"Ġinputs":3531,"nsity":3532,"Ġga":3533,"Ġaggregator":3534,"Ġfx":3535,"Ġasgn":3536,"Ġasgnmt":3537,"Ġprotobuf":3538,"lient":3539,"xxxx":3540,"Ġjsonstring":3541,"Ġcompression":3542,"Ġsuccessful":3543,"22":3544,"Ġaccum":3545,"Ġhits":3546,"Ġlb":3547,"Ġnumeric":3548,"Ġpag":3549,"Ġunexpected":3550,"Ġenclo":3551,"Ġjmx":3552,"Ġends":3553,"Ġdd":3554,"Ġplaying":3555,"cend":3556,"Ġhierarchy":3557,"Ġlooper":3558,"ivity":3559,"Ġresume":3560,"Ġdoublefield":3561,"Ġgradient":3562,"Ġwww":3563,"Ġ000":3564,"Ġkill":3565,"Ġunm":3566,"lus":3567,"Ġfall":3568,"Ġfavor":3569,"Ġcr":3570,"Ġevaluation":3571,"26":3572,"Ġprepared":3573,"Ġorientation":3574,"Ġreverse":3575,"Ġsurface":3576,"Ġcontract":3577,"Ġforwarding":3578,"bus":3579,"server":3580,"Ġpur":3581,"mpp":3582,"Ġdocker":3583,"Ġordered":3584,"heap":3585,"Ġevery":3586,"Ġlet":3587,"Ġfetcher":3588,"Ġoverrid":3589,"Ġtv":3590,"Ġterminal":3591,"Ġinside":3592,"Ġradial":3593,"Ġexpanded":3594,"Ġllap":3595,"Ġstarting":3596,"Ġencryption":3597,"Ġnegative":3598,"app":3599,"Ġrepa":3600,"Ġwallet":3601,"wt":3602,"Ġ44":3603,"Ġconfigurations":3604,"Ġunused":3605,"Ġthem":3606,"Ġnn":3607,"Ġurls":3608,"str":3609,"Ġjme":3610,"Ġgeneration":3611,"Ġinfin":3612,"Ġbs":3613,"ref":3614,"Ġdeserializer":3615,"Ġdomts":3616,"Ġoffsets":3617,"Ġjps":3618,"Ġtint":3619,"ceed":3620,"Ġleader":3621,"Ġjlabel":3622,"Ġtransformation":3623,"Ġdescribe":3624,"Ġwild":3625,"Ġfavorite":3626,"Ġconfir":3627,"miss":3628,"Ġadvance":3629,"Ġquickfix":3630,"Ġslider":3631,"ench":3632,"Ġcod":3633,"rem":3634,"Ġfloatfield":3635,"Ġtre":3636,"Ġphys":3637,"Ġmount":3638,"mediate":3639,"Ġgood":3640,"isc":3641,"Ġtwitter":3642,"Ġcro":3643,"bon":3644,"Ġsr":3645,"Ġdn":3646,"Ġcounts":3647,"Ġordinal":3648,"Ġsometh":3649,"Ġplaylist":3650,"Ġpressed":3651,"Ġcounters":3652,"Ġcompletable":3653,"Ġsomething":3654,"Ġasm":3655,"Ġratio":3656,"Ġshell":3657,"rase":3658,"Ġtcp":3659,"Ġdfsc":3660,"binder":3661,"Ġcomplex":3662,"Ġalignment":3663,"Ġready":3664,"Ġgray":3665,"Ġ500":3666,"Ġwant":3667,"ness":3668,"Ġsubp":3669,"Ġbg":3670,"Ġang":3671,"Ġflink":3672,"Ġquant":3673,"Ġnio":3674,"Ġpages":3675,"Ġspecial":3676,"Ġascii":3677,"55":3678,"Ġmc":3679,"Ġasserts":3680,"Ġposs":3681,"Ġ60":3682,"Ġplus":3683,"Ġattrurl":3684,"Ġspin":3685,"Ġjsp":3686,"Ġdismiss":3687,"Ġactivation":3688,"Ġrtl":3689,"Ġcoin":3690,"Ġaddresses":3691,"Ġcycle":3692,"Ġexecutable":3693,"Ġactivate":3694,"Ġpron":3695,"Ġfri":3696,"Ġest":3697,"Ġenclosing":3698,"Ġpooled":3699,"Ġscalar":3700,"Ġtemporary":3701,"Ġforeground":3702,"74":3703,"16":3704,"fx":3705,"loc":3706,"Ġreadable":3707,"atabase":3708,"Ġtokenizer":3709,"Ġneeds":3710,"Ġrecip":3711,"Ġroom":3712,"76":3713,"Ġpronoun":3714,"Ġjpa":3715,"Ġsphere":3716,"Ġcas":3717,"Ġcompound":3718,"Ġconcurrency":3719,"rawl":3720,"Ġknown":3721,"Ġdictionary":3722,"Ġissues":3723,"Ġdensity":3724,"reg":3725,"Ġlike":3726,"Ġxs":3727,"Ġits":3728,"Ġsever":3729,"Ġconverters":3730,"Ġxcontent":3731,"Ġdimen":3732,"Ġunmarsh":3733,"Ġmocks":3734,"pers":3735,"Ġnd":3736,"Ġsketch":3737,"Ġattempts":3738,"Ġaccessibility":3739,"Ġfreque":3740,"cho":3741,"ire":3742,"Ġkeyboard":3743,"Ġprevent":3744,"Ġscaling":3745,"ling":3746,"Ġretries":3747,"Ġsupports":3748,"Ġprovided":3749,"com":3750,"Ġfacet":3751,"statement":3752,"Ġinjected":3753,"Ġdl":3754,"ving":3755,"lite":3756,"Ġecho":3757,"Ġnlp":3758,"Ġwords":3759,"Ġinflate":3760,"Ġgap":3761,"mous":3762,"ake":3763,"Ġconden":3764,"onymous":3765,"ze":3766,"orum":3767,"Ġrw":3768,"Ġlocations":3769,"Ġinterfaces":3770,"ves":3771,"Ġanonymous":3772,"Ġphrase":3773,"Ġrebal":3774,"Ġquorum":3775,"Ġrecipient":3776,"Ġrev":3777,"Ġduplicate":3778,"Ġcommands":3779,"Ġcollap":3780,"caster":3781,"Ġjaxb":3782,"Ġmysql":3783,"Ġpc":3784,"Ġformats":3785,"Ġattrem":3786,"Ġsubpixel":3787,"Ġattrempty":3788,"Ġunp":3789,"abilities":3790,"Ġnano":3791,"pack":3792,"Ġtrain":3793,"oj":3794,"Ġvia":3795,"Ġabsent":3796,"Ġindexed":3797,"Ġcondensed":3798,"Ġ48":3799,"Ġdeclaring":3800,"Ġkernel":3801,"Ġbf":3802,"Ġsubtree":3803,"Ġleast":3804,"Ġrich":3805,"Ġeasing":3806,"Ġmultiplier":3807,"Ġcxx":3808,"Ġviol":3809,"98":3810,"Ġcaller":3811,"Ġquer":3812,"Ġprec":3813,"Ġemoj":3814,"Ġexpl":3815,"Ġclicked":3816,"Ġicons":3817,"Ġsynchronization":3818,"Ġroboto":3819,"Ġbroadcaster":3820,"Ġbeans":3821,"Ġxmpp":3822,"Ġbookmark":3823,"Ġcolo":3824,"Ġfront":3825,"Ġrecycle":3826,"adoc":3827,"Ġdiv":3828,"Ġevaluate":3829,"Ġiteration":3830,"Ġlru":3831,"Ġsymbols":3832,"Ġclz":3833,"Ġtip":3834,"Ġdetect":3835,"Ġcn":3836,"Ġprovision":3837,"Ġxy":3838,"Ġscrub":3839,"Ġdelegating":3840,"Ġbrowse":3841,"Ġdelimit":3842,"Ġupdates":3843,"Ġbill":3844,"Ġconfirm":3845,"18":3846,"Ġconstructors":3847,"upcast":3848,"Ġswigupcast":3849,"xff":3850,"Ġbuilders":3851,"Ġdc":3852,"ied":3853,"Ġassertions":3854,"Ġpartial":3855,"Ġvariant":3856,"Ġ255":3857,"sens":3858,"compat":3859,"Ġstamp":3860,"Ġinste":3861,"Ġdeep":3862,"15":3863,"Ġhap":3864,"ric":3865,"Ġbb":3866,"Ġinsn":3867,"Ġguice":3868,"Ġterms":3869,"ldem":3870,"Ġdescribed":3871,"omp":3872,"Ġjavadoc":3873,"Ġled":3874,"Ġbuttons":3875,"Ġtracking":3876,"Ġann":3877,"ool":3878,"Ġship":3879,"Ġvertx":3880,"14":3881,"bine":3882,"Ġlinks":3883,"rate":3884,"Ġhg":3885,"Ġscratch":3886,"Ġcoll":3887,"Ġundert":3888,"Ġcircuit":3889,"gers":3890,"hs":3891,"Ġmodify":3892,"Ġgenerics":3893,"Ġundertow":3894,"oid":3895,"Ġcrypt":3896,"Ġpopulate":3897,"Ġlat":3898,"Ġfork":3899,"Ġscene":3900,"Ġgate":3901,"Ġkeymod":3902,"Ġgram":3903,"Ġdash":3904,"Ġshuff":3905,"Ġcapabilities":3906,"Ġintrod":3907,"Ġproblem":3908,"Ġdecision":3909,"Ġincompat":3910,"Ġduring":3911,"Ġintros":3912,"rome":3913,"5678":3914,"Ġmesh":3915,"time":3916,"Ġsessions":3917,"Ġrefer":3918,"Ġoptimize":3919,"Ġmaker":3920,"Ġgot":3921,"Ġguard":3922,"ctions":3923,"Ġstatements":3924,"Ġexpressions":3925,"Ġintercept":3926,"Ġincompatible":3927,"uge":3928,"Ġ33":3929,"Ġobserve":3930,"vation":3931,"Ġbye":3932,"olved":3933,"Ġwhat":3934,"ocument":3935,"Ġconfigurator":3936,"Ġangel":3937,"Ġfallback":3938,"allow":3939,"ism":3940,"13":3941,"Ġsignal":3942,"otype":3943,"ja":3944,"Ġeg":3945,"Ġconcat":3946,"chain":3947,"Ġassignable":3948,"case":3949,"Ġsax":3950,"Ġeven":3951,"Ġreducer":3952,"Ġslo":3953,"Ġdisposer":3954,"Ġderived":3955,"Ġpick":3956,"Ġwhitespace":3957,"Ġcalculate":3958,"link":3959,"Ġfriend":3960,"Ġden":3961,"Ġregions":3962,"Ġtiming":3963,"Ġjst":3964,"Ġfrequency":3965,"Ġmean":3966,"Ġll":3967,"Ġlp":3968,"Ġcombine":3969,"Ġcsv":3970,"Ġls":3971,"Ġannotate":3972,"Ġpartic":3973,"Ġcomparable":3974,"Ġrecurs":3975,"Ġios":3976,"Ġcombined":3977,"idge":3978,"Ġnor":3979,"process":3980,"Ġinteractions":3981,"Ġ02":3982,"Ġreject":3983,"Ġemitter":3984,"Ġdoesn":3985,"66":3986,"Ġnfa":3987,"Ġsonar":3988,"Ġagg":3989,"mas":3990,"Ġcredential":3991,"alled":3992,"Ġcompatibility":3993,"Ġrc":3994,"Ġfq":3995,"Ġbob":3996,"cre":3997,"Ġimg":3998,"mn":3999,"Ġaverage":4000,"Ġsqlstatement":4001,"Ġshuffle":4002,"Ġarbit":4003,"Ġsound":4004,"Ġpkg":4005,"Ġspinner":4006,"Ġprofiles":4007,"92":4008,"Ġvel":4009,"iti":4010,"Ġrecovery":4011,"rence":4012,"Ġchannels":4013,"Ġjint":4014,"Ġauthenticator":4015,"Ġacquire":4016,"Ġored":4017,"ocity":4018,"Ġttl":4019,"Ġprototype":4020,"Ġmerged":4021,"Ġeffects":4022,"base":4023,"Ġpid":4024,"Ġonce":4025,"angle":4026,"Ġexpir":4027,"sensitive":4028,"Ġstyled":4029,"Ġ64":4030,"Ġprecision":4031,"Ġmkdir":4032,"by":4033,"Ġ128":4034,"Ġhandsh":4035,"Ġcnt":4036,"Ġlocaliz":4037,"Ġvelocity":4038,"Ġvoldem":4039,"Ġvoldemort":4040,"Ġavoid":4041,"build":4042,"Ġticket":4043,"wise":4044,"Ġartifacts":4045,"Ġfocused":4046,"Ġconsist":4047,"Ġoffline":4048,"Ġassist":4049,"Ġchecksum":4050,"Ġsip":4051,"ooth":4052,"Ġemoji":4053,"Ġpostgre":4054,"Ġbehaviour":4055,"ruid":4056,"lipse":4057,"Ġdruid":4058,"lying":4059,"Ġmob":4060,"Ġlatency":4061,"Ġreplacement":4062,"Ġscrubber":4063,"Ġcorre":4064,"Ġemit":4065,"ison":4066,"Ġactiviti":4067,"Ġthing":4068,"Ġenumer":4069,"Ġchrome":4070,"Ġless":4071,"search":4072,"Ġinstead":4073,"Ġfavorites":4074,"Ġclassifier":4075,"Ġspaces":4076,"Ġamend":4077,"Ġwildcard":4078,"Ġunsigned":4079,"Ġtimesheet":4080,"Ġparameterized":4081,"Ġordering":4082,"Ġimmediate":4083,"Ġradio":4084,"Ġhandled":4085,"boss":4086,"erlock":4087,"Ġindx":4088,"iny":4089,"Ġear":4090,"Ġdark":4091,"icon":4092,"Ġjboss":4093,"Ġexcluded":4094,"Ġconfigurer":4095,"Ġgrouping":4096,"Ġuim":4097,"Ġoi":4098,"cessary":4099,"Ġgp":4100,"Ġboundary":4101,"70":4102,"ux":4103,"metry":4104,"Ġsqu":4105,"Ġscaled":4106,"Ġdataset":4107,"Ġgson":4108,"Ġresize":4109,"Ġsherlock":4110,"Ġic":4111,"Ġdetermin":4112,"Ġfun":4113,"Ġunderlying":4114,"711":4115,"Ġdistin":4116,"Ġtrunc":4117,"Ġpossible":4118,"Ġwarm":4119,"Ġoptimization":4120,"Ġrede":4121,"Ġjack":4122,"Ġfact":4123,"Ġtls":4124,"isode":4125,"Ġepisode":4126,"Ġarticle":4127,"Ġquest":4128,"Ġwave":4129,"Ġcho":4130,"Ġcarbon":4131,"Ġexactly":4132,"83":4133,"Ġmustang":4134,"Ġrealms":4135,"Ġexchanges":4136,"Ġbri":4137,"Ġvisitors":4138,"Ġperformance":4139,"Ġsta":4140,"Ġhover":4141,"Ġestim":4142,"Ġrepositories":4143,"Ġannotator":4144,"lux":4145,"Ġautom":4146,"Ġyet":4147,"Ġimplements":4148,"Ġud":4149,"ptime":4150,"Ġdog":4151,"Ġhard":4152,"Ġdistinct":4153,"ks":4154,"Ġljava":4155,"Ġnin":4156,"Ġtransactional":4157,"Ġiv":4158,"Ġdev":4159,"Ġripp":4160,"Ġcorrectly":4161,"Ġcompli":4162,"Ġconfli":4163,"Ġcompatible":4164,"buffer":4165,"Ġmr":4166,"Ġhistor":4167,"Ġconflict":4168,"Ġtrail":4169,"Ġtick":4170,"urnal":4171,"ught":4172,"ident":4173,"side":4174,"Ġcrop":4175,"Ġindexes":4176,"Ġfully":4177,"Ġblockform":4178,"lation":4179,"Ġabort":4180,"Ġsharding":4181,"Ġnulls":4182,"eel":4183,"user":4184,"inst":4185,"Ġavg":4186,"Ġusages":4187,"Ġtiny":4188,"Ġlogical":4189,"Ġopcodes":4190,"imbus":4191,"chema":4192,"pection":4193,"race":4194,"Ġ127":4195,"Ġadjust":4196,"Ġrebuild":4197,"85":4198,"roll":4199,"tention":4200,"ithub":4201,"Ġextras":4202,"Ġreflect":4203,"Ġappear":4204,"Ġstreaming":4205,"Ġjournal":4206,"Ġwheel":4207,"Ġodatabase":4208,"Ġgithub":4209,"Ġeditors":4210,"Ġcompact":4211,"Ġchoose":4212,"ele":4213,"Ġdue":4214,"value":4215,"Ġinstantiated":4216,"Ġsas":4217,"head":4218,"Ġdelimiter":4219,"ail":4220,"Ġiniti":4221,"Ġsliding":4222,"Ġapple":4223,"Ġindexer":4224,"Ġff":4225,"Ġintroduce":4226,"Ġfailures":4227,"75":4228,"iness":4229,"86":4230,"Ġthese":4231,"Ġmodels":4232,"Ġattached":4233,"Ġpm":4234,"Ġbel":4235,"Ġdecoded":4236,"Ġren":4237,"Ġcalculator":4238,"Ġalso":4239,"Ġping":4240,"Ġaccounts":4241,"00000000":4242,"Ġtopics":4243,"Ġbacked":4244,"Ġundefined":4245,"Ġredeli":4246,"ef":4247,"Ġheli":4248,"Ġledger":4249,"Ġfails":4250,"Ġment":4251,"lette":4252,"service":4253,"Ġimporter":4254,"Ġphysical":4255,"Ġentitle":4256,"Ġcolored":4257,"Ġstaff":4258,"Ġ52":4259,"Ġjid":4260,"Ġpret":4261,"wave":4262,"alone":4263,"Ġpalette":4264,"Ġbuilding":4265,"Ġinbound":4266,"rs":4267,"Ġrecorder":4268,"Ġspecs":4269,"Ġcrypto":4270,"Ġminutes":4271,"Ġstandalone":4272,"Ġexporter":4273,"Ġprocessed":4274,"Ġbench":4275,"Ġpinn":4276,"Ġninja":4277,"Ġtex":4278,"Ġpng":4279,"Ġreactive":4280,"Ġinstantiation":4281,"Ġranges":4282,"Ġgreater":4283,"Ġble":4284,"Ġsamp":4285,"Ġuptime":4286,"Ġrelated":4287,"print":4288,"ari":4289,"Ġluce":4290,"Ġlucene":4291,"Ġquoted":4292,"Ġbridge":4293,"raction":4294,"Ġtap":4295,"Ġprimitives":4296,"Ġjtext":4297,"ancing":4298,"Ġfed":4299,"Ġrollback":4300,"Ġmt":4301,"Ġinsensitive":4302,"Ġwifi":4303,"Ġdeclarations":4304,"Ġblur":4305,"Ġslash":4306,"Ġvectors":4307,"colle":4308,"Ġlead":4309,"Ġtsdb":4310,"utton":4311,"ttle":4312,"orer":4313,"Ġjetty":4314,"Ġdelivery":4315,"Ġwall":4316,"Ġnimbus":4317,"utter":4318,"Ġstateful":4319,"Ġiq":4320,"Ġepoch":4321,"Ġapk":4322,"Ġspecify":4323,"Ġrenderers":4324,"Ġblog":4325,"Ġdirty":4326,"Ġbreaker":4327,"mine":4328,"Ġdeserialize":4329,"onfig":4330,"Ġcomparison":4331,"Ġexpiration":4332,"509":4333,"inger":4334,"Ġhandshake":4335,"Ġcd":4336,"Ġfat":4337,"Ġtoolchain":4338,"Ġenglish":4339,"wd":4340,"Ġmost":4341,"Ġreplay":4342,"Ġswing":4343,"Ġparms":4344,"Ġelasticsearch":4345,"lied":4346,"Ġcategor":4347,"Ġhistoric":4348,"Ġcases":4349,"Ġtargets":4350,"Ġnorth":4351,"Ġfm":4352,"Ġnonce":4353,"Ġbounded":4354,"Ġnormalize":4355,"Ġaux":4356,"Ġrewrite":4357,"Ġimages":4358,"Ġwake":4359,"Ġdependent":4360,"Ġstored":4361,"Ġari":4362,"Ġexponent":4363,"Ġarrow":4364,"mand":4365,"Ġdelayed":4366,"Ġkeyed":4367,"Ġverbo":4368,"Ġunable":4369,"crete":4370,"Ġquestion":4371,"ife":4372,"Ġawt":4373,"Ġjackson":4374,"Ġpinned":4375,"Ġmultibinder":4376,"Ġwrappers":4377,"Ġconnectivity":4378,"Ġentitlement":4379,"Ġspi":4380,"sters":4381,"Ġincludes":4382,"over":4383,"Ġinvoker":4384,"Ġticker":4385,"Ġretention":4386,"Ġcreating":4387,"Ġks":4388,"Ġsasl":4389,"Ġprox":4390,"Ġobjc":4391,"Ġvc":4392,"Ġbold":4393,"Ġunits":4394,"ely":4395,"Ġretain":4396,"Ġsun":4397,"Ġimported":4398,"84":4399,"Ġimplicit":4400,"Ġgramm":4401,"Ġcontrols":4402,"ipa":4403,"Ġthey":4404,"Ġverification":4405,"hore":4406,"Ġmanual":4407,"Ġdetermine":4408,"ipant":4409,"maphore":4410,"Ġbytecode":4411,"Ġnp":4412,"Ġreplicas":4413,"Ġcomputation":4414,"Ġequiv":4415,"rans":4416,"Ġpolicies":4417,"Ġtbl":4418,"Ġhot":4419,"Ġsampler":4420,"mos":4421,"Ġ2000":4422,"nife":4423,"lect":4424,"Ġfly":4425,"Ġsemaphore":4426,"Ġsubtitle":4427,"Ġconversation":4428,"Ġwaiting":4429,"Ġcurve":4430,"Ġguava":4431,"Ġacls":4432,"Ġpreset":4433,"ones":4434,"Ġparticipant":4435,"Ġpretty":4436,"Ġmkdirs":4437,"Ġslide":4438,"Ġapps":4439,"Ġproduce":4440,"Ġrequires":4441,"atter":4442,"Ġbpmn":4443,"rant":4444,"Ġscm":4445,"phere":4446,"Ġpermit":4447,"Ġbtc":4448,"Ġsales":4449,"Ġpartitioner":4450,"Ġediting":4451,"000000":4452,"Ġeclipse":4453,"cending":4454,"ace":4455,"Ġwritten":4456,"Ġdfa":4457,"Ġtm":4458,"Ġjmeter":4459,"Ġdesign":4460,"lib":4461,"Ġgrails":4462,"Ġ99":4463,"hip":4464,"Ġcomputed":4465,"Ġ26":4466,"Ġjer":4467,"Ġstill":4468,"Ġpix":4469,"Ġroutes":4470,"Ġsie":4471,"Ġfatal":4472,"Ġviewport":4473,"Ġbadge":4474,"Ġexclus":4475,"gi":4476,"Ġcoverage":4477,"Ġmeasured":4478,"client":4479,"Ġexpired":4480,"Ġpom":4481,"Ġcallbacks":4482,"Ġcancelled":4483,"Ġatmos":4484,"verse":4485,"Ġbest":4486,"Ġbenchmark":4487,"Ġpronouns":4488,"Ġnear":4489,"Ġcross":4490,"go":4491,"Ġmp":4492,"round":4493,"stor":4494,"Ġindarray":4495,"Ġnamenode":4496,"96":4497,"anned":4498,"scroll":4499,"Ġ56":4500,"Ġenvel":4501,"Ġcanceled":4502,"Ġrestri":4503,"Ġcoding":4504,"Ġgeometry":4505,"Ġregistr":4506,"Ġ34":4507,"Ġintention":4508,"agram":4509,"Ġskyframe":4510,"Ġshr":4511,"Ġremoval":4512,"Ġenh":4513,"Ġ256":4514,"Ġsqlutils":4515,"Ġmarket":4516,"Ġbitco":4517,"Ġconvent":4518,"Ġassets":4519,"Ġsingular":4520,"debug":4521,"pec":4522,"Ġadaptive":4523,"Ġves":4524,"Ġnecessary":4525,"Ġsensor":4526,"Ġtruncate":4527,"Ġpi":4528,"Ġtransactions":4529,"Ġqueries":4530,"Ġ10000":4531,"Ġimplementor":4532,"Ġcleaner":4533,"Ġcaption":4534,"Ġunw":4535,"Ġhc":4536,"rupt":4537,"Ġacdm":4538,"Ġfling":4539,"Ġgutter":4540,"Ġtransient":4541,"Ġinteg":4542,"Ġsepar":4543,"9999":4544,"ialize":4545,"Ġxx":4546,"Ġstatistic":4547,"Ġendian":4548,"aly":4549,"Ġdisallow":4550,"oting":4551,"nable":4552,"Ġswap":4553,"Ġxxx":4554,"manager":4555,"Ġmultic":4556,"etype":4557,"Ġcookies":4558,"Ġcommitted":4559,"73":4560,"Ġgt":4561,"Ġway":4562,"Ġaz":4563,"Ġanom":4564,"Ġsprite":4565,"sey":4566,"collection":4567,"Ġfacebook":4568,"Ġblocked":4569,"Ġremoting":4570,"Ġpx":4571,"Ġreplicated":4572,"Ġworks":4573,"Ġkerber":4574,"Ġclu":4575,"Ġwel":4576,"Ġ36":4577,"1234":4578,"Ġinherit":4579,"Ġstuff":4580,"Ġyyy":4581,"Ġpiv":4582,"etic":4583,"Ġbid":4584,"Ġtracer":4585,"Ġkerberos":4586,"Ġfoobar":4587,"Ġequivale":4588,"Ġexe":4589,"Ġbutter":4590,"Ġvespa":4591,"raries":4592,"Ġeffective":4593,"Ġcalculation":4594,"Ġcheckstyle":4595,"ui":4596,"Ġinstalled":4597,"ffic":4598,"Ġarbitrary":4599,"Ġserde":4600,"Ġstopped":4601,"Ġblacklist":4602,"Ġbilling":4603,"Ġexpire":4604,"Ġjersey":4605,"Ġlt":4606,"Ġatmosphere":4607,"Ġscopes":4608,"ester":4609,"Ġee":4610,"Ġpeek":4611,"Ġaa":4612,"Ġdecoration":4613,"Ġtravers":4614,"Ġdfsconfig":4615,"aser":4616,"ario":4617,"Ġaltern":4618,"Ġfle":4619,"Ġgz":4620,"Ġcid":4621,"Ġprov":4622,"Ġtermination":4623,"Ġhandles":4624,"Ġpivot":4625,"ube":4626,"Ġrecursive":4627,"hn":4628,"Ġfiltered":4629,"Ġsocks":4630,"Ġshrink":4631,"Ġmixin":4632,"Ġseverity":4633,"Ġwc":4634,"Ġwest":4635,"Ġclusters":4636,"Ġsqlite":4637,"Ġanalyzed":4638,"Ġlibraries":4639,"Ġoutbound":4640,"Ġwelcome":4641,"Ġeure":4642,"Ġeureka":4643,"Ġschemas":4644,"Ġdescriptors":4645,"geon":4646,"Ġnump":4647,"Ġfutures":4648,"Ġurn":4649,"Ġmultipart":4650,"lt":4651,"Ġcompliance":4652,"130":4653,"day":4654,"Ġpast":4655,"Ġhfile":4656,"Ġresponses":4657,"05":4658,"Ġcorner":4659,"Ġpromise":4660,"Ġtexts":4661,"doc":4662,"Ġcompan":4663,"Ġscen":4664,"ssand":4665,"Ġnanos":4666,"94":4667,"ome":4668,"kit":4669,"Ġnoins":4670,"Ġnoinspection":4671,"Ġfragments":4672,"Ġwell":4673,"Ġappearance":4674,"Ġyes":4675,"Ġworkflow":4676,"Ġportable":4677,"Ġsem":4678,"Ġtrip":4679,"Ġintegration":4680,"ili":4681,"ister":4682,"Ġprob":4683,"Ġrefs":4684,"Ġsid":4685,"Ġtail":4686,"query":4687,"Ġbackoff":4688,"Ġplot":4689,"Ġslop":4690,"oming":4691,"Ġripple":4692,"Ġimports":4693,"Ġdisc":4694,"Ġnumpad":4695,"Ġqual":4696,"Ġhappen":4697,"72":4698,"Ġgrammar":4699,"light":4700,"Ġgreen":4701,"Ġjfx":4702,"Ġsquare":4703,"Ġopa":4704,"Ġinsight":4705,"Ġsavepoint":4706,"Ġleak":4707,"Ġspy":4708,"Ġcharacters":4709,"Ġexpandable":4710,"Ġunic":4711,"Ġ45":4712,"Ġmx":4713,"Ġopaque":4714,"Ġincoming":4715,"Ġreward":4716,"Ġloss":4717,"Ġdisposed":4718,"Ġfleet":4719,"px":4720,"Ġscroller":4721,"ave":4722,"Ġletter":4723,"Ġbeam":4724,"Ġsuperclass":4725,"Ġcompressed":4726,"Ġproc":4727,"Ġidentifiers":4728,"Ġsticker":4729,"Ġanomaly":4730,"Ġpt":4731,"Ġalphab":4732,"Ġlease":4733,"Ġcxf":4734,"verted":4735,"Ġflip":4736,"Ġscenario":4737,"Ġmacro":4738,"atic":4739,"Ġbd":4740,"ispan":4741,"args":4742,"Ġinfinispan":4743,"Ġmaj":4744,"Ġsynth":4745,"Ġunset":4746,"Ġhyper":4747,"elements":4748,"Ġsal":4749,"Ġctr":4750,"Ġreent":4751,"Ġkeymap":4752,"tree":4753,"Ġappendable":4754,"ssandra":4755,"Ġcassandra":4756,"Ġautow":4757,"Ġcontexts":4758,"lement":4759,"Ġints":4760,"Ġmic":4761,"Ġdigester":4762,"gable":4763,"Ġbrick":4764,"Ġexamples":4765,"Ġdu":4766,"Ġxdebug":4767,"Ġringbuffer":4768,"Ġcountdown":4769,"Ġrack":4770,"atory":4771,"Ġlite":4772,"mpling":4773,"eda":4774,"Ġrepair":4775,"Ġgs":4776,"Ġmn":4777,"Ġexpires":4778,"Ġreverb":4779,"Ġregisters":4780,"ses":4781,"Ġpositions":4782,"Ġstickers":4783,"Ġenvelope":4784,"Ġmid":4785,"Ġdip":4786,"Ġstam":4787,"Ġpartitioned":4788,"Ġfab":4789,"Ġmeter":4790,"icated":4791,"Ġprime":4792,"999":4793,"Ġfollowing":4794,"Ġverbose":4795,"arant":4796,"binary":4797,"Ġversioned":4798,"Ġreentrant":4799,"Ġrele":4800,"Ġchoice":4801,"ured":4802,"Ġsorter":4803,"Ġeast":4804,"Ġdpad":4805,"Ġjsonarray":4806,"Ġotherwise":4807,"Ġredelivery":4808,"Ġevict":4809,"info":4810,"ceeded":4811,"Ġalter":4812,"Ġ28":4813,"Ġincremental":4814,"Ġlocked":4815,"Ġodocument":4816,"Ġsuspended":4817,"Ġ31":4818,"Ġ2001":4819,"Ġretrieve":4820,"Ġnat":4821,"Ġdetection":4822,"Ġband":4823,"Ġve":4824,"outils":4825,"Ġrotate":4826,"Ġmovi":4827,"Ġsteps":4828,"Ġpet":4829,"Ġavro":4830,"Ġmajor":4831,"Ġoccurrence":4832,"Ġnpe":4833,"aving":4834,"Ġtweet":4835,"Ġknow":4836,"Ġ5000":4837,"Ġ111":4838,"Ġlevels":4839,"Ġincluded":4840,"Ġimap":4841,"Ġkit":4842,"Ġseda":4843,"Ġplayback":4844,"Ġallux":4845,"Ġalluxio":4846,"Ġlogged":4847,"Ġjp":4848,"Ġpars":4849,"44":4850,"Ġalt":4851,"ntial":4852,"Ġdiscover":4853,"lli":4854,"ship":4855,"pede":4856,"Ġports":4857,"Ġopened":4858,"Ġmvp":4859,"Ġstampede":4860,"Ġctrl":4861,"Ġequality":4862,"Ġspider":4863,"Ġrf":4864,"Ġdelet":4865,"Ġauthorizer":4866,"Ġjohn":4867,"Ġoverrides":4868,"Ġnut":4869,"lies":4870,"Ġdisconnect":4871,"Ġzwave":4872,"Ġunre":4873,"Ġsorting":4874,"Ġrid":4875,"Ġetc":4876,"Ġ8080":4877,"Ġsequential":4878,"Ġvp":4879,"Ġqueues":4880,"Ġpd":4881,"Ġcapability":4882,"ove":4883,"Ġhelpers":4884,"Ġtit":4885,"Ġtraversal":4886,"agger":4887,"ributor":4888,"Ġtrie":4889,"Ġcity":4890,"Ġmessaging":4891,"Ġgauge":4892,"320":4893,"Ġfit":4894,"Ġhints":4895,"Ġnoop":4896,"parent":4897,"alize":4898,"Ġcanal":4899,"Ġballo":4900,"Ġhandling":4901,"77":4902,"Ġgoog":4903,"Ġcalling":4904,"Ġssa":4905,"Ġviolation":4906,"Ġmight":4907,"tab":4908,"Ġrectangle":4909,"Ġrelationship":4910,"Ġjan":4911,"800":4912,"mem":4913,"Ġguarant":4914,"ither":4915,"Ġtitan":4916,"Ġproper":4917,"Ġlost":4918,"Ġhelix":4919,"ander":4920,"Ġ300":4921,"ftware":4922,"Ġtyp":4923,"atable":4924,"chan":4925,"Ġchunks":4926,"Ġfocusable":4927,"cript":4928,"Ġfeder":4929,"Ġlogout":4930,"Ġballoon":4931,"Ġjsonexception":4932,"Ġreleased":4933,"las":4934,"Ġtz":4935,"Ġhold":4936,"enger":4937,"Ġvpc":4938,"Ġmarkup":4939,"Ġdescr":4940,"Ġmessenger":4941,"Ġmanagers":4942,"Ġtsd":4943,"Ġdumb":4944,"Ġskinnable":4945,"Ġsnapshots":4946,"95":4947,"ired":4948,"Ġcron":4949,"Ġom":4950,"Ġallocated":4951,"Ġunass":4952,"Ġinstructions":4953,"Ġadvanced":4954,"Ġprivileged":4955,"Ġssh":4956,"Ġarith":4957,"Ġprompt":4958,"pop":4959,"Ġascending":4960,"wid":4961,"Ġeasy":4962,"Ġunicode":4963,"uler":4964,"Ġlimits":4965,"br":4966,"Ġclients":4967,"Ġcircular":4968,"Ġisol":4969,"Ġshortcuts":4970,"Ġregexp":4971,"ingle":4972,"Ġsubtask":4973,"Ġorc":4974,"Ġdatum":4975,"pens":4976,"Ġwp":4977,"aker":4978,"Ġalphabet":4979,"Ġexpiry":4980,"Ġsock":4981,"Ġmal":4982,"Ġrating":4983,"Ġassignments":4984,"Ġftp":4985,"Ġmeasures":4986,"Ġhref":4987,"Ġplease":4988,"luet":4989,"Ġelap":4990,"sclass":4991,"Ġiosclass":4992,"luetooth":4993,"ib":4994,"Ġdiscard":4995,"Ġnormalized":4996,"Ġlanguages":4997,"metic":4998,"mited":4999,"Ġuielements":5000,"Ġrsa":5001,"ha":5002,"amer":5003,"Ġbaseline":5004,"Ġmetastore":5005,"Ġhub":5006,"Ġdecomp":5007,"Ġsubnet":5008,"size":5009,"Ġunlock":5010,"parser":5011,"Ġaccumulator":5012,"Ġfinger":5013,"Ġrocks":5014,"Ġreuse":5015,"Ġarithmetic":5016,"Ġbluetooth":5017,"Ġshown":5018,"ough":5019,"Ġoid":5020,"Ġtele":5021,"reader":5022,"Ġingest":5023,"Ġmembership":5024,"Ġtens":5025,"Ġtensor":5026,"ku":5027,"Ġvfs":5028,"Ġunread":5029,"Ġctor":5030,"Ġdashboard":5031,"Ġworkforce":5032,"software":5033,"Ġconvention":5034,"Ġworkforcesoftware":5035,"Ġpcollection":5036,"Ġsecondary":5037,"Ġmedium":5038,"Ġaaa":5039,"Ġpreser":5040,"Ġvisual":5041,"Ġopts":5042,"Ġsslcontext":5043,"Ġyyyy":5044,"tics":5045,"Ġscann":5046,"Ġprobe":5047,"Ġoverflow":5048,"Ġcurr":5049,"Ġexpo":5050,"Ġatlas":5051,"Ġlistable":5052,"uation":5053,"Ġdatagram":5054,"Ġuses":5055,"Ġcounting":5056,"Ġcrawl":5057,"Ġsplits":5058,"resource":5059,"Ġabove":5060,"Ġmechan":5061,"Ġml":5062,"Ġbricklet":5063,"Ġdeps":5064,"Ġelapsed":5065,"Ġfd":5066,"Ġcompaction":5067,"Ġcue":5068,"Ġhal":5069,"Ġjta":5070,"Ġbeing":5071,"uses":5072,"Ġunary":5073,"Ġanalytics":5074,"Ġlin":5075,"ungeon":5076,"Ġmulticast":5077,"Ġgoto":5078,"Ġconsum":5079,"Ġhashing":5080,"bank":5081,"record":5082,"ency":5083,"Ġbank":5084,"Ġapplications":5085,"Ġzones":5086,"onheap":5087,"Ġmemoff":5088,"Ġmemonheap":5089,"Ġmemoffheap":5090,"Ġlimiter":5091,"uction":5092,"Ġlayers":5093,"Ġdownloader":5094,"Ġdeferred":5095,"Ġhours":5096,"Ġeh":5097,"Ġoptimizer":5098,"Ġspa":5099,"Ġforeign":5100,"Ġthumbs":5101,"lian":5102,"Ġnews":5103,"peg":5104,"Ġtreebank":5105,"Ġfb":5106,"Ġclob":5107,"Ġvr":5108,"eting":5109,"Ġwm":5110,"Ġcomma":5111,"Ġdescriptions":5112,"Ġunwrap":5113,"Ġsan":5114,"ude":5115,"Ġdst":5116,"Ġstale":5117,"Ġconcrete":5118,"Ġgrou":5119,"Ġruler":5120,"screen":5121,"Ġglass":5122,"Ġbelow":5123,"to":5124,"Ġey":5125,"Ġpinot":5126,"Ġqueued":5127,"Ġanimate":5128,"Ġcors":5129,"var":5130,"Ġfbo":5131,"Ġzy":5132,"Ġuint":5133,"Ġufs":5134,"Ġdirected":5135,"Ġminor":5136,"Ġboun":5137,"Ġbigint":5138,"Ġiterate":5139,"Ġslots":5140,"Ġgather":5141,"Ġvarargs":5142,"lark":5143,"Ġverb":5144,"Ġko":5145,"Ġpassed":5146,"Ġblender":5147,"Ġrendering":5148,"Ġsolution":5149,"Ġhm":5150,"Ġfraction":5151,"Ġmodality":5152,"Ġdrain":5153,"ose":5154,"256":5155,"odel":5156,"Ġmodal":5157,"Ġjbutton":5158,"ally":5159,"Ġask":5160,"Ġwat":5161,"Ġparticle":5162,"Ġsuites":5163,"Ġdigital":5164,"Ġdeque":5165,"Ġxmls":5166,"Ġstripe":5167,"Ġcollectors":5168,"icture":5169,"Ġtraffic":5170,"Ġcategories":5171,"Ġplacement":5172,"100":5173,"py":5174,"Ġarc":5175,"Ġskylark":5176,"Ġseekbar":5177,"567890":5178,"Ġparag":5179,"Ġsticky":5180,"Ġsemantics":5181,"Ġdense":5182,"Ġ04":5183,"Ġboost":5184,"Ġerasure":5185,"ically":5186,"Ġdeterministic":5187,"itude":5188,"layer":5189,"Ġbitcoin":5190,"Ġlint":5191,"Ġpairs":5192,"Ġcru":5193,"Ġskew":5194,"Ġlife":5195,"Ġinterceptors":5196,"Ġmoved":5197,"Ġlocate":5198,"Ġparagraph":5199,"Ġhow":5200,"lerate":5201,"Ġmovie":5202,"Ġsigned":5203,"Ġib":5204,"Ġseen":5205,"Ġzep":5206,"pelin":5207,"Ġmobile":5208,"Ġzeppelin":5209,"sec":5210,"Ġvb":5211,"Ġnv":5212,"Ġice":5213,"Ġjwt":5214,"Ġpredi":5215,"Ġpupp":5216,"Ġzz":5217,"Ġfeedback":5218,"Ġtrees":5219,"Ġgzip":5220,"Ġosgi":5221,"way":5222,"Ġmant":5223,"Ġdsl":5224,"md":5225,"ffe":5226,"Ġpeop":5227,"Ġgenre":5228,"Ġtimed":5229,"Ġtheir":5230,"Ġanalyze":5231,"Ġweather":5232,"rier":5233,"ycrawl":5234,"Ġpuppycrawl":5235,"Ġresp":5236,"Ġdirective":5237,"ommand":5238,"Ġsf":5239,"Ġadmins":5240,"Ġkeystore":5241,"Ġyaml":5242,"Ġkeywords":5243,"Ġepoxy":5244,"ik":5245,"Ġinvolved":5246,"model":5247,"Ġ03":5248,"Ġhighest":5249,"Ġutc":5250,"Ġaes":5251,"Ġpruned":5252,"Ġgif":5253,"Ġlittle":5254,"ier":5255,"Ġprovide":5256,"ually":5257,"Ġparents":5258,"Ġparcel":5259,"54":5260,"Ġcra":5261,"Ġaccepted":5262,"Ġaffect":5263,"pector":5264,"Ġintrospector":5265,"69":5266,"ilar":5267,"Ġleg":5268,"Ġhosted":5269,"Ġbanned":5270,"Ġfolding":5271,"Ġmarked":5272,"Ġinavi":5273,"Ġtested":5274,"Ġfiltering":5275,"Ġrebalance":5276,"Ġassem":5277,"Ġsieve":5278,"Ġsimilar":5279,"Ġperm":5280,"27":5281,"ogen":5282,"Ġsens":5283,"Ġhighlighting":5284,"Ġner":5285,"rule":5286,"Ġimplementations":5287,"va":5288,"Ġhum":5289,"Ġweigh":5290,"Ġaround":5291,"Ġcu":5292,"Ġdesigner":5293,"ala":5294,"tes":5295,"Ġexecuted":5296,"Ġdimensions":5297,"Ġscoped":5298,"Ġpinpoint":5299,"Ġcommun":5300,"bre":5301,"Ġdifference":5302,"Ġindexing":5303,"Ġcaches":5304,"Ġrejected":5305,"Ġtf":5306,"env":5307,"Ġsubstitution":5308,"Ġblo":5309,"Ġinvis":5310,"Ġoperands":5311,"Ġstan":5312,"Ġtabbed":5313,"Ġsubstitutor":5314,"cols":5315,"result":5316,"pet":5317,"Ġtoday":5318,"Ġperf":5319,"Ġautogen":5320,"Ġenhance":5321,"Ġrepaint":5322,"Ġmention":5323,"Ġcraw":5324,"Ġcloseable":5325,"Ġresum":5326,"Ġgue":5327,"Ġjre":5328,"Ġyour":5329,"Ġhh":5330,"version":5331,"Ġvend":5332,"Ġreconnect":5333,"Ġexcludes":5334,"Ġgwt":5335,"Ġpicture":5336,"index":5337,"Ġweights":5338,"Ġgbc":5339,"lf":5340,"Ġconduit":5341,"Ġlon":5342,"Ġenumeration":5343,"Ġmg":5344,"abou":5345,"Ġipv":5346,"Ġwatabou":5347,"Ġprocesses":5348,"Ġnotebook":5349,"Ġlot":5350,"Ġexplorer":5351,"Ġpeople":5352,"yntax":5353,"Ġlearn":5354,"Ġoutside":5355,"Ġcompos":5356,"Ġfailover":5357,"Ġpropag":5358,"Ġcells":5359,"Ġrv":5360,"Ġplural":5361,"Ġreached":5362,"Ġunres":5363,"Ġconstructed":5364,"Ġ90":5365,"Ġreservation":5366,"Ġagainst":5367,"Ġstatuses":5368,"iform":5369,"Ġthumbn":5370,"vent":5371,"Ġzh":5372,"Ġvk":5373,"Ġgrow":5374,"Ġcpp":5375,"Ġznode":5376,"Ġxslt":5377,"Ġequivalence":5378,"Ġcidr":5379,"Ġvendor":5380,"Ġhaving":5381,"Ġchained":5382,"zone":5383,"Ġinvisible":5384,"Ġmxbean":5385,"full":5386,"17":5387,"Ġoperators":5388,"Ġsmali":5389,"Ġcss":5390,"Ġeof":5391,"Ġunassigned":5392,"Ġlic":5393,"Ġdual":5394,"Ġpagination":5395,"Ġporter":5396,"Ġrecording":5397,"Ġinvi":5398,"Ġsimp":5399,"Ġwriteable":5400,"Ġlw":5401,"oti":5402,"Ġinvoked":5403,"82":5404,"sired":5405,"Ġpurge":5406,"Ġdere":5407,"Ġstu":5408,"Ġmalformed":5409,"Ġvals":5410,"Ġmand":5411,"Ġextraction":5412,"Ġconform":5413,"Ġrnd":5414,"Ġcharsets":5415,"iset":5416,"Ġreading":5417,"Ġleave":5418,"len":5419,"Ġeither":5420,"Ġonline":5421,"Ġ400":5422,"Ġexplicitly":5423,"session":5424,"Ġedited":5425,"Ġoptimized":5426,"Ġattrib":5427,"Ġiface":5428,"region":5429,"Ġrobo":5430,"Ġdeletion":5431,"Ġbuh":5432,"Ġunca":5433,"Ġnamespaces":5434,"eser":5435,"ippet":5436,"archar":5437,"Ġhyperlink":5438,"sg":5439,"Ġfade":5440,"Ġkeyframe":5441,"Ġdeadline":5442,"Ġtier":5443,"Ġcstr":5444,"notification":5445,"Ġassociate":5446,"Ġsnippet":5447,"Ġdynamics":5448,"Ġ2016":5449,"Ġconfirmation":5450,"prop":5451,"iring":5452,"Ġconsistent":5453,"ane":5454,"Ġ08":5455,"Ġxmlschema":5456,"Ġcube":5457,"Ġkry":5458,"dire":5459,"Ġly":5460,"Ġjoint":5461,"Ġregistrar":5462,"fully":5463,"Ġmandatory":5464,"Ġproblems":5465,"Ġtyping":5466,"Ġinitxxxmethodnamexxx":5467,"Ġudp":5468,"Ġpaste":5469,"gress":5470,"Ġmeans":5471,"Ġones":5472,"Ġ27":5473,"Ġkb":5474,"Ġtranslog":5475,"Ġocommand":5476,"Ġxmlstream":5477,"Ġbudd":5478,"ooled":5479,"Ġdeprecation":5480,"Ġkryo":5481,"Ġng":5482,"Ġaren":5483,"Ġdynamo":5484,"Ġunpooled":5485,"36":5486,"Ġknife":5487,"xfd":5488,"Ġunmarshaller":5489,"Ġquantization":5490,"ribe":5491,"Ġjcom":5492,"Ġimplemented":5493,"iss":5494,"Ġlc":5495,"Ġcacheable":5496,"Ġgrpc":5497,"Ġguarantee":5498,"Ġdesired":5499,"Ġdict":5500,"Ġdisru":5501,"Ġvery":5502,"Ġwithin":5503,"Ġnsobject":5504,"anager":5505,"Ġjstype":5506,"Ġdocumentation":5507,"Ġflex":5508,"Ġpruner":5509,"Ġtransparent":5510,"03":5511,"Ġfour":5512,"Ġjsr":5513,"Ġrebalancing":5514,"uber":5515,"Ġlocks":5516,"Ġja":5517,"pest":5518,"xba":5519,"Ġminus":5520,"Ġquad":5521,"Ġfair":5522,"Ġrolling":5523,"Ġquart":5524,"Ġthumbnail":5525,"fit":5526,"Ġembedder":5527,"Ġgrouped":5528,"copy":5529,"Ġspam":5530,"Ġinference":5531,"Ġlicen":5532,"cc":5533,"Ġfeel":5534,"Ġioutils":5535,"Ġog":5536,"Ġapplied":5537,"Ġterminate":5538,"21":5539,"Ġldeser":5540,"Ġmarshall":5541,"baec":5542,"Ġldeserialize":5543,"Ġah":5544,"Ġschemes":5545,"Ġuncaught":5546,"Ġenforce":5547,"Ġinitializing":5548,"Ġ150":5549,"nowled":5550,"Ġchanging":5551,"Ġher":5552,"Ġrhs":5553,"Ġaggregated":5554,"Ġomit":5555,"Ġtoolkit":5556,"Ġlocalization":5557,"Ġvary":5558,"Ġprivileges":5559,"ens":5560,"alias":5561,"igu":5562,"Ġflatten":5563,"Ġstrong":5564,"scape":5565,"hel":5566,"Ġcollapse":5567,"Ġdy":5568,"Ġinode":5569,"Ġprotection":5570,"Ġruns":5571,"trans":5572,"Ġtran":5573,"Ġfp":5574,"Ġdefer":5575,"Ġinvite":5576,"Ġshouldn":5577,"Ġrenew":5578,"ialized":5579,"08":5580,"Ġtransitive":5581,"Ġcontacts":5582,"api":5583,"Ġdpi":5584,"Ġduff":5585,"Ġahead":5586,"Ġnsnotification":5587,"Ġbloom":5588,"Ġ234":5589,"Ġreports":5590,"Ġguess":5591,"gy":5592,"Ġju":5593,"za":5594,"Ġcorrections":5595,"Ġwebp":5596,"Ġsampled":5597,"Ġdan":5598,"processed":5599,"Ġcrawler":5600,"Ġtline":5601,"Ġupstream":5602,"Ġexclusive":5603,"Ġcurrently":5604,"Ġinspections":5605,"stat":5606,"Ġlisting":5607,"Ġbuddy":5608,"Ġfingerprint":5609,"Ġpartitioning":5610,"gl":5611,"ilable":5612,"Ġzkw":5613,"Ġprese":5614,"pecial":5615,"Ġmarkers":5616,"Ġgpu":5617,"Ġsynthetic":5618,"Ġmocked":5619,"Ġreferr":5620,"Ġpagin":5621,"place":5622,"Ġcustomize":5623,"orph":5624,"Ġpacked":5625,"ula":5626,"Ġcv":5627,"Ġplayed":5628,"Ġthreaded":5629,"Ġtimezone":5630,"Ġwalker":5631,"Ġenfor":5632,"Ġatte":5633,"Ġexecuting":5634,"raphics":5635,"Ġcul":5636,"Ġscrollbar":5637,"Ġoccurrences":5638,"Ġintelli":5639,"42":5640,"Ġrp":5641,"Ġmultiply":5642,"Ġresumable":5643,"lers":5644,"Ġrtn":5645,"xffff":5646,"max":5647,"Ġnums":5648,"Ġdfscluster":5649,"Ġleading":5650,"write":5651,"Ġtraining":5652,"Ġassemb":5653,"35":5654,"Ġpw":5655,"Ġprefer":5656,"Ġspann":5657,"ualizer":5658,"Ġpersisted":5659,"Ġcompany":5660,"Ġinstrumented":5661,"Ġconj":5662,"Ġdevel":5663,"Ġbarrier":5664,"Ġable":5665,"Ġjoy":5666,"Ġurisyntax":5667,"Ġfav":5668,"Ġreil":5669,"Ġshar":5670,"Ġtraverse":5671,"Ġpvs":5672,"Ġwire":5673,"anc":5674,"Ġwin":5675,"Ġjscroll":5676,"Ġstem":5677,"Ġlogo":5678,"umber":5679,"oring":5680,"Ġpgraphics":5681,"Ġsrv":5682,"Ġinvocations":5683,"Ġambient":5684,"Ġreaders":5685,"laps":5686,"Ġauthenticated":5687,"Ġmerging":5688,"Ġnavigate":5689,"Ġlm":5690,"Ġtmpdir":5691,"Ġxdebugger":5692,"Ġdx":5693,"Ġreadonly":5694,"Ġwere":5695,"Ġunresolved":5696,"Ġlinux":5697,"socket":5698,"Ġlu":5699,"Ġcms":5700,"Ġmanip":5701,"tag":5702,"Ġexce":5703,"Ġresolvable":5704,"Ġsampling":5705,"Ġmixed":5706,"Ġcyc":5707,"Ġwebsocket":5708,"Ġpaging":5709,"Ġnc":5710,"Ġmechanism":5711,"Ġfederation":5712,"Ġunprocessed":5713,"Ġstrategies":5714,"Ġformatted":5715,"Ġmicros":5716,"unct":5717,"mode":5718,"Ġrealtime":5719,"Ġky":5720,"Ġ75":5721,"Ġtp":5722,"Ġbra":5723,"Ġobs":5724,"Ġoverload":5725,"Ġcomposition":5726,"abber":5727,"add":5728,"Ġol":5729,"rics":5730,"Ġunava":5731,"ared":5732,"Ġpredefined":5733,"Ġacked":5734,"Ġbacklog":5735,"ody":5736,"artition":5737,"Ġiterators":5738,"Ġarraycopy":5739,"Ġexpander":5740,"Ġsigner":5741,"Ġhooks":5742,"Ġregionserver":5743,"Ġdeclare":5744,"dec":5745,"Ġrol":5746,"inesis":5747,"Ġaj":5748,"Ġuppest":5749,"Ġunsub":5750,"Ġmodes":5751,"kes":5752,"imate":5753,"Ġinvoices":5754,"Ġcopied":5755,"Ġbranches":5756,"Ġgaller":5757,"Ġspawn":5758,"aten":5759,"lines":5760,"Ġscrolling":5761,"Ġmailbox":5762,"Ġielement":5763,"19":5764,"root":5765,"Ġinco":5766,"Ġcaps":5767,"Ġacknowled":5768,"Ġprofiling":5769,"Ġgallery":5770,"Ġfmt":5771,"Ġlogic":5772,"Ġnu":5773,"Ġstdout":5774,"Ġcam":5775,"Ġmother":5776,"section":5777,"Ġwindowed":5778,"Ġcoordinates":5779,"Ġwould":5780,"Ġcontributor":5781,"Ġwrites":5782,"Ġcruise":5783,"Ġconsistency":5784,"Ġjanitor":5785,"Ġkoala":5786,"Ġargb":5787,"Ġcontrollers":5788,"Ġsuggested":5789,"register":5790,"dy":5791,"top":5792,"Ġhll":5793,"Ġkinesis":5794,"Ġwhole":5795,"ogn":5796,"Ġcut":5797,"Ġdevices":5798,"Ġrepeated":5799,"Ġkeytab":5800,"Ġdescend":5801,"going":5802,"Ġswt":5803,"Ġrequirement":5804,"Ġconverted":5805,"Ġ57":5806,"Ġsmallint":5807,"Ġflavors":5808,"Ġmnemon":5809,"Ġservlets":5810,"nb":5811,"Ġdm":5812,"izable":5813,"Ġfriends":5814,"Ġveh":5815,"width":5816,"Ġbatter":5817,"Ġlhs":5818,"ressed":5819,"Ġuimsg":5820,"Ġlocalized":5821,"Ġ199":5822,"Ġpostfix":5823,"Ġstable":5824,"fieldset":5825,"Ġblockformfieldset":5826,"local":5827,"Ġpresence":5828,"Ġunsubsc":5829,"Ġft":5830,"Ġia":5831,"Ġfloating":5832,"Ġarrange":5833,"lr":5834,"Ġrod":5835,"ning":5836,"Ġterminated":5837,"Ġxmppconnection":5838,"ancy":5839,"Ġusd":5840,"Ġ1000000":5841,"Ġdiffs":5842,"Ġsections":5843,"Ġreact":5844,"Ġevt":5845,"Ġinterrupt":5846,"Ġsystems":5847,"Ġrng":5848,"Ġdecider":5849,"Ġassigner":5850,"Ġterminator":5851,"Ġcrash":5852,"Ġunavailable":5853,"Ġvalve":5854,"Ġxmlreader":5855,"gnito":5856,"Ġbackward":5857,"Ġmigrate":5858,"cean":5859,"Ġjstorm":5860,"Ġsrcs":5861,"Ġhalf":5862,"Ġ66":5863,"Ġ160":5864,"Ġlst":5865,"Ġ2012":5866,"Ġsensitive":5867,"Ġbattery":5868,"Ġnatural":5869,"Ġmnemonic":5870,"Ġada":5871,"Ġvehicle":5872,"Ġstyles":5873,"Ġcover":5874,"Ġjpg":5875,"Ġrtype":5876,"Ġkuber":5877,"Ġorche":5878,"Ġschedulers":5879,"Ġfroz":5880,"Ġste":5881,"Ġoct":5882,"Ġconditional":5883,"aaaa":5884,"ross":5885,"Ġforced":5886,"netes":5887,"Ġkubernetes":5888,"storage":5889,"Ġbeta":5890,"Ġuniform":5891,"bb":5892,"offset":5893,"xxxxxxxx":5894,"press":5895,"Ġenqueue":5896,"Ġtech":5897,"Ġqm":5898,"uts":5899,"Ġazure":5900,"self":5901,"Ġzap":5902,"Ġdestroyed":5903,"Ġnps":5904,"uent":5905,"Ġapplic":5906,"Ġstm":5907,"Ġtok":5908,"Ġiterables":5909,"Ġosql":5910,"Ġcheckout":5911,"lazz":5912,"Ġpgp":5913,"Ġdeserialization":5914,"Ġclosing":5915,"manent":5916,"Ġlrucache":5917,"Ġrelay":5918,"Ġprovides":5919,"Ġspdy":5920,"Ġ512":5921,"Ġklazz":5922,"ulation":5923,"Ġamended":5924,"Ġreferenced":5925,"Ġlatin":5926,"Ġener":5927,"Ġconstruction":5928,"Ġasyn":5929,"Ġunregister":5930,"Ġeye":5931,"Ġcg":5932,"Ġwhitelist":5933,"Ġbmp":5934,"Ġqui":5935,"Ġjavas":5936,"Ġskipped":5937,"Ġhma":5938,"Ġdecre":5939,"Ġadapters":5940,"Ġunb":5941,"Ġacceptor":5942,"Ġrestriction":5943,"att":5944,"Ġbga":5945,"Ġacross":5946,"Ġspel":5947,"Ġpercentile":5948,"200":5949,"Ġstren":5950,"Ġstrength":5951,"Ġpermanent":5952,"Ġdanma":5953,"ismatch":5954,"ulated":5955,"Ġmismatch":5956,"phony":5957,"Ġgmt":5958,"Ġvol":5959,"pass":5960,"Ġanimated":5961,"quo":5962,"Ġxm":5963,"Ġsand":5964,"Ġdeadlock":5965,"Ġfrozen":5966,"Ġtinyint":5967,"Ġhashtable":5968,"Ġmodifiable":5969,"Ġfollowed":5970,"28":5971,"Ġdigits":5972,"Ġfund":5973,"Ġcharacteristic":5974,"eled":5975,"Ġpse":5976,"uted":5977,"Ġplanner":5978,"Ġshowing":5979,"Ġmigr":5980,"Ġborders":5981,"Ġmerger":5982,"strator":5983,"Ġhregion":5984,"Ġabcd":5985,"Ġij":5986,"Ġorchestrator":5987,"Ġenergy":5988,"Ġacquired":5989,"Ġpseud":5990,"pression":5991,"Ġmxxxmethodnamexxx":5992,"Ġchunked":5993,"Ġrobot":5994,"Ġreversed":5995,"Ġreads":5996,"Ġselectors":5997,"Ġsubscriptions":5998,"Ġtelephony":5999,"Ġquiet":6000,"conf":6001,"Ġtrailing":6002,"Ġsg":6003,"Ġwx":6004,"Ġ05":6005,"Ġrecover":6006,"Ġlibs":6007,"Ġreserve":6008,"23":6009,"Ġarrangement":6010,"Ġipnb":6011,"Ġbehind":6012,"Ġ001":6013,"Ġblaze":6014,"Ġsearches":6015,"Ġrelev":6016,"Ġadding":6017,"Ġbiz":6018,"Ġjpeg":6019,"Ġsamples":6020,"Ġjavascript":6021,"Ġconc":6022,"Ġhql":6023,"Ġcroak":6024,"Ġinstanc":6025,"Ġlabeled":6026,"Ġencrypted":6027,"Ġautowired":6028,"Ġcst":6029,"Ġdeserialized":6030,"Ġmgmt":6031,"Ġdelegator":6032,"Ġresolvers":6033,"Ġcrc":6034,"ssian":6035,"Ġpdf":6036,"Ġflexible":6037,"ield":6038,"Ġdesk":6039,"Ġprecomp":6040,"Ġbundles":6041,"Ġdetailed":6042,"Ġfullscreen":6043,"Ġbazel":6044,"usted":6045,"Ġsoot":6046,"Ġfu":6047,"colum":6048,"Ġqb":6049,"Ġassociated":6050,"rf":6051,"Ġxoo":6052,"Ġlob":6053,"Ġaspecial":6054,"Ġfontstyle":6055,"Ġfollowers":6056,"Ġnegoti":6057,"Ġpeb":6058,"ularity":6059,"Ġsalt":6060,"Ġaffected":6061,"Ġlyrics":6062,"iling":6063,"Ġbandwidth":6064,"Ġfailing":6065,"gon":6066,"Ġpow":6067,"Ġ29":6068,"Ġmultiset":6069,"ycler":6070,"Ġpen":6071,"etime":6072,"Ġcandidates":6073,"Ġnr":6074,"progress":6075,"ah":6076,"Ġretro":6077,"Ġ07":6078,"Ġinstancetype":6079,"Ġshred":6080,"Ġpdu":6081,"Ġcombiner":6082,"Ġstopping":6083,"gid":6084,"most":6085,"Ġsto":6086,"Ġtracked":6087,"Ġshor":6088,"Ġtransc":6089,"Ġjingle":6090,"mq":6091,"Ġtill":6092,"Ġdow":6093,"Ġauthz":6094,"Ġlistenable":6095,"recycler":6096,"Ġstruts":6097,"Ġtimeframe":6098,"Ġuninst":6099,"Ġdomains":6100,"prot":6101,"scale":6102,"Ġsuccessfully":6103,"Ġhuge":6104,"Ġmonths":6105,"Ġgranted":6106,"sp":6107,"ruct":6108,"vacy":6109,"groups":6110,"Ġifd":6111,"Ġlicense":6112,"dc":6113,"Ġparen":6114,"Ġbread":6115,"Ġprefetch":6116,"Ġplaces":6117,"Ġjcheck":6118,"Ġorb":6119,"inted":6120,"Ġinactive":6121,"ocket":6122,"356":6123,"select":6124,"mplete":6125,"Ġcolon":6126,"Ġpools":6127,"Ġdefl":6128,"Ġassignee":6129,"bi":6130,"Ġssls":6131,"Ġrigid":6132,"Ġbookmarks":6133,"Ġodps":6134,"Ġguid":6135,"Ġfee":6136,"Ġseparate":6137,"Ġpgl":6138,"Ġrms":6139,"Ġons":6140,"Ġplug":6141,"Ġrecom":6142,"Ġestimated":6143,"cr":6144,"Ġnormalizer":6145,"Ġsimian":6146,"package":6147,"Ġcoer":6148,"Ġsay":6149,"Ġdont":6150,"Ġ81":6151,"Ġseparators":6152,"Ġsx":6153,"mc":6154,"eter":6155,"Ġrounding":6156,"Ġmantis":6157,"Ġdesktop":6158,"Ġrecommend":6159,"Ġgran":6160,"Ġstylesheet":6161,"Ġpredicates":6162,"Ġlrecycler":6163,"Ġquartz":6164,"Ġske":6165,"Ġmapred":6166,"Ġrecurring":6167,"Ġ2009":6168,"erty":6169,"Ġkx":6170,"Ġassembler":6171,"Ġesc":6172,"Ġholders":6173,"Ġqueryable":6174,"Ġglm":6175,"popup":6176,"Ġtransforms":6177,"column":6178,"Ġgranularity":6179,"Ġsemi":6180,"Ġapplicable":6181,"protocol":6182,"Ġhigher":6183,"Ġforb":6184,"Ġperspect":6185,"128":6186,"Ġshot":6187,"Ġwebapp":6188,"Ġexha":6189,"Ġisn":6190,"Ġmyd":6191,"Ġupms":6192,"image":6193,"Ġhardware":6194,"Ġbdb":6195,"ively":6196,"Ġcommitter":6197,"Ġely":6198,"Ġbass":6199,"Ġcredit":6200,"Ġmul":6201,"ctx":6202,"Ġpresentable":6203,"Ġcustomizer":6204,"89":6205,"vo":6206,"Ġbor":6207,"Ġcancellation":6208,"rack":6209,"Ġderiv":6210,"Ġinitiali":6211,"tron":6212,"Ġtrad":6213,"Ġtrait":6214,"Ġelytron":6215,"Ġapplier":6216,"Ġreferrer":6217,"Ġphaser":6218,"Ġeventually":6219,"buil":6220,"Ġorecord":6221,"Ġvirtualizer":6222,"Ġstmts":6223,"25":6224,"Ġion":6225,"atial":6226,"Ġidp":6227,"Ġsending":6228,"Ġcontinuation":6229,"Ġsusp":6230,"Ġunprocessedxxxmethodnamexxx":6231,"Ġrecogn":6232,"Ġfuzz":6233,"Ġow":6234,"Ġrather":6235,"Ġrop":6236,"Ġviz":6237,"Ġchore":6238,"93":6239,"Ġduplicates":6240,"bench":6241,"Ġneo":6242,"Ġneural":6243,"Ġinvent":6244,"Ġ201711":6245,"35669":6246,"Ġ20171105":6247,"Ġelevation":6248,"Ġrds":6249,"gs":6250,"Ġdecod":6251,"Ġmono":6252,"Ġcomputer":6253,"Ġfault":6254,"Ġmutation":6255,"Ġretrofit":6256,"the":6257,"rb":6258,"Ġpreced":6259,"40":6260,"Ġfk":6261,"Ġprecedence":6262,"Ġreli":6263,"cl":6264,"Ġcomposer":6265,"Ġmultiv":6266,"Ġtraces":6267,"respon":6268,"Ġbone":6269,"Ġdbus":6270,"Ġpolygon":6271,"Ġboard":6272,"Ġjtree":6273,"Ġdatasource":6274,"mur":6275,"Ġconsent":6276,"minate":6277,"Ġhsv":6278,"Ġ35":6279,"Ġjl":6280,"Ġyears":6281,"web":6282,"Ġqmui":6283,"Ġformatting":6284,"Ġpooling":6285,"grees":6286,"Ġinherited":6287,"Ġpromo":6288,"Ġxa":6289,"Ġdbi":6290,"Ġdbp":6291,"Ġfoundation":6292,"Ġbusiness":6293,"inality":6294,"Ġmeeting":6295,"Ġhr":6296,"profile":6297,"oooo":6298,"minator":6299,"Ġinplace":6300,"Ġscrollable":6301,"Ġmute":6302,"Ġgive":6303,"omb":6304,"Ġbroken":6305,"Ġfunctor":6306,"oned":6307,"Ġsvg":6308,"ao":6309,"army":6310,"Ġsimianarmy":6311,"body":6312,"Ġkeyspace":6313,"tho":6314,"als":6315,"5678901234":6316,"Ġcheckpoints":6317,"Ġdisruptor":6318,"Ġbrace":6319,"Ġprag":6320,"Ġtsample":6321,"Ġdanmaku":6322,"init":6323,"Ġnt":6324,"Ġoutcome":6325,"quiring":6326,"Ġ51":6327,"Ġfunctionized":6328,"Ġfixes":6329,"Ġ2014":6330,"eldungeon":6331,"ored":6332,"Ġoverwrite":6333,"Ġpixeldungeon":6334,"Ġprivacy":6335,"Ġactivities":6336,"Ġscripts":6337,"Ġnormalization":6338,"Ġserdes":6339,"lobro":6340,"Ġprivilege":6341,"Ġuuids":6342,"Ġadaptor":6343,"Ġunsubscribe":6344,"bt":6345,"Ġslobro":6346,"sub":6347,"Ġreplaced":6348,"Ġattachable":6349,"Ġnegate":6350,"65":6351,"Ġfolders":6352,"Ġ250":6353,"Ġhsm":6354,"Ġseparated":6355,"Ġpragma":6356,"Ġcyclic":6357,"Ġlane":6358,"Ġklass":6359,"Ġxor":6360,"Ġqualif":6361,"Ġ69":6362,"Ġcouldn":6363,"Ġsmooth":6364,"Ġloggers":6365,"Ġviolations":6366,"Ġjac":6367,"Ġsaf":6368,"amodel":6369,"Ġblah":6370,"Ġduplication":6371,"lid":6372,"Ġundire":6373,"Ġemulator":6374,"Ġundirected":6375,"Ġdar":6376,"fff":6377,"Ġsouth":6378,"Ġbetter":6379,"Ġegl":6380,"align":6381,"Ġparsers":6382,"Ġcardinality":6383,"Ġthrott":6384,"Ġpseudo":6385,"Ġ12345":6386,"agent":6387,"Ġspans":6388,"Ġdbname":6389,"join":6390,"Ġlwj":6391,"ees":6392,"urmur":6393,"iler":6394,"Ġconcer":6395,"adget":6396,"Ġselectable":6397,"Ġmatched":6398,"Ġgcs":6399,"Ġintellij":6400,"Ġsettable":6401,"Ġbreakpoints":6402,"Ġsaxexception":6403,"Ġtrusted":6404,"ether":6405,"Ġconcern":6406,"Ġdegrees":6407,"Ġmetamodel":6408,"Ġconsider":6409,"Ġqualifiers":6410,"Ġ43":6411,"Ġquotes":6412,"Ġist":6413,"Ġance":6414,"Ġorph":6415,"Ġinclus":6416,"Ġpresets":6417,"Ġsslsocket":6418,"exec":6419,"Ġsubclasses":6420,"Ġ2002":6421,"parameter":6422,"lif":6423,"Ġjabber":6424,"ithread":6425,"Ġinternet":6426,"Ġmonkey":6427,"Ġmorph":6428,"Ġexceeded":6429,"dev":6430,"Ġresulting":6431,"Ġcoref":6432,"Ġmydisc":6433,"Ġshim":6434,"Ġotp":6435,"Ġmarshal":6436,"Ġlwjgl":6437,"Ġlf":6438,"Ġbackpress":6439,"Ġbackpressure":6440,"inel":6441,"Ġ55":6442,"Ġdbr":6443,"Ġ70":6444,"Ġsentinel":6445,"Ġclaim":6446,"Ġvariants":6447,"Ġkts":6448,"Ġji":6449,"Ġorders":6450,"Ġshowcase":6451,"Ġrtc":6452,"Ġprocedures":6453,"Ġnewline":6454,"Ġjod":6455,"Ġgenrule":6456,"Ġloaders":6457,"Ġanno":6458,"Ġskewed":6459,"Ġdry":6460,"Ġbaos":6461,"Ġclustering":6462,"Ġcaffe":6463,"Ġsms":6464,"Ġspouts":6465,"helper":6466,"Ġlocals":6467,"Ġtitled":6468,"namesystem":6469,"Ġfsnamesystem":6470,"Ġmagn":6471,"Ġalternate":6472,"Ġinventory":6473,"Ġmisc":6474,"Ġunack":6475,"Ġvariance":6476,"Ġtriangle":6477,"Ġdragging":6478,"lash":6479,"123":6480,"Ġbea":6481,"Ġinde":6482,"Ġpackaging":6483,"Ġwrapping":6484,"Ġmurmur":6485,"Ġheadless":6486,"Ġci":6487,"Ġassured":6488,"Ġitrans":6489,"Ġbecome":6490,"Ġunix":6491,"Ġstash":6492,"rain":6493,"Ġblacklisted":6494,"Ġland":6495,"Ġbindy":6496,"Ġgenerators":6497,"metadata":6498,"Ġstomp":6499,"Ġrab":6500,"Ġpropos":6501,"Ġxr":6502,"Ġantlr":6503,"rcode":6504,"Ġmentions":6505,"Ġindeter":6506,"Ġclipboard":6507,"erature":6508,"Ġsj":6509,"Ġpotent":6510,"assign":6511,"Ġdtmmanager":6512,"Ġproperly":6513,"Ġpotential":6514,"Ġshipped":6515,"member":6516,"Ġlimited":6517,"Ġsubtype":6518,"Ġsongs":6519,"Ġrd":6520,"Ġdtd":6521,"Ġtracing":6522,"Ġsalesforce":6523,"Ġhcat":6524,"processor":6525,"Ġindeterminate":6526,"bra":6527,"Ġcopies":6528,"Ġadvert":6529,"Ġ95":6530,"Ġsdf":6531,"Ġai":6532,"stick":6533,"Ġflight":6534,"Ġbuiltin":6535,"Ġfloor":6536,"Ġancestor":6537,"no":6538,"chronous":6539,"Ġincrease":6540,"Ġdatab":6541,"Ġrabbit":6542,"Ġnil":6543,"Ġfffff":6544,"Ġmsec":6545,"Ġproduction":6546,"Ġmappers":6547,"Ġblueprint":6548,"Ġbpp":6549,"Ġrepl":6550,"Ġprefixes":6551,"Ġbcc":6552,"Ġsat":6553,"Ġspell":6554,"Ġorphan":6555,"Ġ2015":6556,"Ġfpga":6557,"hi":6558,"Ġther":6559,"Ġfami":6560,"Ġsonic":6561,"Ġfreq":6562,"Ġxt":6563,"alue":6564,"Ġtear":6565,"gree":6566,"izing":6567,"Ġminimal":6568,"Ġpurch":6569,"Ġstudio":6570,"Ġmanipulator":6571,"Ġexhausted":6572,"Ġcaptor":6573,"Ġaddon":6574,"Ġrwl":6575,"graph":6576,"iation":6577,"Ġgar":6578,"Ġfbx":6579,"Ġtak":6580,"mapping":6581,"Ġuiutils":6582,"Ġfamilies":6583,"uz":6584,"Ġoperating":6585,"device":6586,"Ġorganizations":6587,"metric":6588,"Ġirc":6589,"Ġcontextual":6590,"Ġsucceeded":6591,"ese":6592,"Ġcollator":6593,"Ġoutgoing":6594,"lectric":6595,"Ġrobolectric":6596,"Ġperspective":6597,"Ġmonitoring":6598,"Ġfacts":6599,"Ġaop":6600,"logger":6601,"Ġlights":6602,"Ġdrafts":6603,"Ġ5678":6604,"right":6605,"Ġarns":6606,"Ġtitles":6607,"Ġpurchase":6608,"Ġijava":6609,"Ġbounce":6610,"Ġpunct":6611,"Ġmsgs":6612,"Ġfeatured":6613,"Ġexas":6614,"Ġlongs":6615,"Ġexasol":6616,"Ġgrants":6617,"Ġenhanced":6618,"Ġmaint":6619,"Ġjoiner":6620,"Ġunmarshall":6621,"Ġrollo":6622,"Ġabcde":6623,"Ġiosq":6624,"Ġmultivalue":6625,"Ġxmlns":6626,"Ġbusy":6627,"adl":6628,"Ġclassloader":6629,"Ġsubset":6630,"Ġstanza":6631,"Ġauthorities":6632,"Ġpaginated":6633,"Ġdowns":6634,"eed":6635,"source":6636,"alization":6637,"Ġslf":6638,"Ġmaintain":6639,"Ġjc":6640,"Ġfunctional":6641,"Ġcommunication":6642,"Ġasynchronous":6643,"segment":6644,"Ġwadl":6645,"Ġwac":6646,"Ġrecurrence":6647,"Ġretrieved":6648,"Ġconsumed":6649,"Ġeol":6650,"Ġtrident":6651,"Ġvecs":6652,"Ġeager":6653,"Ġfine":6654,"Ġcens":6655,"Ġautomat":6656,"Ġlearning":6657,"53":6658,"Ġrecv":6659,"Ġplans":6660,"Ġrmi":6661,"Ġrelations":6662,"Ġuimanager":6663,"istics":6664,"visions":6665,"Ġraf":6666,"Ġhuman":6667,"sable":6668,"Ġfresh":6669,"Ġexponentiation":6670,"xe":6671,"Ġprotect":6672,"Ġjsonapi":6673,"Ġignite":6674,"Ġeverything":6675,"mon":6676,"Ġinvalidation":6677,"Ġcontribution":6678,"Ġdurable":6679,"Ġcollapser":6680,"length":6681,"Ġ41":6682,"Ġdoubles":6683,"roller":6684,"Ġphysics":6685,"Ġcoale":6686,"Ġwide":6687,"Ġjump":6688,"Ġforbidden":6689,"Ġreconst":6690,"Ġansi":6691,"cture":6692,"lax":6693,"Ġbalancing":6694,"Ġpixmap":6695,"alc":6696,"Ġwo":6697,"mlink":6698,"Ġthroughput":6699,"Ġsbe":6700,"Ġfet":6701,"Ġexo":6702,"Ġactually":6703,"Ġarchite":6704,"filter":6705,"Ġpanels":6706,"Ġadvisor":6707,"Ġutili":6708,"Ġiosqlite":6709,"Ġcensus":6710,"Ġkernal":6711,"Ġpixels":6712,"Ġmutex":6713,"Ġchip":6714,"Ġfixme":6715,"Ġinitialise":6716,"Ġsjms":6717,"Ġhashes":6718,"Ġcodecs":6719,"Ġtimestamps":6720,"Ġsecured":6721,"Ġbatches":6722,"Ġpaged":6723,"Ġarchitecture":6724,"Ġcreates":6725,"Ġsymlink":6726,"Ġinternals":6727,"Ġsubscribers":6728,"Ġinheritance":6729,"Ġpebble":6730,"uro":6731,"Ġoverlap":6732,"Ġyield":6733,"position":6734,"Ġcopyright":6735,"Ġinflue":6736,"Ġglf":6737,"Ġweighted":6738,"Ġspannable":6739,"ocial":6740,"Ġderive":6741,"Ġredund":6742,"provider":6743,"Ġparsable":6744,"Ġsplash":6745,"Ġrewriter":6746,"Ġstriped":6747,"Ġ2013":6748,"achable":6749,"Ġii":6750,"Ġkeyframes":6751,"Ġsqrt":6752,"qrcode":6753,"Ġreally":6754,"Ġdetected":6755,"Ġbgaqrcode":6756,"Ġuploader":6757,"mpted":6758,"Ġoverridden":6759,"Ġuninstall":6760,"Ġ63":6761,"Ġlonger":6762,"Ġsucceed":6763,"ea":6764,"izers":6765,"Ġproduc":6766,"ulo":6767,"Ġunpack":6768,"Ġpreserve":6769,"Ġfiber":6770,"Ġfirefo":6771,"Ġhmac":6772,"Ġfirefox":6773,"Ġsized":6774,"Ġomni":6775,"lined":6776,"Ġpassive":6777,"desc":6778,"Ġautomatic":6779,"Ġtablename":6780,"Ġshapes":6781,"attr":6782,"Ġstud":6783,"Ġome":6784,"Ġcheese":6785,"Ġexprs":6786,"Ġjulian":6787,"Ġpackager":6788,"allest":6789,"Ġcmp":6790,"Ġioc":6791,"Ġivy":6792,"Ġconference":6793,"derr":6794,"Ġasn":6795,"Ġlocking":6796,"Ġswagger":6797,"Ġintegr":6798,"Ġsucc":6799,"Ġrefine":6800,"Ġfirstname":6801,"Ġvt":6802,"Ġoverriding":6803,"liest":6804,"Ġopacity":6805,"Ġlv":6806,"polic":6807,"Ġearliest":6808,"Ġsmallest":6809,"Ġangle":6810,"Ġexplain":6811,"Ġvisited":6812,"mostat":6813,"Ġthermostat":6814,"Ġhl":6815,"Ġresizable":6816,"Ġstateless":6817,"Ġsmb":6818,"45":6819,"Ġpie":6820,"Ġdag":6821,"Ġexprent":6822,"Ġspot":6823,"Ġattachments":6824,"author":6825,"Ġdiscri":6826,"Ġfuzzy":6827,"mpo":6828,"cons":6829,"Ġtopolog":6830,"Ġdbrprogress":6831,"Ġidempo":6832,"anged":6833,"Ġfos":6834,"Ġtemperature":6835,"policy":6836,"Ġstderr":6837,"Ġvarbinary":6838,"Ġjaxrs":6839,"Ġcaffeine":6840,"Ġocean":6841,"Ġbolts":6842,"hand":6843,"Ġdatat":6844,"Ġgets":6845,"Ġyah":6846,"Ġsolver":6847,"Ġyahoo":6848,"Ġrib":6849,"Ġstall":6850,"ssage":6851,"Ġbundled":6852,"Ġcy":6853,"Ġcord":6854,"Ġunified":6855,"Ġsandbox":6856,"Ġbreadcr":6857,"Ġbreadcrumb":6858,"Ġearly":6859,"Ġretriever":6860,"02":6861,"Ġois":6862,"Ġhero":6863,"Ġ3000":6864,"Ġsqs":6865,"format":6866,"Ġssle":6867,"Ġfetched":6868,"Ġuploads":6869,"Ġdece":6870,"Ġmqtt":6871,"Ġinitiate":6872,"Ġjoined":6873,"Ġwdate":6874,"Ġath":6875,"Ġdisallowed":6876,"Ġ54":6877,"Ġdatetime":6878,"Ġpkt":6879,"inker":6880,"Ġkeras":6881,"Ġexponential":6882,"Ġfinalize":6883,"Ġdirectives":6884,"Ġuithread":6885,"Ġdetach":6886,"Ġinstallation":6887,"Ġaccord":6888,"Ġdos":6889,"Ġpaused":6890,"Ġattack":6891,"Ġrecalc":6892,"Ġstudent":6893,"Ġdam":6894,"111":6895,"gor":6896,"shi":6897,"Ġpreviously":6898,"Ġselective":6899,"Ġpled":6900,"bucket":6901,"Ġ49":6902,"Ġbreaks":6903,"Ġ1001":6904,"Ġshows":6905,"Ġtransformers":6906,"Ġdragged":6907,"Ġnpp":6908,"ina":6909,"stance":6910,"Ġdatatype":6911,"Ġpwd":6912,"remo":6913,"Ġsuggestions":6914,"60":6915,"olor":6916,"31":6917,"Ġmoving":6918,"Ġmultiplex":6919,"Ġiris":6920,"Ġlitho":6921,"Ġunbound":6922,"Ġforwarded":6923,"ingu":6924,"Ġfsn":6925,"knife":6926,"Ġarm":6927,"serializer":6928,"racked":6929,"Ġprep":6930,"Ġjars":6931,"Ġ456":6932,"Ġplatforms":6933,"Ġjframe":6934,"Ġuc":6935,"Ġfonts":6936,"effect":6937,"kin":6938,"Ġsex":6939,"Ġgrab":6940,"Ġcsrf":6941,"Ġsolr":6942,"Ġquantile":6943,"Ġannoun":6944,"Ġalternative":6945,"effects":6946,"Ġtracks":6947,"Ġscheduling":6948,"Ġextracting":6949,"ho":6950,"Ġcros":6951,"Ġeli":6952,"Ġ120":6953,"Ġomemo":6954,"Ġdiscriminator":6955,"Ġcrosst":6956,"Ġgetxxxmethodnamexxx":6957,"Ġunmarshal":6958,"Ġrelationships":6959,"Ġcum":6960,"79":6961,"Ġrr":6962,"Ġmina":6963,"Ġcmdline":6964,"48":6965,"Ġchine":6966,"Ġups":6967,"Ġisolation":6968,"Ġhtable":6969,"Ġchinese":6970,"Ġwhether":6971,"Ġknows":6972,"Ġslobrok":6973,"aged":6974,"Ġatn":6975,"Ġuncomp":6976,"Ġentered":6977,"Ġnoside":6978,"Ġwaiter":6979,"Ġnosideeffects":6980,"Ġsocial":6981,"Ġthrottle":6982,"Ġinfinite":6983,"Ġbutterknife":6984,"Ġdecelerate":6985,"Ġbio":6986,"dest":6987,"Ġholo":6988,"Ġbub":6989,"Ġexpectation":6990,"Ġparticipants":6991,"Ġutiliz":6992,"Ġstaging":6993,"seque":6994,"Ġ333":6995,"Ġperiods":6996,"elly":6997,"Ġconfid":6998,"Ġitr":6999,"operation":7000,"Ġdeni":7001,"Ġexpecting":7002,"Ġactivated":7003,"Ġdenied":7004,"Ġregression":7005,"Ġoutline":7006,"Ġoffering":7007,"Ġsanity":7008,"Ġframeworks":7009,"prise":7010,"Ġdictionaries":7011,"Ġoidc":7012,"Ġrndr":7013,"Ġexcept":7014,"Ġclassic":7015,"Ġfc":7016,"Ġenterprise":7017,"Ġarchives":7018,"Ġforecast":7019,"Ġmu":7020,"Ġincomplete":7021,"Ġeff":7022,"Ġtrying":7023,"Ġqux":7024,"Ġabbre":7025,"Ġspatial":7026,"Ġtriggers":7027,"Ġcollapsed":7028,"Ġscanners":7029,"Ġinfluenc":7030,"Ġconsumers":7031,"Ġbubble":7032,"Ġot":7033,"Ġvoc":7034,"Ġtransmit":7035,"Ġextractors":7036,"Ġmonthly":7037,"Ġnal":7038,"Ġtransf":7039,"Ġprotocols":7040,"Ġsharing":7041,"Ġitranslation":7042,"Ġasdf":7043,"Ġaccumulo":7044,"Ġaccording":7045,"Ġaff":7046,"Ġkick":7047,"Ġfaster":7048,"Ġrmcontext":7049,"Ġintrins":7050,"Ġtun":7051,"Ġpara":7052,"uard":7053,"Ġattempted":7054,"Ġdatabus":7055,"Ġ89":7056,"message":7057,"Ġtinker":7058,"Ġskeleton":7059,"nn":7060,"Ġmeaning":7061,"Ġcollaps":7062,"Ġcollapsing":7063,"zn":7064,"Ġpolling":7065,"Ġwanted":7066,"dl":7067,"iable":7068,"Ġdword":7069,"Ġcha":7070,"Ġamendable":7071,"Ġbon":7072,"Ġqualification":7073,"Ġdepends":7074,"Ġcircles":7075,"Ġjcombo":7076,"cula":7077,"sce":7078,"Ġnar":7079,"Ġtoget":7080,"Ġunparse":7081,"Ġehcache":7082,"Ġoglobal":7083,"Ġdarcula":7084,"Ġtogether":7085,"Ġmoshi":7086,"Ġboy":7087,"Ġql":7088,"Ġef":7089,"Ġdpt":7090,"Ġbv":7091,"illian":7092,"asing":7093,"Ġelli":7094,"Ġconnectors":7095,"iguous":7096,"odb":7097,"Ġchron":7098,"Ġpainter":7099,"Ġintegers":7100,"ova":7101,"Ġrenamer":7102,"Ġautomatically":7103,"river":7104,"Ġshop":7105,"Ġnavigator":7106,"Ġtiling":7107,"Ġsuperuser":7108,"Ġcbc":7109,"anguage":7110,"Ġlegend":7111,"uring":7112,"Ġgid":7113,"Ġwebh":7114,"Ġisolated":7115,"rm":7116,"html":7117,"Ġjdisc":7118,"Ġtrades":7119,"Ġidempotent":7120,"ransfer":7121,"Ġreturning":7122,"activity":7123,"Ġlengths":7124,"Ġscala":7125,"Ġscanning":7126,"tie":7127,"Ġconve":7128,"Ġtagger":7129,"Ġlottie":7130,"cont":7131,"0000000000000000":7132,"Ġcordova":7133,"sen":7134,"Ġtransp":7135,"iro":7136,"Ġult":7137,"Ġsile":7138,"Ġgadget":7139,"Ġoth":7140,"Ġrdd":7141,"Ġplaceholders":7142,"Ġcontrolled":7143,"Ġsvc":7144,"Ġstripped":7145,"zer":7146,"Ġinverse":7147,"posed":7148,"nced":7149,"Ġndk":7150,"Ġwea":7151,"Ġserializers":7152,"56789":7153,"waf":7154,"Ġban":7155,"Ġanything":7156,"Ġsynchronize":7157,"Ġawswaf":7158,"Ġcloudsize":7159,"Ġnvarchar":7160,"Ġintermediate":7161,"Ġtokenize":7162,"stable":7163,"Ġrero":7164,"ortion":7165,"Ġdates":7166,"Ġfsource":7167,"Ġreroute":7168,"types":7169,"Ġassisted":7170,"Ġonboard":7171,"Ġblocker":7172,"Ġexplan":7173,"Ġsilent":7174,"Ġaccessing":7175,"Ġvalign":7176,"Ġkept":7177,"Ġcertificates":7178,"Ġproposal":7179,"Ġtess":7180,"Ġtlp":7181,"Ġsummaries":7182,"Ġxsd":7183,"Ġchaos":7184,"Ġothers":7185,"Ġnid":7186,"Ġglow":7187,"Ġteam":7188,"Ġedits":7189,"xception":7190,"Ġ101":7191,"Ġlbl":7192,"Ġxhtml":7193,"Ġauthenticate":7194,"Ġdub":7195,"Ġfluent":7196,"Ġmaterialized":7197,"Ġpurpo":7198,"Ġcognito":7199,"Ġopening":7200,"Ġcanonic":7201,"access":7202,"Ġaccesser":7203,"Ġdrawing":7204,"Ġinstantiable":7205,"Ġsleeper":7206,"Ġassess":7207,"Ġamzn":7208,"Ġcoalesce":7209,"wx":7210,"Ġbracket":7211,"Ġpct":7212,"Ġprfx":7213,"Ġcolumnalias":7214,"Ġqbjoin":7215,"Ġdubbo":7216,"Ġenough":7217,"Ġuv":7218,"ides":7219,"Ġmade":7220,"Ġarity":7221,"oney":7222,"Ġldaptest":7223,"Ġproduced":7224,"address":7225,"Ġtclass":7226,"Ġhp":7227,"Ġtell":7228,"Ġseem":7229,"Ġconnecting":7230,"Ġmcf":7231,"Ġdevelop":7232,"Ġprecomputed":7233,"Ġretrying":7234,"Ġprediction":7235,"Ġdie":7236,"Ġprojections":7237,"Ġnetscape":7238,"Ġsignific":7239,"Ġinstaller":7240,"Ġnotes":7241,"oolean":7242,"Ġbear":7243,"Ġvarying":7244,"Ġclustered":7245,"Ġexpectations":7246,"button":7247,"ral":7248,"ors":7249,"Ġiwork":7250,"Ġassum":7251,"Ġinfinity":7252,"Ġawb":7253,"Ġanimations":7254,"Ġissu":7255,"Ġclang":7256,"Ġescaper":7257,"cz":7258,"Ġsubs":7259,"Ġdepart":7260,"Ġprepend":7261,"Ġuis":7262,"Ġestimator":7263,"Ġcrosstool":7264,"block":7265,"Ġfj":7266,"rom":7267,"Ġfetching":7268,"ised":7269,"Ġvoice":7270,"Ġ0000":7271,"Ġsaving":7272,"Ġallows":7273,"Ġtouchable":7274,"Ġconcaten":7275,"bj":7276,"Ġmms":7277,"Ġhashtag":7278,"Ġgrp":7279,"Ġpassing":7280,"Ġinterpret":7281,"ngine":7282,"Ġmaterials":7283,"Ġnowrap":7284,"Ġaccent":7285,"Ġtan":7286,"ags":7287,"Ġrestlet":7288,"Ġsupervisors":7289,"Ġddl":7290,"jk":7291,"Ġindi":7292,"Ġdecorate":7293,"Ġnature":7294,"Ġbk":7295,"Ġoverview":7296,"Ġuncompressed":7297,"Ġposts":7298,"Ġderef":7299,"Ġbcluster":7300,"Ġexecuter":7301,"Ġautoc":7302,"Ġinterpolation":7303,"Ġbias":7304,"Ġchk":7305,"Ġaccounting":7306,"Ġretained":7307,"Ġblobs":7308,"Ġmoney":7309,"quet":7310,"Ġlistening":7311,"Ġassessment":7312,"Ġlatitude":7313,"Ġexpose":7314,"Ġutilization":7315,"Ġmongodb":7316,"Ġdisconnected":7317,"Ġmll":7318,"Ġwho":7319,"Ġminim":7320,"46":7321,"stest":7322,"ces":7323,"Ġjsdoc":7324,"ilation":7325,"Ġpluggable":7326,"peri":7327,"vered":7328,"Ġ09":7329,"Ġsuppression":7330,"Ġ100000":7331,"Ġnanoseconds":7332,"gorian":7333,"Ġproxied":7334,"Ġautowire":7335,"Ġcnode":7336,"Ġmqp":7337,"Ġgbdevice":7338,"instruction":7339,"pool":7340,"Ġremember":7341,"Ġajp":7342,"ubj":7343,"Ġexperi":7344,"Ġqprofile":7345,"quillian":7346,"Ġarquillian":7347,"Ġtraver":7348,"Ġconsul":7349,"Ġdownstream":7350,"Ġacknowledge":7351,"num":7352,"Ġcomparing":7353,"Ġsqlexpr":7354,"Ġiot":7355,"Ġmoon":7356,"Ġrepet":7357,"Ġsteal":7358,"kv":7359,"Ġmojo":7360,"Ġsmtp":7361,"Ġactivemq":7362,"Ġjoystick":7363,"Ġupsert":7364,"rens":7365,"Ġaccessed":7366,"fin":7367,"Ġboxed":7368,"Ġunacked":7369,"Ġrecre":7370,"Ġspice":7371,"comment":7372,"Ġrfc":7373,"ores":7374,"Ġstages":7375,"xffffffff":7376,"Ġlayered":7377,"Ġcompressor":7378,"Ġribbon":7379,"Ġemployees":7380,"reference":7381,"dem":7382,"Ġfar":7383,"Ġger":7384,"Ġvib":7385,"Ġbinstance":7386,"Ġpem":7387,"Ġdde":7388,"Ġbullet":7389,"Ġtessell":7390,"Ġsslengine":7391,"Ġcaught":7392,"alized":7393,"king":7394,"Ġfan":7395,"Ġpv":7396,"Ġhue":7397,"Ġignoring":7398,"Ġsignum":7399,"Ġbids":7400,"Ġfw":7401,"Ġrevisions":7402,"0000000":7403,"Ġbuy":7404,"astic":7405,"pable":7406,"Ġhack":7407,"Ġbeer":7408,"Ġinterest":7409,"Ġran":7410,"99999999":7411,"Ġjr":7412,"Ġsole":7413,"Ġstubs":7414,"Ġmasks":7415,"Ġradii":7416,"Ġmodifications":7417,"Ġwan":7418,"Ġaborted":7419,"Ġdialogs":7420,"Ġomapping":7421,"Ġreloadable":7422,"ansion":7423,"87":7424,"zcz":7425,"Ġzale":7426,"wszcz":7427,"Ġquietly":7428,"Ġzalewszcz":7429,"Ġzalewszczak":7430,"bill":7431,"Ġoident":7432,"Ġowners":7433,"Ġcerts":7434,"Ġahc":7435,"Ġcnx":7436,"Ġbeacon":7437,"Ġexceptional":7438,"Ġcounted":7439,"Ġgrouper":7440,"Ġexplanation":7441,"rich":7442,"Ġexpansion":7443,"Ġspouse":7444,"ium":7445,"Ġsignatures":7446,"Ġaug":7447,"Ġaudi":7448,"Ġjaxbcontext":7449,"Ġncols":7450,"Ġmar":7451,"Ġparens":7452,"Ġwaveform":7453,"Ġabortable":7454,"Ġul":7455,"iter":7456,"Ġcasc":7457,"esome":7458,"Ġclickable":7459,"expression":7460,"Ġsnake":7461,"nel":7462,"Ġrevalidate":7463,"Ġmodbus":7464,"Ġtape":7465,"Ġray":7466,"Ġminions":7467,"Ġdupe":7468,"Ġdecoding":7469,"Ġunload":7470,"Ġ999":7471,"Ġescaped":7472,"Ġbouncy":7473,"Ġultimate":7474,"Ġclassification":7475,"Ġobservers":7476,"Ġcorrespon":7477,"Ġdeclarer":7478,"Ġocc":7479,"Ġproxies":7480,"Ġum":7481,"Ġwriting":7482,"Ġprovisioning":7483,"Ġkvs":7484,"Ġnsubj":7485,"Ġmutator":7486,"Ġnutch":7487,"Ġintersection":7488,"Ġmonitors":7489,"Ġchangeset":7490,"81":7491,"Ġxfer":7492,"Ġnop":7493,"Ġsso":7494,"Ġrss":7495,"Ġinitializers":7496,"Ġideal":7497,"Ġhappens":7498,"Ġmuc":7499,"Ġabstraction":7500,"Ġdurations":7501,"Ġpulse":7502,"Ġfqn":7503,"Ġbanner":7504,"amma":7505,"Ġpainting":7506,"Ġcategorical":7507,"001":7508,"Ġobservables":7509,"Ġeph":7510,"Ġreplacements":7511,"Ġalbums":7512,"Ġturn":7513,"Ġaix":7514,"Ġtranslu":7515,"Ġawesome":7516,"Ġdlm":7517,"Ġllvm":7518,"Ġtakes":7519,"imer":7520,"Ġpasses":7521,"Ġindentation":7522,"Ġartists":7523,"sum":7524,"vised":7525,"wxr":7526,"bject":7527,"ames":7528,"aplayer":7529,"Ġmediaplayer":7530,"Ġkil":7531,"Ġartwork":7532,"Ġpickle":7533,"Ġgerman":7534,"channel":7535,"Ġdiffable":7536,"Ġsoftbody":7537,"Ġxb":7538,"Ġalgorithms":7539,"Ġkillbill":7540,"Ġomnibox":7541,"level":7542,"Ġcoditions":7543,"transform":7544,"Ġzkwatcher":7545,"fc":7546,"Ġdungeon":7547,"Ġthough":7548,"Ġqueriable":7549,"Ġautomation":7550,"Ġram":7551,"Ġgetenv":7552,"Ġgrace":7553,"Ġnamer":7554,"Ġwik":7555,"Ġxyz":7556,"Ġrollover":7557,"Ġnoise":7558,"lexception":7559,"Ġ222":7560,"Ġjlist":7561,"Ġcapable":7562,"Ġdbpdata":7563,"Ġnotation":7564,"Ġjsonserializer":7565,"Ġsplitters":7566,"Ġmarkdown":7567,"Ġapproved":7568,"Ġranking":7569,"Ġnclass":7570,"emer":7571,"atern":7572,"Ġapprox":7573,"Ġchrono":7574,"Ġiresource":7575,"Ġvault":7576,"Ġdbobject":7577,"Ġcommons":7578,"Ġdrm":7579,"acted":7580,"bab":7581,"Ġtid":7582,"Ġjames":7583,"Ġxmle":7584,"Ġhls":7585,"Ġetag":7586,"json":7587,"Ġfiled":7588,"Ġlaf":7589,"Ġspecular":7590,"Ġglobals":7591,"Ġintrospected":7592,"west":7593,"Ġtez":7594,"Ġuic":7595,"Ġnorthwest":7596,"Ġephemer":7597,"Ġwindowing":7598,"Ġpetite":7599,"Ġhashed":7600,"Ġauthors":7601,"Ġfg":7602,"Ġexecutions":7603,"pecified":7604,"Ġtransferred":7605,"Ġrecipe":7606,"Ġdecom":7607,"Ġgridy":7608,"Ġiinstruction":7609,"Ġ77":7610,"Ġtransferable":7611,"Ġtraverser":7612,"alloc":7613,"Ġgetting":7614,"chastic":7615,"Ġbeat":7616,"Ġstochastic":7617,"Ġreloc":7618,"Ġstre":7619,"Ġindexable":7620,"Ġgridx":7621,"Ġbreadcrumbs":7622,"Ġrely":7623,"Ġstride":7624,"Ġterrain":7625,"Ġnui":7626,"Ġquatern":7627,"Ġcpro":7628,"Ġproducers":7629,"Ġeps":7630,"Ġflash":7631,"Ġarenas":7632,"Ġpu":7633,"Ġjt":7634,"Ġneigh":7635,"Ġgoal":7636,"Ġcards":7637,"Ġnarrow":7638,"rim":7639,"Ġdbs":7640,"Ġmovement":7641,"Ġtriggered":7642,"Ġprincipals":7643,"Ġtbase":7644,"irection":7645,"91":7646,"sto":7647,"Ġasks":7648,"Ġshorten":7649,"Ġidde":7650,"Ġcondom":7651,"Ġsynchronous":7652,"Ġipro":7653,"obj":7654,"Ġtaken":7655,"Ġjnienv":7656,"Ġded":7657,"changed":7658,"Ġouts":7659,"Ġ600":7660,"job":7661,"lower":7662,"Ġdecry":7663,"Ġfavicon":7664,"Ġunbind":7665,"Ġinferred":7666,"Ġswift":7667,"Ġcloneable":7668,"Ġrgba":7669,"Ġreflective":7670,"Ġinverted":7671,"Ġdatastore":7672,"Ġaband":7673,"Ġ85":7674,"Ġmacros":7675,"Ġxoffset":7676,"Ġitself":7677,"Ġwallpa":7678,"Ġrequiring":7679,"laimer":7680,"Ġchalle":7681,"Ġvalued":7682,"Ġbuilds":7683,"Ġdisclaimer":7684,"Ġdiscrete":7685,"cached":7686,"Ġadminist":7687,"Ġaccelerate":7688,"Ġcbo":7689,"emption":7690,"Ġdbexception":7691,"Ġconvertable":7692,"Ġsigning":7693,"Ġintrinsic":7694,"ininess":7695,"Ġshininess":7696,"Ġoccurs":7697,"where":7698,"Ġidl":7699,"Ġexported":7700,"Ġdisplayed":7701,"Ġdurability":7702,"Ġmllp":7703,"Ġbitrate":7704,"5626":7705,"Ġtranslucent":7706,"varchar":7707,"builder":7708,"Ġelection":7709,"Ġanimal":7710,"Ġvectorized":7711,"wo":7712,"Ġpassert":7713,"Ġcrl":7714,"wh":7715,"Ġhab":7716,"aps":7717,"Ġsaver":7718,"Ġwhitebox":7719,"Ġsoftware":7720,"Ġsanit":7721,"nge":7722,"xml":7723,"Ġregistrations":7724,"Ġever":7725,"Ġbez":7726,"Ġaggregations":7727,"Ġoptimistic":7728,"188":7729,"input":7730,"Ġmip":7731,"Ġxattr":7732,"Ġsubquery":7733,"Ġowned":7734,"Ġtranscoder":7735,"akpoint":7736,"Ġcoordinate":7737,"Ġencrypt":7738,"rl":7739,"Ġipc":7740,"Ġcontinu":7741,"Ġavoidance":7742,"Ġimmediately":7743,"Ġneighb":7744,"Ġbiome":7745,"Ġdecommission":7746,"main":7747,"Ġarri":7748,"Ġioe":7749,"Ġnormally":7750,"Ġlongitude":7751,"Ġconverting":7752,"Ġtriple":7753,"Ġghost":7754,"Ġrl":7755,"Ġgreed":7756,"Ġrestarting":7757,"62":7758,"Ġcdi":7759,"Ġjit":7760,"Ġxbre":7761,"Ġ777":7762,"Ġ8192":7763,"Ġxbreakpoint":7764,"Ġbz":7765,"Ġmyb":7766,"Ġsynced":7767,"pendent":7768,"Ġ72":7769,"Ġcool":7770,"ford":7771,"Ġabcdef":7772,"Ġescap":7773,"Ġdeact":7774,"Ġelf":7775,"Ġderby":7776,"ampling":7777,"Ġflu":7778,"Ġapns":7779,"562674":7780,"ana":7781,"Ġxmlpath":7782,"Ġconcurrently":7783,"2627":7784,"26188":7785,"Ġ5726188":7786,"56267490":7787,"262756267490":7788,"Ġ5726188262756267490":7789,"Ġnice":7790,"Ġemot":7791,"Ġannounce":7792,"irectional":7793,"Ġdegree":7794,"Ġ666":7795,"ampler":7796,"Ġvocab":7797,"Ġsku":7798,"Ġbtrace":7799,"ariable":7800,"Ġellips":7801,"Ġseems":7802,"Ġquerycache":7803,"Ġuicont":7804,"Ġminion":7805,"Ġsubscribed":7806,"Ġagents":7807,"Ġstarter":7808,"Ġgrantor":7809,"Ġmicro":7810,"Ġhop":7811,"ints":7812,"Ġcurl":7813,"Ġscrolled":7814,"Ġdetached":7815,"Ġpreprocess":7816,"Ġ38":7817,"Ġnom":7818,"Ġmvcc":7819,"gener":7820,"Ġtimeouts":7821,"Ġdropped":7822,"47":7823,"Ġrealizer":7824,"Ġlit":7825,"Ġemiss":7826,"configuration":7827,"Ġdepartment":7828,"Ġemissive":7829,"Ġpure":7830,"Ġsubversion":7831,"Ġcommits":7832,"Ġbeaker":7833,"Ġslaves":7834,"Ġlaunched":7835,"status":7836,"bage":7837,"hc":7838,"Ġglob":7839,"Ġintervals":7840,"mander":7841,"Ġaccessors":7842,"Ġjoption":7843,"dialect":7844,"Ġjcommander":7845,"Ġinstancer":7846,"Ġpsagent":7847,"Ġfive":7848,"Ġbases":7849,"Ġdelegates":7850,"Ġdescendants":7851,"Ġtopologies":7852,"Ġthrowing":7853,"Ġlowercase":7854,"Ġquaternion":7855,"Ġgreedy":7856,"uster":7857,"files":7858,"Ġcleared":7859,"Ġecd":7860,"Ġadjuster":7861,"Ġspread":7862,"Ġinvert":7863,"Ġinterner":7864,"Ġprepar":7865,"remote":7866,"with":7867,"Ġtray":7868,"Ġcos":7869,"Ġdfstest":7870,"Ġsparklines":7871,"Ġjira":7872,"Ġnclasses":7873,"ulus":7874,"ograph":7875,"Ġlightwave":7876,"Ġlegal":7877,"Ġbezier":7878,"Ġcub":7879,"Ġln":7880,"Ġlets":7881,"Ġsockets":7882,"Ġunspecified":7883,"mb":7884,"Ġsei":7885,"Ġsqldialect":7886,"Ġshiro":7887,"Ġchangelist":7888,"Ġcombobox":7889,"Ġenhancer":7890,"63":7891,"Ġrelevant":7892,"ecl":7893,"Ġcouldnt":7894,"pn":7895,"Ġexps":7896,"ucumber":7897,"Ġfunded":7898,"rator":7899,"aris":7900,"Ġoo":7901,"Ġoclass":7902,"Ġtestdata":7903,"Ġisa":7904,"Ġurlconnection":7905,"Ġbearer":7906,"Ġsib":7907,"Ġfollower":7908,"Ġenforcer":7909,"Ġchallenge":7910,"43":7911,"Ġach":7912,"Ġlift":7913,"Ġek":7914,"Ġcab":7915,"Ġincr":7916,"Ġbadlog":7917,"Ġoverriden":7918,"Ġcoordination":7919,"Ġprovisional":7920,"Ġlmask":7921,"Ġak":7922,"Ġvariation":7923,"Ġequivalent":7924,"Ġpig":7925,"Ġkra":7926,"Ġslime":7927,"Ġdidn":7928,"Ġtld":7929,"Ġamp":7930,"Ġrequester":7931,"Ġ37":7932,"Ġsimulate":7933,"Ġuicontroller":7934,"template":7935,"Ġkdc":7936,"Ġbos":7937,"Ġchains":7938,"Ġpreloaded":7939,"Ġazk":7940,"800000":7941,"Ġmemo":7942,"Ġcompiles":7943,"Ġperiodic":7944,"Ġgles":7945,"Ġended":7946,"Ġamod":7947,"Ġecmas":7948,"Ġtrimmed":7949,"Ġeffort":7950,"Ġecmascript":7951,"Ġdropdown":7952,"Ġeur":7953,"istent":7954,"Ġwallets":7955,"Ġcprofile":7956,"Ġthet":7957,"Ġyel":7958,"Ġiocontent":7959,"Ġfsutils":7960,"Ġosource":7961,"Ġmine":7962,"Ġacceler":7963,"Ġpledged":7964,"Ġquantiles":7965,"Ġyellow":7966,"Ġopens":7967,"Ġplex":7968,"Ġhang":7969,"chars":7970,"Ġetracked":7971,"Ġstanford":7972,"Ġcucumber":7973,"Ġstrt":7974,"Ġuk":7975,"bcolor":7976,"ariant":7977,"Ġmybatis":7978,"Ġpla":7979,"Ġreporting":7980,"weight":7981,"Ġcapturing":7982,"Ġdecrement":7983,"Ġnick":7984,"Ġblobstore":7985,"Ġassumption":7986,"Ġ252":7987,"Ġjboolean":7988,"Ġreliable":7989,"Ġpq":7990,"Ġblend":7991,"from":7992,"Ġpopulator":7993,"Ġcorp":7994,"Ġlandscape":7995,"Ġsharded":7996,"066":7997,"coded":7998,"omial":7999,"shift":8000,"wk":8001,"Ġtar":8002,"tings":8003,"admin":8004,"Ġdatabases":8005,"Ġsigma":8006,"Ġlbf":8007,"Ġrippler":8008,"Ġjh":8009,"quid":8010,"viation":8011,"ieve":8012,"Ġsubmitter":8013,"Ġjmctx":8014,"Ġnok":8015,"Ġprune":8016,"Ġjaas":8017,"Ġchmod":8018,"Ġcant":8019,"Ġsinks":8020,"theses":8021,"oke":8022,"Ġreconnection":8023,"chat":8024,"Ġtoler":8025,"Ġmbus":8026,"Ġrewrit":8027,"Ġgau":8028,"Ġsieves":8029,"Ġbidirectional":8030,"cluster":8031,"Ġsma":8032,"ams":8033,"Ġattribs":8034,"Ġsmack":8035,"Ġdecorated":8036,"Ġrounded":8037,"Ġgarbage":8038,"51":8039,"bing":8040,"Ġdelimited":8041,"Ġemoticon":8042,"iri":8043,"Ġjroot":8044,"ogiri":8045,"Ġnokogiri":8046,"67":8047,"Ġjmenu":8048,"Ġmis":8049,"Ġheld":8050,"Ġbsq":8051,"Ġmeth":8052,"Ġcalle":8053,"factory":8054,"Ġdirectly":8055,"Ġcoinbase":8056,"Ġsdecl":8057,"Ġabsolut":8058,"Ġoptimizations":8059,"Ġachieve":8060,"hv":8061,"leter":8062,"Ġecs":8063,"Ġpublication":8064,"bok":8065,"Ġtransformations":8066,"Ġglres":8067,"124":8068,"Ġdamage":8069,"mbok":8070,"Ġreported":8071,"Ġauthn":8072,"Ġjelly":8073,"Ġfirebase":8074,"Ġdeflate":8075,"gate":8076,"Ġeb":8077,"Ġsdp":8078,"Ġarchetype":8079,"Ġintentionally":8080,"Ġetcd":8081,"unch":8082,"vial":8083,"Ġinteractor":8084,"Ġparty":8085,"Ġstructural":8086,"Ġdic":8087,"Ġstax":8088,"Ġkc":8089,"objc":8090,"Ġsz":8091,"Ġcome":8092,"Ġdbaccess":8093,"Ġsearching":8094,"Ġreflected":8095,"framework":8096,"Ġtruststore":8097,"Ġtrailer":8098,"Ġparentheses":8099,"Ġconfidence":8100,"sse":8101,"oll":8102,"Ġmemstore":8103,"Ġmargins":8104,"Ġissuer":8105,"Ġstorages":8106,"Ġjetbra":8107,"Ġjetbrains":8108,"07":8109,"div":8110,"Ġlum":8111,"Ġchans":8112,"Ġsoap":8113,"ignature":8114,"Ġreduction":8115,"Ġathen":8116,"Ġweapon":8117,"Ġhabit":8118,"Ġmth":8119,"Ġuniver":8120,"Ġhessian":8121,"Ġimportant":8122,"Ġ65":8123,"Ġcfs":8124,"Ġvote":8125,"Ġzer":8126,"grex":8127,"generator":8128,"Ġapis":8129,"coord":8130,"Ġresolving":8131,"Ġrebase":8132,"Ġlombok":8133,"Ġparquet":8134,"Ġthreadpool":8135,"Ġpayloads":8136,"execution":8137,"alk":8138,"Ġjpopup":8139,"Ġses":8140,"Ġunbinder":8141,"Ġ4000":8142,"Ġsimulator":8143,"Ġmapreduce":8144,"Ġssi":8145,"abic":8146,"Ġserve":8147,"Ġxexception":8148,"Ġ47":8149,"Ġmonday":8150,"Ġaudited":8151,"Ġmdc":8152,"Ġrevert":8153,"Ġpermut":8154,"fact":8155,"Ġiam":8156,"tend":8157,"Ġrepla":8158,"Ġmultimaps":8159,"Ġdiscoverer":8160,"Ġiab":8161,"Ġrtp":8162,"Ġtagged":8163,"cex":8164,"Ġwon":8165,"Ġtrivial":8166,"Ġfactorial":8167,"822":8168,"Ġgenerates":8169,"color":8170,"Ġdv":8171,"Ġarabic":8172,"Ġobserved":8173,"Ġdeny":8174,"Ġgadgets":8175,"Ġunbounded":8176,"Ġexpects":8177,"Ġcompanion":8178,"Ġmuch":8179,"Ġiced":8180,"beans":8181,"Ġsmaller":8182,"Ġzkmetadata":8183,"Ġwhiteboard":8184,"Ġwallpaper":8185,"Ġcontained":8186,"201":8187,"Ġime":8188,"Ġurlexception":8189,"Ġ59":8190,"Ġkraken":8191,"Ġabsolutize":8192,"Ġmeg":8193,"Ġrenderable":8194,"Ġspr":8195,"Ġworkset":8196,"Ġclosable":8197,"Ġcapit":8198,"Ġtiles":8199,"ervice":8200,"Ġnfunction":8201,"ora":8202,"iline":8203,"Ġoppo":8204,"Ġjodd":8205,"undle":8206,"Ġheadm":8207,"Ġpeak":8208,"adio":8209,"dep":8210,"Ġslices":8211,"Ġfifo":8212,"Ġdecay":8213,"Ġactivations":8214,"Ġcoded":8215,"Ġgregorian":8216,"Ġflyway":8217,"Ġopposite":8218,"Ġrequestor":8219,"Ġbare":8220,"Ġscatter":8221,"Ġgoing":8222,"Ġsemgrex":8223,"pat":8224,"Ġbw":8225,"Ġliquid":8226,"Ġheav":8227,"Ġvariations":8228,"Ġexclusion":8229,"Ġconvex":8230,"inance":8231,"Ġjbcolor":8232,"Ġscorer":8233,"Ġbog":8234,"Ġdrawables":8235,"Ġdistributor":8236,"Ġtxnid":8237,"Ġtwice":8238,"Ġcompliant":8239,"Ġpermits":8240,"Ġcite":8241,"Ġheur":8242,"Ġaverages":8243,"Ġiae":8244,"ey":8245,"qua":8246,"ialog":8247,"Ġwebflow":8248,"Ġodd":8249,"Ġparticular":8250,"Ġbogus":8251,"atile":8252,"Ġair":8253,"ctrl":8254,"Ġformctrl":8255,"Ġcursors":8256,"Ġheadmisc":8257,"Ġexpert":8258,"Ġbackups":8259,"Ġsuspendable":8260,"Ġgreeting":8261,"Ġvolatile":8262,"Ġlfu":8263,"Ġ06":8264,"Ġprevents":8265,"Ġsns":8266,"upport":8267,"resol":8268,"Ġwatched":8269,"Ġarticles":8270,"Ġpermanently":8271,"Ġverified":8272,"8800000":8273,"Ġduck":8274,"Ġcql":8275,"Ġextracted":8276,"Ġwalk":8277,"7356":8278,"Ġdoing":8279,"visitor":8280,"Ġredirects":8281,"Ġathenz":8282,"Ġedition":8283,"Ġcascade":8284,"Ġiw":8285,"Ġ20000":8286,"Ġmotan":8287,"Ġinclusive":8288,"Ġreconstruction":8289,"Ġbadlogic":8290,"Ġelt":8291,"Ġym":8292,"Ġclassname":8293,"Ġexplo":8294,"Ġbarcode":8295,"Ġtsignature":8296,"Ġtoks":8297,"Ġconfigurators":8298,"Ġgrey":8299,"request":8300,"Ġnclo":8301,"sclient":8302,"Ġncloc":8303,"wap":8304,"Ġics":8305,"Ġdial":8306,"Ġsir":8307,"Ġvalidity":8308,"Ġcw":8309,"Ġgir":8310,"Ġlongvar":8311,"Ġlongvarbinary":8312,"Ġdrawee":8313,"Ġinjections":8314,"Ġbitcoind":8315,"Ġmemcached":8316,"Ġswitcher":8317,"Ġadvised":8318,"Ġresumed":8319,"Ġoserver":8320,"Ġlmodel":8321,"Ġlingu":8322,"Ġunli":8323,"Ġnullability":8324,"Ġupdating":8325,"04":8326,"Ġcosts":8327,"Ġindependent":8328,"Ġtfunction":8329,"ald":8330,"Ġscored":8331,"Ġing":8332,"serted":8333,"Ġsupplied":8334,"Ġ888":8335,"Ġtweed":8336,"Ġbucketing":8337,"Ġtweedie":8338,"Ġnfs":8339,"Ġactivator":8340,"Ġbbb":8341,"Ġinserted":8342,"change":8343,"Ġpeers":8344,"Ġgrayscale":8345,"handler":8346,"stone":8347,"Ġresized":8348,"poss":8349,"Ġclin":8350,"Ġlinguistics":8351,"Ġise":8352,"Ġjtable":8353,"Ġchg":8354,"Ġpipelined":8355,"Ġretryable":8356,"Ġactors":8357,"ock":8358,"Ġtablet":8359,"umeric":8360,"Ġmainten":8361,"Ġsynch":8362,"Ġlooking":8363,"Ġmaintenance":8364,"lugin":8365,"versions":8366,"Ġtransmitter":8367,"Ġpreprocessor":8368,"liers":8369,"Ġjrt":8370,"Ġbuildable":8371,"Ġalibab":8372,"Ġ25200000":8373,"Ġalibaba":8374,"Ġreve":8375,"Ġunne":8376,"Ġspill":8377,"Ġdrive":8378,"1394":8379,"Ġtiled":8380,"Ġocache":8381,"Ġadjace":8382,"Ġdeveloper":8383,"Ġadjacency":8384,"kely":8385,"Ġpps":8386,"Ġ98":8387,"Ġcomparators":8388,"Ġttf":8389,"Ġconflicts":8390,"Ġffffff":8391,"Ġreveal":8392,"foo":8393,"ably":8394,"Ġpkcs":8395,"Ġthings":8396,"Ġmutate":8397,"Ġinheritor":8398,"Ġadjustment":8399,"attribute":8400,"Ġlolli":8401,"Ġsnack":8402,"Ġflusher":8403,"Ġlollipop":8404,"Ġmultif":8405,"Ġvalidating":8406,"Ġgroovydoc":8407,"center":8408,"Ġletters":8409,"Ġace":8410,"Ġthick":8411,"Ġharm":8412,"riate":8413,"Ġresin":8414,"Ġapprop":8415,"Ġreadings":8416,"Ġgetters":8417,"Ġappropriate":8418,"Ġclaus":8419,"alizable":8420,"Ġtrial":8421,"Ġredshift":8422,"Ġrevoke":8423,"Ġmultivalued":8424,"Ġitest":8425,"Ġhunk":8426,"Ġbounding":8427,"Ġxxxmethodnamexxxs":8428,"Ġnoch":8429,"mapper":8430,"Ġchips":8431,"Ġgist":8432,"Ġsequo":8433,"Ġexploded":8434,"Ġcolour":8435,"Ġdivide":8436,"Ġdecompress":8437,"Ġenforced":8438,"Ġni":8439,"Ġuimodel":8440,"Ġheavy":8441,"ertype":8442,"Ġweightx":8443,"Ġdonald":8444,"Ġweeks":8445,"39":8446,"Ġgamma":8447,"Ġgrok":8448,"Ġaway":8449,"Ġfluid":8450,"Ġnoun":8451,"Ġescaping":8452,"ym":8453,"Ġsmpp":8454,"tainer":8455,"Ġyoun":8456,"Ġstructured":8457,"Ġxfermode":8458,"dat":8459,"Ġstagger":8460,"Ġrefreshable":8461,"Ġslides":8462,"Ġzeros":8463,"Ġmf":8464,"Ġgmd":8465,"Ġlexicon":8466,"Ġudt":8467,"Ġjradio":8468,"Ġlenient":8469,"layed":8470,"Ġunderline":8471,"Ġunplayed":8472,"Ġoidentifiable":8473,"Ġaugment":8474,"Ġuserid":8475,"Ġlinker":8476,"Ġprovisioner":8477,"Ġpenn":8478,"Ġalpn":8479,"Ġokay":8480,"Ġdescendant":8481,"aster":8482,"Ġ1015":8483,"phase":8484,"Ġspringframework":8485,"gister":8486,"kers":8487,"Ġbm":8488,"Ġintercepted":8489,"quote":8490,"resolver":8491,"script":8492,"Ġinfer":8493,"Ġfeeder":8494,"aaaaaaaa":8495,"item":8496,"Ġreorder":8497,"igma":8498,"Ġ800":8499,"Ġinfluencers":8500,"hole":8501,"Ġstress":8502,"Ġintrospection":8503,"Ġrelevance":8504,"Ġiworkbench":8505,"Ġluminance":8506,"stand":8507,"Ġhk":8508,"Ġdisamb":8509,"Ġwatermarks":8510,"Ġviewers":8511,"Ġhardcoded":8512,"Ġconformity":8513,"dn":8514,"Ġstrides":8515,"Ġdoe":8516,"Ġfsimage":8517,"Ġdiffering":8518,"Ġunc":8519,"Ġsubprocess":8520,"Ġplexus":8521,"Ġthickness":8522,"Ġoverhead":8523,"Ġasg":8524,"Ġalphan":8525,"Ġloops":8526,"Ġibinder":8527,"Ġostorage":8528,"edged":8529,"Ġchapt":8530,"Ġjoins":8531,"Ġredwo":8532,"Ġrefreshed":8533,"Ġredwood":8534,"Ġaapt":8535,"Ġfffe":8536,"Ġary":8537,"Ġpasswords":8538,"Ġfsdata":8539,"Ġenumerator":8540,"707":8541,"Ġmantiss":8542,"Ġsstable":8543,"Ġsts":8544,"Ġindivid":8545,"Ġadder":8546,"Ġtreat":8547,"Ġnonces":8548,"Ġaqua":8549,"Ġappbar":8550,"Ġware":8551,"Ġsalary":8552,"Ġjlanguage":8553,"Ġinapp":8554,"arter":8555,"Ġidatabase":8556,"Ġpresto":8557,"Ġspecifier":8558,"Ġarchived":8559,"Ġeig":8560,"Ġincons":8561,"Ġexif":8562,"abling":8563,"Ġadap":8564,"Ġquit":8565,"arning":8566,"Ġservo":8567,"Ġimportance":8568,"roperty":8569,"texture":8570,"Ġgcc":8571,"Ġcorrelation":8572,"tel":8573,"Ġsizepolicy":8574,"Ġmediator":8575,"Ġinstrumentor":8576,"59":8577,"lyph":8578,"Ġhtd":8579,"Ġdumper":8580,"zei":8581,"Ġindy":8582,"Ġurlclass":8583,"Ġ60000":8584,"Ġinspect":8585,"Ġgatt":8586,"Ġsibling":8587,"pex":8588,"Ġresc":8589,"Ġremoving":8590,"Ġconvol":8591,"Ġpublished":8592,"Ġvolumes":8593,"Ġdstream":8594,"Ġnotified":8595,"Ġinsertion":8596,"Ġerase":8597,"Ġbatching":8598,"Ġeaten":8599,"Ġwidgets":8600,"Ġmuzei":8601,"Ġunchanged":8602,"ormat":8603,"Ġceil":8604,"Ġalphanumeric":8605,"Ġgmc":8606,"Ġsupposed":8607,"Ġmultiline":8608,"Ġbrokers":8609,"Ġpico":8610,"Ġredeliver":8611,"Ġunnecessary":8612,"ational":8613,"Ġprefab":8614,"Ġbroadphase":8615,"Ġrecognizer":8616,"Ġtranspiled":8617,"Ġtup":8618,"Ġrise":8619,"Ġacceptable":8620,"Ġestimate":8621,"Ġindividual":8622,"61":8623,"document":8624,"error":8625,"score":8626,"Ġaggs":8627,"property":8628,"Ġglfw":8629,"Ġmultiplexer":8630,"Ġsignificant":8631,"Ġsut":8632,"Ġuow":8633,"58":8634,"Ġcx":8635,"Ġhcolumn":8636,"Ġcorrupt":8637,"Ġexternalizer":8638,"Ġnochg":8639,"lected":8640,"Ġarraylist":8641,"Ġ39":8642,"Ġwhy":8643,"Ġduplicated":8644,"400":8645,"Ġkrb":8646,"Ġmypackage":8647,"Ġunauthor":8648,"Ġoverlaps":8649,"Ġworkbench":8650,"Ġreflector":8651,"Ġoioutils":8652,"Ġunauthorized":8653,"Ġsch":8654,"conversions":8655,"Ġproguard":8656,"Ġpartially":8657,"Ġeggs":8658,"ibly":8659,"Ġzoned":8660,"Ġlag":8661,"Ġfederated":8662,"Ġcallee":8663,"Ġpot":8664,"Ġmbeans":8665,"Ġskill":8666,"Ġcustomization":8667,"Ġyouku":8668,"Ġdevelopment":8669,"Ġmints":8670,"Ġidbi":8671,"stract":8672,"argument":8673,"Ġcreds":8674,"Ġderegister":8675,"Ġbom":8676,"Ġunf":8677,"Ġfileset":8678,"Ġbasename":8679,"Ġpoller":8680,"Ġdav":8681,"Ġpointcut":8682,"Ġtries":8683,"pub":8684,"Ġdeser":8685,"aban":8686,"Ġjgroups":8687,"background":8688,"Ġcalculated":8689,"Ġsubmitted":8690,"Ġslowlog":8691,"Ġbelong":8692,"Ġsequoia":8693,"71":8694,"Ġ30000":8695,"Ġassociations":8696,"Ġshimmer":8697,"Ġdeactivate":8698,"Ġazkaban":8699,"pron":8700,"Ġlocalizer":8701,"Ġannouncement":8702,"Ġ28800000":8703,"Ġloads":8704,"Ġsuit":8705,"Ġamrm":8706,"Ġaccumulate":8707,"Ġnclob":8708,"Ġstp":8709,"Ġlem":8710,"Ġcharts":8711,"Ġweigher":8712,"jni":8713,"Ġtel":8714,"Ġjks":8715,"Ġpointers":8716,"Ġpermitted":8717,"Ġllvmjni":8718,"Ġheuristic":8719,"illa":8720,"ung":8721,"Ġmes":8722,"its":8723,"Ġswatch":8724,"Ġlineage":8725,"erc":8726,"rep":8727,"Ġjcache":8728,"Ġlongvarchar":8729,"Ġunreachable":8730,"Ġtupli":8731,"Ġpacking":8732,"Ġconvertor":8733,"Ġnetworked":8734,"Ġprecondition":8735,"widget":8736,"ollo":8737,"Ġapollo":8738,"Ġshe":8739,"Ġpreemption":8740,"Ġjsonpath":8741,"grok":8742,"Ġoindex":8743,"Ġjal":8744,"Ġoccurred":8745,"Ġreferer":8746,"Ġfew":8747,"Ġtransitions":8748,"dsa":8749,"Ġheron":8750,"56789012345678901234":8751,"Ġjud":8752,"Ġretrieving":8753,"Ġnf":8754,"Ġselections":8755,"Ġsymbo":8756,"Ġstringlist":8757,"Ġauthorized":8758,"Ġstructlist":8759,"Ġstddev":8760,"parameters":8761,"Ġvibrate":8762,"Ġpong":8763,"Ġhf":8764,"Ġrecorded":8765,"Ġcastle":8766,"Ġdsa":8767,"Ġgaps":8768,"bytes":8769,"Ġpose":8770,"Ġatan":8771,"Ġpacker":8772,"Ġlastname":8773,"Ġtessellator":8774,"Ġstime":8775,"Ġads":8776,"Ġgrand":8777,"Ġ88":8778,"draw":8779,"Ġtty":8780,"Ġbatis":8781,"Ġstrand":8782,"Ġoriginalname":8783,"Ġgti":8784,"brid":8785,"decr":8786,"Ġincrdecr":8787,"Ġdemand":8788,"Ġcare":8789,"lity":8790,"rel":8791,"Ġmakes":8792,"Ġanalog":8793,"Ġuninit":8794,"Ġttml":8795,"Ġzipkin":8796,"Ġdisposables":8797,"Ġpunctuation":8798,"Ġdownsampler":8799,"pl":8800,"ulative":8801,"Ġanx":8802,"Ġsqlast":8803,"Ġtuples":8804,"Ġraise":8805,"Ġcglib":8806,"Ġcmap":8807,"Ġnex":8808,"Ġgf":8809,"ansform":8810,"Ġptransform":8811,"Ġauxili":8812,"Ġauxiliary":8813,"Ġbip":8814,"Ġhrs":8815,"Ġcobar":8816,"Ġscoring":8817,"Ġ46":8818,"Ġsubstitute":8819,"application":8820,"Ġpitch":8821,"Ġcustomers":8822,"Ġasttransform":8823,"Ġspanish":8824,"Ġemitted":8825,"ahead":8826,"Ġlikely":8827,"Ġellipse":8828,"Ġ1908":8829,"Ġwatches":8830,"Ġpn":8831,"Ġcheckin":8832,"Ġrecurse":8833,"Ġ8976":8834,"arder":8835,"Ġmodulus":8836,"Ġctags":8837,"proc":8838,"Ġinvokable":8839,"Ġdiscarding":8840,"Ġscrollbars":8841,"Ġtight":8842,"olaris":8843,"aves":8844,"Ġinvariant":8845,"Ġopengrok":8846,"Ġunloaded":8847,"Ġopensolaris":8848,"Ġhone":8849,"Ġwsdl":8850,"Ġsymbolic":8851,"Ġdecommissioning":8852,"Ġdelegated":8853,"Ġdem":8854,"Ġjlogger":8855,"Ġenlist":8856,"Ġsolo":8857,"Ġoctet":8858,"Ġreactor":8859,"Ġargv":8860,"ncies":8861,"Ġshipping":8862,"Ġoldest":8863,"Ġoverlapping":8864,"eme":8865,"ptive":8866,"Ġwen":8867,"endpoint":8868,"rint":8869,"Ġldapstorage":8870,"Ġpayments":8871,"Ġ444":8872,"Ġellipsize":8873,"29":8874,"Ġaver":8875,"Ġpreds":8876,"Ġthemes":8877,"Ġreplicate":8878,"Ġmqpush":8879,"Ġlr":8880,"Ġmanies":8881,"Ġyo":8882,"Ġgsy":8883,"Ġexposed":8884,"Ġlens":8885,"gester":8886,"Ġsuggester":8887,"uds":8888,"Ġmbs":8889,"Ġjsonparser":8890,"Ġstacks":8891,"Ġaligned":8892,"Ġyoung":8893,"Ġ74":8894,"Ġmatri":8895,"weet":8896,"angles":8897,"Ġroaming":8898,"Ġsubmission":8899,"Ġframed":8900,"Ġtimers":8901,"Ġrecipients":8902,"oooooooo":8903,"Ġbackers":8904,"Ġmins":8905,"Ġpatches":8906,"Ġgames":8907,"Ġmirrors":8908,"384":8909,"sect":8910,"Ġretweet":8911,"Ġ4096":8912,"Ġarbitrate":8913,"hose":8914,"xb":8915,"isms":8916,"Ġproportion":8917,"Ġfutureware":8918,"Ġmantisconnect":8919,"Ġminimize":8920,"Ġconvolution":8921,"Ġtn":8922,"Ġapex":8923,"Ġber":8924,"Ġdraggable":8925,"Ġpropagate":8926,"Ġredundant":8927,"Ġwnd":8928,"esis":8929,"Ġgenerating":8930,"Ġallocating":8931,"Ġdownloaded":8932,"Ġforeach":8933,"Ġdelimiters":8934,"Ġxbmc":8935,"Ġlar":8936,"Ġhybrid":8937,"Ġvg":8938,"Ġclamp":8939,"Ġapr":8940,"Ġintensity":8941,"Ġ524":8942,"Ġcompletions":8943,"Ġtextbackground":8944,"uccess":8945,"Ġqr":8946,"Ġuploaded":8947,"Ġreservo":8948,"transport":8949,"Ġdisambigu":8950,"Ġreservoir":8951,"Ġusable":8952,"Ġscans":8953,"Ġprefixed":8954,"Ġsites":8955,"watch":8956,"Ġunsuccess":8957,"Ġanchors":8958,"rait":8959,"Ġrestored":8960,"Ġsubstr":8961,"Ġtypical":8962,"Ġdecrease":8963,"Ġcgroup":8964,"Ġcanary":8965,"Ġapproximate":8966,"Ġflux":8967,"Ġbis":8968,"Ġgn":8969,"ulted":8970,"Ġdbg":8971,"Ġportrait":8972,"Ġiosobject":8973,"Ġincognito":8974,"lix":8975,"Ġrelax":8976,"Ġdiag":8977,"Ġorid":8978,"Ġacid":8979,"Ġzx":8980,"Ġ53":8981,"Ġautoscroll":8982,"Ġecdsa":8983,"Ġawareness":8984,"Ġdescending":8985,"Ġtoolchains":8986,"Ġmanually":8987,"Ġngram":8988,"templates":8989,"Ġtuplizer":8990,"Ġreconfig":8991,"Ġva":8992,"enc":8993,"Ġadb":8994,"Ġpatched":8995,"scan":8996,"Ġorm":8997,"Ġselecting":8998,"Ġmasterless":8999,"Ġreversedns":9000,"Ġkuz":9001,"Ġhttpclient":9002,"Ġswf":9003,"Ġalgo":9004,"Ġlexeme":9005,"define":9006,"Ġhumid":9007,"bal":9008,"Ġarcs":9009,"Ġbek":9010,"Ġfragmented":9011,"Ġchaining":9012,"Ġnsoperation":9013,"Ġmrjob":9014,"Ġacknowledged":9015,"Ġub":9016,"Ġweld":9017,"encer":9018,"Ġtimest":9019,"Ġreadme":9020,"Ġhierarchical":9021,"Ġthrottler":9022,"Ġrecon":9023,"Ġoa":9024,"Ġguide":9025,"Ġdecorators":9026,"Ġplaylists":9027,"Ġsevere":9028,"Ġhumidity":9029,"fish":9030,"Ġkms":9031,"Ġtccl":9032,"Ġaggregators":9033,"Ġinactivity":9034,"Ġrated":9035,"Ġdoor":9036,"Ġrownum":9037,"Ġafn":9038,"Ġmatter":9039,"Ġwpmain":9040,"vert":9041,"Ġsubsegment":9042,"Ġstuck":9043,"ever":9044,"Ġparal":9045,"Ġsupertype":9046,"users":9047,"Ġ522":9048,"Ġsegmented":9049,"Ġallocations":9050,"uator":9051,"Ġjj":9052,"Ġinlinelabel":9053,"Ġlocales":9054,"Ġgaz":9055,"instance":9056,"struct":9057,"Ġru":9058,"paren":9059,"Ġ555":9060,"Ġspent":9061,"Ġloopback":9062,"Ġephemeral":9063,"Ġchm":9064,"Ġ78":9065,"Ġcommitting":9066,"Ġglue":9067,"Ġbeginning":9068,"Ġbcis":9069,"rv":9070,"Ġffff":9071,"Ġworkload":9072,"Ġsni":9073,"Ġtxid":9074,"Ġescapes":9075,"Ġcumulative":9076,"stack":9077,"container":9078,"Ġfilled":9079,"Ġrunners":9080,"Ġtenancy":9081,"Ġmarshalling":9082,"Ġcontinuous":9083,"Ġarrive":9084,"Ġreplacer":9085,"Ġcompens":9086,"Ġnamesystem":9087,"oplayer":9088,"Ġips":9089,"Ġbalanced":9090,"qr":9091,"Ġwithdraw":9092,"Ġqueryexecution":9093,"Ġsecondlevel":9094,"Ġfirehose":9095,"Ġasttransformation":9096,"Ġsecondlevelcache":9097,"ids":9098,"Ġintents":9099,"Ġtxns":9100,"Ġelimin":9101,"822800000":9102,"Ġ1015822800000":9103,"Ġaest":9104,"Ġevaluated":9105,"Ġsint":9106,"Ġpf":9107,"Ġrer":9108,"Ġxcode":9109,"Ġweird":9110,"Ġadja":9111,"Ġunsuccessful":9112,"hetic":9113,"trace":9114,"Ġretval":9115,"shao":9116,"Ġconventions":9117,"Ġcanonicalization":9118,"Ġgaussian":9119,"Ġwenshao":9120,"Ġdisambiguate":9121,"Ġaesthetic":9122,"atest":9123,"Ġcamp":9124,"Ġminimap":9125,"Ġjbtable":9126,"Ġconsumption":9127,"rag":9128,"Ġgw":9129,"Ġcommerc":9130,"Ġphp":9131,"Ġpusher":9132,"Ġliterals":9133,"Ġcommercial":9134,"600":9135,"Ġae":9136,"Ġexoplayer":9137,"Ġuninter":9138,"Ġunbox":9139,"Ġfilm":9140,"Ġmission":9141,"Ġnominal":9142,"Ġoma":9143,"Ġoobject":9144,"Ġexceed":9145,"Ġdaily":9146,"nuation":9147,"Ġradix":9148,"Ġcollecting":9149,"Ġattenuation":9150,"Ġloose":9151,"Ġimprint":9152,"Ġiruby":9153,"inge":9154,"Ġhedged":9155,"Ġ3688":9156,"iser":9157,"Ġ180":9158,"Ġsolid":9159,"Ġgained":9160,"Ġeigen":9161,"Ġpersisters":9162,"Ġupgrader":9163,"tec":9164,"Ġinvit":9165,"Ġdriven":9166,"Ġquantity":9167,"Ġ525":9168,"Ġuninitialized":9169,"Ġmln":9170,"Ġjsse":9171,"Ġunmap":9172,"Ġclicks":9173,"Ġaxes":9174,"Ġspanning":9175,"Ġseparately":9176,"Ġadjacent":9177,"sity":9178,"Ġcouch":9179,"Ġblockquote":9180,"Ġgraphical":9181,"Ġlabor":9182,"compiler":9183,"Ġ136":9184,"Ġmultifactor":9185,"part":9186,"Ġdh":9187,"Ġjso":9188,"Ġcollected":9189,"Ġredire":9190,"Ġgradients":9191,"Ġparallax":9192,"Ġsmo":9193,"rams":9194,"Ġ526":9195,"Ġgoes":9196,"Ġstdin":9197,"Ġedt":9198,"Ġspeaker":9199,"Ġnfacompiler":9200,"Ġenergyper":9201,"vy":9202,"Ġhull":9203,"Ġdelim":9204,"Ġlts":9205,"Ġcommander":9206,"Ġzzz":9207,"Ġdebugging":9208,"Ġtooling":9209,"Ġredraw":9210,"Ġglobally":9211,"Ġpostgresql":9212,"Ġwebhook":9213,"orn":9214,"definition":9215,"Ġuna":9216,"Ġtenants":9217,"Ġrecomp":9218,"Ġndarray":9219,"Ġconjunction":9220,"Ġstreet":9221,"Ġlaboratory":9222,"tension":9223,"Ġhoc":9224,"Ġliqui":9225,"Ġrmap":9226,"Ġdisconf":9227,"Ġsuppliers":9228,"Ġpartitionname":9229,"Ġopr":9230,"Ġgcm":9231,"Ġjrtconfig":9232,"due":9233,"Ġaab":9234,"Ġthash":9235,"Ġzn":9236,"coin":9237,"ruption":9238,"Ġmutability":9239,"tevent":9240,"Ġsetxxxmethodnamexxx":9241,"Ġjz":9242,"Ġpaid":9243,"Ġdiagram":9244,"Ġexisted":9245,"Ġokbutton":9246,"Ġosb":9247,"how":9248,"pre":9249,"Ġitid":9250,"Ġaliasing":9251,"Ġadvertised":9252,"Ġfis":9253,"Ġconll":9254,"Ġdescriptive":9255,"six":9256,"Ġita":9257,"Ġsnapshotter":9258,"atives":9259,"Ġwand":9260,"msg":9261,"Ġsuitable":9262,"Ġpsk":9263,"Ġmarch":9264,"Ġtablespace":9265,"Ġdbn":9266,"Ġtenured":9267,"Ġ523":9268,"Ġfourth":9269,"Ġlarger":9270,"Ġitalic":9271,"hr":9272,"matic":9273,"inity":9274,"Ġwd":9275,"Ġmessager":9276,"Ġsingletons":9277,"Ġundec":9278,"Ġraft":9279,"Ġjbcheck":9280,"Ġrecursively":9281,"Ġtheta":9282,"number":9283,"Ġsse":9284,"Ġtro":9285,"Ġdvs":9286,"ica":9287,"Ġroutine":9288,"Ġtravel":9289,"Ġ102":9290,"Ġexistent":9291,"Ġcorrection":9292,"Ġ521":9293,"hash":9294,"orrow":9295,"Ġtomorrow":9296,"Ġpropagation":9297,"Ġcorresponding":9298,"Ġunivers":9299,"pel":9300,"Ġoverdue":9301,"Ġfoofoo":9302,"Ġdisplayer":9303,"Ġiproject":9304,"inte":9305,"Ġnavigable":9306,"Ġtck":9307,"Ġnrow":9308,"Ġgct":9309,"Ġbins":9310,"Ġtrimm":9311,"Ġcubic":9312,"sexception":9313,"Ġwb":9314,"Ġposix":9315,"Ġjdt":9316,"Ġenums":9317,"Ġfaces":9318,"Ġoverloaded":9319,"Ġsnackbar":9320,"lext":9321,"Ġorigins":9322,"neg":9323,"Ġ140":9324,"Ġstock":9325,"month":9326,"lated":9327,"Ġbda":9328,"aby":9329,"Ġacqu":9330,"maker":9331,"Ġqp":9332,"compilation":9333,"Ġtightness":9334,"Ġfml":9335,"Ġdataflow":9336,"Ġtimeser":9337,"Ġunsorted":9338,"Ġpeep":9339,"Ġsyncer":9340,"Ġsuffixes":9341,"Ġencryptor":9342,"Ġtimeseries":9343,"Ġami":9344,"Ġcopier":9345,"Ġgri":9346,"Ġqs":9347,"Ġpeephole":9348,"xc":9349,"Ġ1999":9350,"Ġrdb":9351,"omain":9352,"Ġlocker":9353,"ghi":9354,"nds":9355,"Ġcaused":9356,"Ġprobably":9357,"house":9358,"Ġmantissa":9359,"men":9360,"Ġprp":9361,"Ġstacktrace":9362,"Ġapproach":9363,"Ġclauses":9364,"Ġnegotiator":9365,"Ġxtree":9366,"Ġchronology":9367,"38":9368,"eline":9369,"ulti":9370,"Ġsaw":9371,"Ġregional":9372,"Ġclaims":9373,"Ġtimestam":9374,"Ġmad":9375,"Ġhv":9376,"Ġshingle":9377,"ampled":9378,"Ġheading":9379,"Ġunsampled":9380,"patterns":9381,"Ġ885":9382,"Ġbatcher":9383,"Ġrefreshing":9384,"Ġfinishing":9385,"lify":9386,"Ġbvh":9387,"Ġuniversal":9388,"Ġtimestamped":9389,"52":9390,"atical":9391,"Ġdagger":9392,"Ġoet":9393,"Ġtypename":9394,"Ġanon":9395,"Ġappwidget":9396,"Ġcurtain":9397,"Ġmainnet":9398,"Ġrestrict":9399,"Ġmesos":9400,"Ġcriterion":9401,"Ġweighty":9402,"Ġadjustments":9403,"Ġrepetitions":9404,"Ġrela":9405,"quee":9406,"Ġredefine":9407,"Ġgates":9408,"Ġpapp":9409,"Ġcores":9410,"Ġsentences":9411,"Ġpapplet":9412,"Ġitype":9413,"Ġreplicator":9414,"Ġphases":9415,"Ġproxim":9416,"kt":9417,"Ġvim":9418,"Ġcalculating":9419,"Ġcoercer":9420,"Ġsct":9421,"lice":9422,"Ġnullness":9423,"Ġseper":9424,"Ġlaz":9425,"Ġsignin":9426,"Ġsymmetric":9427,"Ġquoting":9428,"Ġnuim":9429,"Ġsaturation":9430,"Ġreach":9431,"lause":9432,"Ġroc":9433,"Ġsubseque":9434,"Ġstepper":9435,"Ġtrg":9436,"Ġxn":9437,"Ġremover":9438,"ycomb":9439,"Ġdisruption":9440,"Ġistub":9441,"Ġhoneycomb":9442,"Ġproximity":9443,"Ġdang":9444,"Ġlinger":9445,"entity":9446,"Ġbaid":9447,"Ġurle":9448,"Ġzkutil":9449,"Ġscores":9450,"tone":9451,"Ġ8707":9452,"Ġsslsession":9453,"Ġrtmp":9454,"Ġringtone":9455,"Ġconsidered":9456,"nap":9457,"ern":9458,"Ġugi":9459,"Ġze":9460,"Ġgraphs":9461,"Ġmechanisms":9462,"Ġparenth":9463,"Ġgold":9464,"Ġparame":9465,"Ġua":9466,"Ġawtevent":9467,"Ġlazily":9468,"learning":9469,"vey":9470,"Ġxl":9471,"ncer":9472,"Ġclosest":9473,"Ġwaited":9474,"Ġnnz":9475,"Ġdeeplearning":9476,"Ġtexcoord":9477,"Ġshortest":9478,"Ġlightsail":9479,"Ġdebt":9480,"Ġtook":9481,"Ġcatal":9482,"Ġ130":9483,"Ġverbosity":9484,"Ġhashcode":9485,"Ġmustache":9486,"argest":9487,"Ġworkgroup":9488,"Ġagree":9489,"Ġbugs":9490,"Ġconformance":9491,"Ġtanh":9492,"Ġsash":9493,"Ġcdf":9494,"Ġix":9495,"scanner":9496,"Ġerrorpron":9497,"Ġstoring":9498,"Ġinterpolated":9499,"Ġsquared":9500,"Ġunrelated":9501,"Ġerrorprone":9502,"writ":9503,"Ġmeasurement":9504,"Ġcriterium":9505,"Ġindicators":9506,"Ġvcores":9507,"Ġ8859":9508,"Ġnchar":9509,"Ġrex":9510,"Ġoling":9511,"Ġdbv":9512,"Ġbars":9513,"Ġ2011":9514,"Ġholding":9515,"Ġ6912":9516,"Ġolingo":9517,"Ġmmap":9518,"Ġlargest":9519,"Ġhstore":9520,"Ġsqlprovider":9521,"Ġlocally":9522,"Ġtranscript":9523,"Ġpurpose":9524,"Ġreview":9525,"Ġheat":9526,"Ġsequences":9527,"Ġscreenname":9528,"Ġgpio":9529,"Ġinclusion":9530,"Ġakka":9531,"Ġrewriters":9532,"37":9533,"named":9534,"xtransfer":9535,"Ġlockid":9536,"Ġincident":9537,"Ġdescent":9538,"Ġmatrixtransfer":9539,"pi":9540,"ypt":9541,"Ġdob":9542,"Ġregistries":9543,"Ġchosen":9544,"Ġwebsite":9545,"Ġdaugh":9546,"Ġxsl":9547,"Ġslops":9548,"Ġhoverboard":9549,"Ġdaughter":9550,"Ġsvm":9551,"isk":9552,"Ġunnamed":9553,"Ġidentical":9554,"formatter":9555,"Ġrenamed":9556,"assignment":9557,"Ġthin":9558,"Ġrouted":9559,"Ġcentral":9560,"Ġcomplexity":9561,"Ġnfe":9562,"Ġrese":9563,"Ġzu":9564,"Ġ61":9565,"Ġcommented":9566,"xxxxxx":9567,"Ġtelemetry":9568,"Ġfur":9569,"Ġliving":9570,"Ġleaves":9571,"Ġptf":9572,"demo":9573,"Ġuf":9574,"Ġedda":9575,"Ġ320":9576,"Ġhowever":9577,"Ġuma":9578,"Ġtolerance":9579,"dist":9580,"Ġlivy":9581,"otine":9582,"Ġ00000":9583,"Ġedu":9584,"Ġreformat":9585,"Ġsqlserver":9586,"Ġ655":9587,"illotine":9588,"Ġguillotine":9589,"Ġsoftmax":9590,"built":9591,"Ġ8888":9592,"Ġcart":9593,"Ġ480":9594,"igner":9595,"Ġctl":9596,"Ġpriorit":9597,"eeee":9598,"Ġmisses":9599,"Ġcampa":9600,"Ġunaware":9601,"41":9602,"Ġdeath":9603,"Ġoutdir":9604,"Ġcheckpo":9605,"Ġargp":9606,"Ġdbd":9607,"12345678":9608,"Ġadapted":9609,"lmn":9610,"Ġremotes":9611,"Ġnbsp":9612,"Ġksp":9613,"func":9614,"Ġben":9615,"Ġboxes":9616,"567":9617,"Ġtemporal":9618,"Ġconstructing":9619,"Ġsuppressions":9620,"09":9621,"Ġthose":9622,"security":9623,"Ġrsc":9624,"inding":9625,"Ġjds":9626,"Ġredo":9627,"Ġ192":9628,"Ġjbpopup":9629,"Ġpicass":9630,"Ġinvitation":9631,"Ġpicasso":9632,"uv":9633,"Ġiconics":9634,"Ġfood":9635,"managed":9636,"Ġgbp":9637,"fficient":9638,"Ġjacc":9639,"Ġsqlmethod":9640,"Ġamer":9641,"Ġjdks":9642,"Ġjsoup":9643,"ipt":9644,"Ġao":9645,"Ġ76":9646,"Ġcarry":9647,"Ġpaginator":9648,"Ġpromoted":9649,"fy":9650,"rough":9651,"Ġnewly":9652,"Ġnotice":9653,"Ġinterconnect":9654,"oco":9655,"Ġ2048":9656,"Ġworkspaces":9657,"axis":9658,"Ġnvl":9659,"Ġdeflater":9660,"ette":9661,"Ġeos":9662,"Ġremin":9663,"Ġredefined":9664,"Ġlz":9665,"raft":9666,"Ġzen":9667,"Ġxmlfrom":9668,"Ġssource":9669,"Ġcancelable":9670,"Ġrmd":9671,"Ġseveral":9672,"Ġtlocal":9673,"Ġmyhost":9674,"Ġmoco":9675,"Ġappended":9676,"Ġ2345":9677,"play":9678,"Ġfizz":9679,"Ġtruth":9680,"alis":9681,"Ġmaxent":9682,"mlin":9683,"ritical":9684,"Ġgremlin":9685,"dddd":9686,"Ġ0001":9687,"Ġioschar":9688,"Ġborrow":9689,"Ġymu":9690,"eak":9691,"lider":9692,"Ġjclass":9693,"lout":9694,"Ġjsonscanner":9695,"Ġreceipt":9696,"Ġjdbcsession":9697,"Ġfra":9698,"Ġapplies":9699,"Ġ330":9700,"Ġcarddemo":9701,"joint":9702,"Ġgctime":9703,"ond":9704,"Ġglext":9705,"Ġretina":9706,"Ġmetas":9707,"Ġpipelines":9708,"Ġsftp":9709,"Ġminec":9710,"Ġctes":9711,"Ġctec":9712,"Ġnway":9713,"Ġfinite":9714,"Ġtimepoint":9715,"Ġnoscan":9716,"Ġincludefunc":9717,"Ġticks":9718,"Ġarial":9719,"Ġsmbmap":9720,"Ġhues":9721,"Ġcteclause":9722,"Ġincludefuncname":9723,"101":9724,"batch":9725,"Ġcritical":9726,"etta":9727,"lac":9728,"Ġcapsule":9729,"Ġmigrations":9730,"Ġeventlog":9731,"Ġjsonreader":9732,"Ġwidths":9733,"Ġqop":9734,"Ġsleeping":9735,"Ġurlenc":9736,"update":9737,"using":9738,"Ġevariable":9739,"Ġza":9740,"Ġinbox":9741,"Ġjad":9742,"Ġcardio":9743,"Ġgrantee":9744,"napshot":9745,"Ġsell":9746,"Ġliven":9747,"Ġvisib":9748,"Ġ104":9749,"Ġextendable":9750,"Ġensures":9751,"Ġgirl":9752,"Ġliveness":9753,"Ġcstyle":9754,"Ġaac":9755,"Ġgps":9756,"Ġsmile":9757,"ouse":9758,"org":9759,"Ġsupergroup":9760,"Ġhdr":9761,"Ġepoll":9762,"Ġaliased":9763,"Ġannos":9764,"Ġhelium":9765,"lem":9766,"entication":9767,"Ġplane":9768,"Ġproxetta":9769,"Ġreapp":9770,"Ġglu":9771,"Ġwi":9772,"Ġemulate":9773,"Ġ92":9774,"Ġrounds":9775,"Ġminibatch":9776,"Ġplaintext":9777,"Ġassoc":9778,"keys":9779,"dia":9780,"Ġdisposal":9781,"Ġreminder":9782,"lize":9783,"Ġseg":9784,"Ġdebuggable":9785,"Ġsynony":9786,"Ġsimplify":9787,"window":9788,"ctransfer":9789,"Ġflows":9790,"Ġmds":9791,"Ġupdatable":9792,"Ġcomputing":9793,"Ġahctransfer":9794,"Ġpod":9795,"Ġrmedi":9796,"ifies":9797,"Ġrmservice":9798,"Ġmlp":9799,"Ġrmedium":9800,"thread":9801,"icient":9802,"usc":9803,"Ġsupply":9804,"Ġsuppressed":9805,"Ġcrf":9806,"Ġwarmup":9807,"datas":9808,"Ġpubsub":9809,"Ġexited":9810,"Ġdebo":9811,"omanager":9812,"57":9813,"hers":9814,"Ġwind":9815,"Ġadds":9816,"peref":9817,"Ġspline":9818,"Ġcfb":9819,"Ġglmf":9820,"Ġkilled":9821,"Ġlemma":9822,"udio":9823,"Ġreinit":9824,"Ġbang":9825,"Ġfallbacks":9826,"Ġsbo":9827,"Ġavail":9828,"Ġsrvprotocol":9829,"warder":9830,"itivity":9831,"cha":9832,"Ġforwarder":9833,"Ġpreloader":9834,"Ġability":9835,"Ġenvironments":9836,"Ġmaterialize":9837,"Ġfastjson":9838,"Ġejbcomponent":9839,"Ġgranting":9840,"Ġwakeup":9841,"Ġunreco":9842,"Ġnrows":9843,"Ġbaidu":9844,"Ġirich":9845,"Ġhar":9846,"Ġwak":9847,"Ġvibr":9848,"Ġhttpd":9849,"Ġrestful":9850,"Ġreloaded":9851,"Ġegypt":9852,"Ġibm":9853,"Ġpurposes":9854,"Ġintdiv":9855,"Ġrocket":9856,"Ġquarter":9857,"Ġ121":9858,"Ġzks":9859,"Ġobtained":9860,"Ġnoded":9861,"Ġseason":9862,"Ġdisjoint":9863,"Ġhotel":9864,"Ġcleaned":9865,"Ġlowest":9866,"Ġsubsampling":9867,"Ġburn":9868,"aration":9869,"atorial":9870,"Ġssr":9871,"Ġnativexxxmethodnamexxx":9872,"Ġseeds":9873,"Ġglassfish":9874,"dow":9875,"Ġue":9876,"Ġstartcode":9877,"Ġfelix":9878,"Ġevaluates":9879,"Ġmanipulators":9880,"Ġful":9881,"Ġdbinstance":9882,"Ġtermux":9883,"Ġconfirmed":9884,"Ġlstm":9885,"Ġexperiments":9886,"Ġrssi":9887,"fusc":9888,"Ġnh":9889,"Ġeuro":9890,"Ġswallow":9891,"feature":9892,"Ġbcd":9893,"Ġsafely":9894,"Ġvibrator":9895,"Ġacme":9896,"Ġfixer":9897,"Ġauthorize":9898,"Ġrecursion":9899,"tool":9900,"Ġfps":9901,"Ġdealloc":9902,"esca":9903,"Ġbypass":9904,"Ġcontention":9905,"Ġcopying":9906,"Ġdivid":9907,"Ġhouse":9908,"Ġdownloads":9909,"Ġrace":9910,"Ġreflections":9911,"coming":9912,"Ġevictable":9913,"Ġminecraft":9914,"Ġiwa":9915,"Ġsty":9916,"Ġlng":9917,"erties":9918,"Ġrust":9919,"Ġprede":9920,"Ġelresolver":9921,"Ġconstvar":9922,"Ġworktree":9923,"Ġprogressive":9924,"Ġqv":9925,"Ġsequenced":9926,"Ġsomewhere":9927,"Ġpackets":9928,"Ġdelivered":9929,"Ġnnp":9930,"Ġpeeking":9931,"Ġabbrev":9932,"Ġranim":9933,"Ġdal":9934,"Ġalar":9935,"Ġsynchronizing":9936,"Ġdyna":9937,"Ġabandon":9938,"Ġinteractive":9939,"Ġrepr":9940,"Ġswe":9941,"Ġtera":9942,"Ġfacets":9943,"Ġcatalina":9944,"sday":9945,"Ġcate":9946,"Ġpservice":9947,"Ġphi":9948,"Ġjdialog":9949,"Ġincluding":9950,"Ġjoda":9951,"Ġsmoke":9952,"Ġrmapp":9953,"Ġbrush":9954,"Ġauthorizations":9955,"Ġproducts":9956,"Ġmutual":9957,"Ġaexpression":9958,"urgeon":9959,"http":9960,"Ġformula":9961,"Ġsou":9962,"Ġfooable":9963,"Ġdecorations":9964,"Ġcollation":9965,"Ġegyptian":9966,"Ġhttpargument":9967,"Ġtracef":9968,"Ġfastest":9969,"Ġenclosed":9970,"Ġredeliveries":9971,"500":9972,"cd":9973,"Ġinterception":9974,"Ġlayouts":9975,"Ġanimatable":9976,"Ġwriters":9977,"Ġgiving":9978,"Ġfreeze":9979,"integer":9980,"Ġicompilation":9981,"anse":9982,"Ġfieldlength":9983,"Ġinflight":9984,"Ġmainstem":9985,"Ġcauses":9986,"Ġembeddedmap":9987,"Ġunwind":9988,"ners":9989,"abstract":9990,"Ġresultset":9991,"Ġencaps":9992,"Ġantialias":9993,"cf":9994,"night":9995,"yo":9996,"Ġpriv":9997,"filer":9998,"Ġenhancement":9999},"merges":["x x","e r","m e","Ġ s","Ġ c","Ġ t","o n","Ġ p","i n","r e","xx x","a t","Ġ n","Ġ a","l i","l e","o d","a me","s t","Ġ f","e t","Ġ e","t h","i on","o r","Ġ m","Ġ d","Ġ re","Ġ b","Ġ i","me th","meth od","c t","Ġs t","Ġ g","n ame","n t","method name","methodname xxx","xxx methodnamexxx","s s","Ġ xxxmethodnamexxx","a l","r o","Ġ in","u b","li c","c e","Ġt h","a n","Ġ v","Ġp ub","Ġpub lic","t e","Ġc on","in g","Ġg et","e w","u r","a r","Ġ o","i s","u l","at e","Ġn ew","u t","Ġ l","i t","s e","Ġ h","Ġc o","Ġth is","i d","Ġst r","Ġe x","p e","Ġp ro","l a","u e","Ġt e","p t","Ġstr ing","i l","Ġd e","Ġ w","Ġs et","e d","a g","er t","x t","r i","at ion","e l","c k","c h","u p","m p","Ġf i","Ġn ame","a d","e n","a b","Ġre t","Ġi d","ul l","i g","e nt","ur n","e ct","Ġ li","Ġret urn","Ġc la","r a","Ġte st","Ġn ull","Ġa ss","pt ion","Ġcla ss","y pe","Ġcon te","t er","Ġt ype","Ġ j","Ġt o","Ġv o","u n","Ġass ert","Ġm a","me nt","Ġvo id","Ġli st","Ġ me","o t","ab le","Ġt r","Ġcon f","Ġ 1","i c","Ġl o","Ġconte xt","Ġb u","q u","Ġre s","Ġa d","Ġ r","Ġ 0","Ġc h","j ect","ct ion","Ġ k","ag e","ul t","d er","Ġc a","l o","Ġs e","od e","ce ption","Ġin t","v er","Ġi f","Ġconf ig","Ġfi le","o o","Ġf in","ro w","a s","ct or","Ġs er","Ġa r","Ġe n","Ġex ception","Ġp ar","Ġs up","Ġf a","Ġad d","Ġv i","Ġi s","Ġv al","at a","u m","Ġma p","u s","Ġval ue","Ġbu il","Ġa n","Ġvi ew","Ġco mp","Ġth row","v i","Ġst at","Ġm y","Ġf or","Ġde f","Ġsup er","Ġk e","i me","e s","an d","Ġco l","Ġe qu","Ġfin al","Ġo b","Ġke y","Ġequ al","Ġb y","i z","o ur","o l","Ġin st","Ġp ri","our ce","Ġd o","an ce","in t","q ue","ctor y","Ġd ata","i st","Ġc re","v e","Ġa p","er s","el d","Ġp a","a m","Ġequal s","Ġp at","Ġs h","Ġ on","s c","p er","ct ed","Ġp re","u nt","Ġt ime","Ġtr ue","Ġfi eld","a ult","f f","Ġdef ault","it y","Ġm an","Ġn ot","vi ce","Ġd i","Ġbuil der","en er","v ate","Ġcre ate","Ġm od","Ġa l","Ġfa ctory","Ġpri vate","Ġob ject","Ġinst ance","Ġp o","Ġ le","at or","Ġn ode","Ġme ss","Ġst ate","iz e","ag er","Ġca se","Ġmess age","i f","Ġb oo","Ġ ut","Ġte xt","Ġthrow s","e x","a li","le an","Ġ 2","Ġman ager","Ġs ize","an s","Ġre g","an g","Ġe le","Ġ at","Ġpro p","Ġb e","Ġe v","ch e","l er","Ġboo lean","Ġcon t","or t","in e","Ġpro ject","Ġ un","at ch","Ġtr ans","p o","ss ion","Ġth e","g er","Ġstat ic","Ġl a","Ġo ut","Ġser vice","que st","Ġut il","Ġf al","Ġm o","Ġre quest","Ġb a","Ġc li","ra y","Ġpat h","a v","Ġfal se","Ġin f","ce ss","Ġ ro","ad er","Ġ x","Ġev ent","p ut","a in","Ġ us","Ġ or","Ġar ray","0 0","Ġcli ent","Ġap p","u re","it ion","Ġin d","o ut","Ġlo g","id e","Ġprop ert","on g","Ġco m","Ġres ult","Ġh e","Ġme t","o re","Ġ ur","Ġde sc","Ġs ource","Ġby te","Ġs c","Ġa ction","Ġco unt","l u","Ġin te","ur ation","Ġh as","Ġs y","i th","e c","o w","Ġlist ener","Ġ method","r y","re nt","Ġ u","Ġreg ist","mp l","u te","ar t","Ġele ment","it or","Ġh and","Ġinf o","s er","Ġl ong","Ġe nt","Ġo ver","u le","Ġo f","Ġpro te","Ġw ith","Ġ qu","Ġprote cted","Ġ up","Ġa c","i es","Ġin ter","i ve","Ġconfig uration","Ġa s","Ġex p","Ġex ec","Ġind ex","or d","Ġch e","m a","Ġlo c","Ġal l","Ġin it","Ġat t","Ġche ck","re am","un d","e m","Ġus er","Ġmod el","u ment","Ġla y","Ġover r","Ġo ption","av a","Ġmo ck","n d","Ġc al","ri b","l y","Ġst ream","Ġg ro","mp le","Ġen d","Ġse le","Ġan d","Ġoverr ide","in d","te m","n ect","p a","v id","Ġj ava","Ġt able","Ġn e","Ġs ub","Ġar g","o m","i le","Ġj s","Ġh t","ali z","Ġa ct","Ġres ource","i m","i v","c on","Ġinte ger","Ġpro vid","Ġst art","Ġ er","Ġp ut","Ġc ur","Ġe d","Ġcon nect","Ġre f","Ġca che","Ġlay out","st er","st em","Ġer r","Ġe l","Ġn um","Ġth re","Ġhand ler","Ġw e","Ġth at","Ġe m","ing s","ra p","ar g","Ġser ver","t p","Ġgro up","ang e","Ġ 3","on ent","Ġa b","Ġcont ain","Ġi tem","o c","Ġcon st","Ġprovid er","Ġc ode","Ġutil s","Ġre c","re ss","ar d","Ġf il","Ġel se","le g","Ġerr or","ff er","re e","Ġexec ut","Ġma x","as k","Ġp r","Ġpro cess","Ġd is","Ġset t","Ġht tp","Ġsy stem","Ġb o","Ġcomp onent","Ġpropert y","Ġj o","n s","ro l","Ġcol or","Ġle n","Ġhas h","Ġt ask","Ġo per","p on","Ġde c","Ġin put","Ġf ro","s h","i aliz","Ġr un","Ġres pon","h t","Ġse ssion","Ġrespon se","Ġi mpl","Ġthre ad","Ġfro m","re d","arg et","Ġt arget","un ction","Ġw h","Ġjs on","lo ck","b le","Ġs p","po int","Ġn o","Ġbuil d","Ġdesc ri","Ġs q","a nt","en ce","i p","Ġfil ter","Ġdo c","Ġoption s","Ġcol um","Ġur l","g th","Ġcom m","Ġi m","Ġcol le","Ġ z","Ġ 4","or k","i al","te d","Ġlen gth","Ġt ree","lic ation","Ġfor m","Ġsett ings","o st","Ġf r","Ġbu ffer","Ġba se","pt y","le t","Ġh el","Ġme m","Ġpro t","Ġconte nt","la y","Ġba ck","er y","Ġconnect ion","d ate","a se","Ġro ot","Ġg ener","or m","Ġem pty","Ġp er","b er","or y","Ġqu ery","Ġ 5","Ġf unction","m o","Ġst ore","Ġtrans l","Ġp an","Ġsq l","Ġre ad","Ġre p","Ġfin d","u st","m l","Ġd b","ra ct","a ck","Ġregist er","s et","n ot","n c","er ence","Ġdi re","Ġs o","s i","Ġex pe","Ġstat us","lu ster","Ġch ar","Ġapp lication","w n","ame ter","f t","u g","Ġpar am","rib ute","Ġout put","li t","ers ion","Ġv ersion","k e","Ġb lock","if i","ad ata","Ġtype s","Ġpar ameter","k en","Ġ y","Ġform at","Ġcolum n","Ġa u","Ġmet adata","Ġcur rent","Ġc luster","se nt","Ġend point","Ġf lo","Ġen able","Ġv ar","Ġmod ule","Ġcal l","Ġf oo","Ġpre f","l ine","Ġlo ad","Ġb ar","ter n","Ġact iv","Ġto ken","re ssion","Ġs w","Ġpar t","d i","ate d","ar y","Ġcolle ction","en d","ra w","Ġatt ribute","Ġt ra","Ġtr y","Ġv is","Ġin v","c o","Ġur i","Ġpropert ies","Ġcont rol","Ġup date","Ġab st","pt or","Ġfield s","Ġhe ader","r on","Ġabst ract","Ġs i","Ġexp ression","Ġi o","Ġm atch","u se","r u","Ġan not","Ġh ost","Ġrec ord","ig n","Ġb ut","Ġbe an","Ġpa rent","Ġactiv ity","Ġex te","Ġjo b","Ġloc al","Ġregist ry","Ġpre sent","Ġres ol","Ġv er","Ġpa ck","an n","Ġdi r","a p","Ġp si","Ġ row","r it","in k","Ġi ter","Ġn on","Ġpo s","Ġd ate","Ġhel per","g e","Ġl ine","Ġarg ument","Ġx ml","Ġre mo","Ġexecut or","Ġexpe cted","Ġed itor","Ġw ork","Ġs a","Ġoper ation","a pt","Ġent ity","Ġm ode","Ġt ag","Ġim age","pe nd","Ġde leg","Ġcontain er","Ġo ff","Ġne xt","Ġs che","i r","c s","ub le","Ġdo uble","a ct","Ġad apt","Ġpar ser","Ġent ry","ar ch","Ġdoc ument","Ġc atch","Ġau th","Ġenable d","ul d","Ġc an","Ġpar se","Ġpan el","Ġname s","Ġm in","v el","ic ation","o g","Ġb od","Ġfile s","t on","ch ed","Ġpat tern","la ble","ck et","ind ow","Ġs pe","Ġf la","a k","Ġp oo","Ġmet ri","y le","que ue","Ġtransl ation","Ġw indow","i x","Ġadapt er","Ġcomm and","Ġb ind","Ġu se","Ġwe b","Ġc lo","g in","Ġr ule","a ction","Ġbyte s","Ġac cess","mpl ate","rap h","Ġ queue","Ġte mplate","o uld","Ġlo ader","Ġbut ton","pa ce","ex ception","Ġmem ory","Ġcomp il","ri te","il d","Ġpr int","Ġser ializ","Ġsup p","Ġpoo l","m it","Ġsh ould","rit er","Ġflo at","Ġor der","Ġle vel","Ġm ult","Ġcon s","Ġvalue s","Ġst yle","Ġ1 0","Ġbo x","b ug","ali d","Ġdeleg ate","Ġbod y","Ġele m","Ġadd ress","Ġid ent","Ġp ort","b o","Ġsi mple","Ġstate ment","Ġannot ation","Ġa g","Ġd a","Ġfla g","con d","Ġse arch","oc ol","Ġdescri ption","Ġd at","ifi er","a le","ate g","ns ion","Ġob ser","Ġnum ber","Ġg raph","Ġl ab","f orm","Ġpack age","Ġde bug","on e","Ġprot ocol","it le","ig ht","d e","Ġdef in","Ġio exception","c a","y nc","Ġb it","m in","Ġtrans action","c ur","Ġref erence","ann el","Ġcontrol ler","ar k","Ġpro g","Ġlab el","Ġun it","if y","Ġex t","Ġw rite","Ġfi r","Ġw rap","Ġoff set","Ġs ing","g ht","i lit","Ġch annel","Ġin s","Ġre ader","l in","f a","Ġfir st","Ġcompil er","at er","Ġfa il","Ġch ild","Ġspe c","al og","l d","Ġp lu","u al","Ġre al","Ġch ange","n der","Ġwh en","ol der","Ġdescri ptor","Ġa w","Ġen c","Ġd raw","Ġg r","Ġplu gin","it ch","Ġl ang","lic k","Ġatt r","Ġrun n","Ġal lo","o f","Ġto ol","Ġparam s","Ġfr ame","Ġc lick","Ġinter n","Ġprocess or","po s","Ġt itle","le te","Ġpos ition","Ġw id","Ġpa int","b ack","Ġsw itch","Ġas ync","Ġloc ation","g n","Ġsub sc","Ġo wn","le d","Ġm s","Ġsche ma","Ġl ink","Ġdefin ition","Ġde p","Ġcon v","Ġcomp ile","Ġlog ger","Ġi l","leg al","Ġintern al","Ġtest s","lo ad","Ġconst ant","ma p","Ġil legal","ot lin","Ġk otlin","vi ron","Ġsh a","Ġdire ctory","viron ment","Ġprog ress","e p","Ġb und","Ġinstance of","Ġen vironment","Ġs k","Ġpart ition","o k","a mple","Ġinte nt","Ġh a","Ġfr ag","Ġd et","u c","Ġ 6","Ġre ce","Ġw riter","qu i","Ġap i","Ġclo se","Ġp h","Ġbund le","Ġvar i","if ication","Ġfrag ment","Ġex ch","Ġto p","Ġresol ver","Ġdis p","i ck","Ġn et","Ġconst ru","fa ce","Ġdi alog","Ġor g","Ġla st","Ġen g","Ġan y","Ġex ample","ic s","Ġ 8","Ġcontain s","Ġhe ad","el l","f i","Ġlo ck","Ġs ched","Ġre nder","Ġexecut ion","Ġpo int","Ġst and","Ġch ang","Ġa re","Ġconv ert","Ġc ust","Ġpo st","Ġmet a","co unt","Ġa ut","Ġb re","Ġa v","Ġtime out","Ġthrow able","Ġa li","Ġcust om","unt ime","r ing","Ġexch ange","Ġpa ss","Ġp lay","Ġprot o","Ġt ab","Ġr untime","Ġp l","Ġi t","Ġset up","o p","Ġin c","Ġp age","ab ase","Ġeng ine","Ġbre ak","pe n","ut able","ar n","Ġreal m","Ġsele cted","y c","Ġre qui","Ġ ri","Ġr and","Ġac count","Ġ1 00","Ġsh ow","Ġm on","Ġpo lic","Ġstat s","Ġdo wn","la ce","Ġi mp","Ġst or","Ġre pos","Ġi con","Ġon ly","Ġstand ard","Ġexte nsion","Ġan im","Ġrepos itor","Ġv alid","Ġsele ction","f ile","Ġser v","Ġwid th","Ġon e","or ted","Ġver ify","Ġar n","Ġhe ight","at ure","at h","g ro","Ġb as","x y","Ġso cket","Ġinit ializ","pa c","Ġsh ort","or der","v al","um er","t r","ilit y","ow n","Ġserv let","Ġdo m","lo b","Ġb in","Ġvari able","Ġo pen","Ġap pend","Ġext ra","Ġstr ateg","Ġp ers","Ġbas ic","Ġo p","Ġrand om","Ġdat abase","Ġstor age","Ġparameter s","Ġpolic y","i pe","i ble","Ġ1 2","Ġconstru ctor","Ġcall back","li s","Ġj d","Ġsubsc rib","at ive","Ġre st","Ġvis itor","er e","Ġse cond","Ġrepositor y","i ce","on t","Ġco p","Ġstrateg y","Ġflag s","w ord","g ment","Ġst ack","Ġme di","Ġmap per","ri ft","Ġexte nd","Ġth rift","Ġpro xy","Ġarg s","Ġremo ve","Ġmetri cs","Ġbu f","Ġc ell","Ġk t","p ing","Ġsele ct","Ġmult i","Ġad min","Ġsing le","Ġiter ator","Ġed it","Ġse gment","Ġc ame","Ġcons umer","Ġde lete","w ork","Ġcame l","m i","lo y","Ġback end","Ġresource s","Ġar t","et ch","Ġkey s","ca st","Ġsp lit","Ġm il","Ġb order","Ġs s","Ġi gn","Ġpref erence","Ġtra ce","Ġs d","Ġaut o","Ġle ft","Ġw a","Ġad vice","o pe","Ġreg ion","Ġu i","Ġf e","Ġc t","Ġinit ial","f ore","Ġsc rol","gro und","b e","Ġp tr","Ġenc od","Ġth en","il l","Ġjo in","Ġass ign","ect or","th er","Ġbind ing","Ġbe fore","Ġs end","Ġmedi a","Ġor ig","n u","u age","Ġident ifier","Ġm ark","Ġhead ers","pac ity","Ġign ore","Ġrender er","Ġri ght","Ġconstant s","b c","Ġdraw able","ro id","Ġs ign","Ġin ject","ig h","Ġda o","al l","Ġb ig","ar ator","w er","Ġlang uage","e st","a mp","Ġdire ct","Ġt ri","Ġr ange","Ġ 7","Ġsupp ort","Ġand roid","Ġca pacity","Ġpr od","i te","Ġs av","Ġma ster","Ġsc ope","u id","Ġobser ver","Ġme nu","Ġma in","Ġw as","Ġm ust","Ġgener ator","Ġch ain","Ġmetri c","Ġwrap per","Ġli b","Ġ q","Ġim m","Ġhand le","a re","Ġexec ute","t y","Ġattribute s","Ġtra ck","Ġorig in","Ġh older","Ġre d","Ġh ive","Ġconst ra","Ġpref ix","Ġro ute","Ġdisp lay","Ġoper ator","z on","Ġa ma","cur ity","Ġb atch","Ġpro file","Ġconstra int","Ġama zon","Ġf etch","Ġimp ort","Ġsav ed","Ġscrol l","Ġextend s","Ġnot ification","iz ation","Ġchang ed","Ġcomp o","Ġse curity","n ce","Ġg ra","Ġh igh","Ġback ground","Ġremo te","Ġu uid","Ġcop y","l n","Ġserializ er","lo g","in ter","il s","Ġcollection s","Ġms g","st ring","Ġsh ard","Ġg o","Ġcon d","Ġimm utable","Ġ 9","Ġa f","Ġfi x","Ġbo und","ent ial","Ġin line","ic al","y s","Ġsy n","Ġne st","g re","n er","Ġpa ir","Ġag ent","Ġallo c","Ġnode s","e et","Ġf l","Ġown er","Ġprint ln","Ġdep loy","s or","Ġtrans form","Ġs m","Ġp ipe","Ġjd bc","st amp","Ġde vice","f e","Ġd ist","Ġ2 0","Ġinter face","Ġsele ctor","Ġh ist","Ġmap ping","Ġn s","00 00","a ch","ot o","iz ed","Ġaf ter","Ġpan e","Ġsd k","u ct","im al","b ility","Ġsk ip","Ġinv o","Ġflo w","b ar","Ġtime stamp","ation s","Ġre l","Ġgr id","ic ate","Ġt w","c y","Ġpass word","Ġsha red","Ġte mp","Ġf s","Ġelement s","Ġnames pace","Ġen um","ut ure","ri pt","m s","f s","Ġf uture","a i","Ġo ld","ch ron","Ġid s","Ġa st","Ġarray s","pe d","Ġinter ce","Ġ raw","p c","Ġn av","Ġmon itor","Ġpa y","z el","lob al","Ġde pend","Ġt er","Ġdec imal","Ġinter val","Ġw arn","Ġro le","Ġmil lis","Ġact ive","Ġn ul","up le","Ġs n","l s","um m","Ġbit map","lo w","Ġac ce","Ġrunn able","i ent","Ġsched ul","Ġrequi red","Ġcom ment","Ġo pt","v able","Ġav ai","Ġcur sor","Ġli mit","Ġf oc","Ġid e","Ġsyn chron","Ġg lobal","v ed","Ġt uple","Ġs b","in es","Ġinst ant","Ġali as","Ġpers ist","Ġmatch er","Ġf ont","ential s","Ġauth ent","p ort","Ġdet a","zel cast","Ġca use","Ġins ert","Ġallo w","Ġpipe line","Ġha zelcast","Ġan al","Ġsc ale","mi ssion","Ġnet work","Ġplay er","Ġm er","Ġconvert er","re sh","Ġwork er","Ġb t","Ġexp r","Ġpo p","Ġd uration","Ġevent s","Ġd ri","Ġitem s","ide o","Ġact ual","Ġex it","Ġv ideo","Ġex ist","Ġclass es","Ġse que","Ġco re","li sh","Ġsubscrib e","Ġnul lable","Ġgener ic","r t","te x","m t","Ġart if","Ġorigin al","Ġwa it","n own","Ġi ss","Ġc ent","Ġun s","r c","Ġapp ly","iv ed","Ġcount er","Ġauth or","e k","Ġsc ript","Ġto t","Ġcomp let","Ġobser vable","Ġartif act","Ġv ector","Ġw or","Ġver tex","Ġthe me","Ġs ame","Ġmo use","Ġw ord","v m","Ġref resh","Ġchar act","ol d","Ġb ro","ile d","Ġtot al","Ġschedul er","Ġs u","ri es","Ġlo ok","Ġdri ver","re ct","Ġmethod s","Ġct x","Ġwor ld","Ġcal led","Ġag gre","Ġl ines","Ġper mission","Ġf o","Ġiter able","Ġsa mple","Ġss l","Ġst ub","Ġiss ue","Ġo ther","re en","uc er","Ġc or","Ġdeploy ment","Ġpo inter","Ġhel lo","Ġaggre g","Ġs uc","r ary","Ġst ep","Ġresult s","z z","i o","Ġrec yc","Ġfoc us","Ġcomm it","Ġlink ed","c ode","Ġinterce ptor","p h","Ġc ance","Ġcal c","Ġph oto","Ġnav ig","re t","Ġd ime","Ġcon cur","Ġident ity","i e","Ġcond ition","Ġob j","Ġanim ation","Ġh b","Ġprop s","Ġd t","y n","i bility","Ġbin ary","Ġrep lace","Ġdepend en","us h","Ġev al","Ġcent er","Ġseque nce","ver y","Ġst op","s pace","Ġfe ature","ad e","ri x","Ġmem ber","Ġcolum ns","Ġc le","Ġde st","re n","Ġtime line","Ġmessage s","Ġsc an","Ġse c","Ġj vm","Ġqu ali","Ġf ull","Ġ1 1","Ġin ner","Ġpri mit","Ġsh eet","Ġvi rt","u ce","Ġdi ff","nc y","Ġcharact er","Ġinv alid","Ġat om","un k","Ġc ateg","Ġdom ain","Ġi p","mple ment","Ġexpe ct","o v","Ġun k","Ġpub lish","Ġch at","Ġcle ar","Ġsn ap","Ġi mplement","Ġne ed","Ġavai lable","Ġs ort","ect ion","v is","le nd","Ġtop ic","Ġha ve","Ġsche me","Ġloc ale","Ġdec l","Ġcomm on","Ġn orm","Ġacce pt","Ġgener ate","i od","Ġsp an","fi eld","Ġs el","Ġstr uct","Ġco ord","Ġt im","Ġdis able","Ġper iod","Ġh o","Ġwh ile","Ġt x","Ġus age","Ġj ar","Ġtest er","Ġp e","Ġma ke","Ġfo und","Ġpre vi","Ġp y","Ġfa iled","b u","Ġbu cket","Ġg l","Ġunk nown","i ver","Ġlib rary","Ġhigh li","Ġp lace","Ġsa ve","Ġca lend","Ġcalend ar","Ġg u","Ġvirt ual","Ġz one","Ġco ok","Ġn ative","Ġrece ived","Ġed ge","Ġc ert","Ġro ut","Ġv ert","a y","Ġconfig ure","Ġins pe","ali date","Ġd yn","Ġlay er","la ss","Ġex tern","Ġsel f","g le","let on","Ġl atch","Ġar ch","Ġen v","li st","Ġcomplet ion","Ġm ater","Ġauthent ication","Ġch unk","sh ot","Ġtype d","Ġfa ctor","Ġsched ule","od er","Ġinc lu","Ġde lay","r ation","Ġvis ible","Ġinitializ e","Ġrep ort","Ġs rc","Ġatom ic","Ġcance l","ut ion","Ġsuc cess","Ġgro ov","Ġtrans port","Ġattr s","Ġse p","Ġmult ip","ro p","Ġf older","Ġnavig ation","Ġpl an","at ing","Ġinf l","Ġgroov y","Ġinv oc","ra m","fi ed","Ġhist ory","Ġinstant i","Ġsnap shot","Ġprod ucer","atch er","Ġto po","o b","Ġdyn am","Ġr ad","Ġrece iver","Ġw ill","Ġrequi re","Ġc p","Ġsing leton","Ġresol ve","ru ction","Ġrecyc ler","Ġh z","Ġc l","tem pt","ge st","Ġz oo","Ġent ries","Ġprimit ive","or ter","Ġlook up","Ġs ection","Ġfail ure","Ġlist en","Ġcateg ory","ice s","Ġat tempt","Ġdecl ar","Ġcomp arator","Ġn ow","Ġoption al","Ġres et","Ġsc reen","k er","Ġpreference s","Ġdime nsion","Ġv cs","Ġm at","Ġconcur rent","Ġh i","Ġht ml","Ġencod ing","is h","u ch","Ġcreate d","Ġ4 2","Ġm ath","Ġtool bar","Ġt a","Ġtw o","f or","Ġaw sc","Ġb r","Ġargument s","Ġmater ial","Ġsa fe","im um","iz er","Ġcla zz","Ġb al","an k","c er","p ath","1 2","Ġinter p","as ure","Ġmer ge","Ġchild ren","Ġtransl ate","red entials","Ġawsc redentials","Ġa m","ilit ies","Ġbu s","le x","9 9","Ġcook ie","Ġchar set","Ġconstraint s","Ġun der","Ġt s","Ġmark er","ce nt","f unction","p s","Ġsign ature","Ġgener ated","Ġinvoc ation","5 6","a st","ag n","Ġcomp lete","Ġeval u","Ġz k","Ġd umm","Ġsecond s","Ġqu ick","Ġso me","log y","Ġaction s","Ġdumm y","d own","Ġinst ruction","u me","Ġcode s","Ġcode c","Ġinvo ke","Ġsy nc","d ing","Ġsett ing","Ġs ug","g r","Ġpre pa","g ing","bo x","Ġuser name","Ġd p","w ard","Ġwork space","Ġt mp","Ġpop up","o le","Ġp g","Ġextern al","Ġtext ure","Ġservice s","g et","Ġ1 6","Ġanal y","Ġname d","Ġpri or","Ġab s","a che","Ġb l","Ġo k","Ġpath s","ick er","Ġlog in","Ġ2 00","g en","Ġs pace","Ġ100 0","al le","Ġman age","Ġo s","a x","le ted","Ġthread s","n i","Ġm i","yc le","Ġconfig ur","Ġto uch","Ġpre d","Ġre di","ul ar","o us","Ġuse d","Ġsug gest","Ġsep arator","Ġrunn er","a f","Ġnon e","Ġap ache","Ġgra v","n ode","i a","ifi ed","Ġdi agn","Ġg oo","ition s","Ġdec la","v en","Ġdiagn ost","Ġst ar","Ġoperation s","Ġaw s","Ġtopo logy","Ġhb ase","ver s","ic ator","Ġse ek","Ġdown load","Ġfin ish","Ġsw ig","s ure","Ġflow able","Ġsql function","ff ect","Ġme asure","Ġ12 3","Ġannotation s","ter ns","Ġtim er","Ġgrav ity","Ġstat ist","Ġass et","Ġassign ment","Ġs la","Ġc lean","Ġstyle able","se d","Ġcode gen","Ġst age","Ġd ig","Ġtime s","Ġma y","1 1","oo k","Ġtest ing","c le","ob ject","Ġcre d","Ġr pc","Ġtrack er","e ar","co mp","Ġdynam ic","li er","Ġla un","3 2","Ġtask s","Ġcolle ctor","re c","n e","Ġre ct","o s","Ġret ry","Ġcan not","Ġex c","m od","e e","Ġfil l","Ġsynchron ized","b in","Ġdependen cy","Ġobject s","h er","Ġd ra","Ġsupp orted","Ġl d","d ed","Ġpar ce","il y","Ġmat rix","Ġc lock","Ġtri g","Ġb row","b ers","Ġr s","Ġpers on","Ġinject or","Ġa ctor","Ġprior ity","Ġmo re","Ġho me","Ġtype face","m er","Ġvis ibility","Ġlisten ers","Ġdebug ger","Ġy ear","ar sh","Ġtag s","Ġc at","g h","s ing","Ġan s","Ġchang es","ion s","Ġdt o","Ġst ro","te xt","Ġpar alle","Ġarch ive","Ġr m","Ġide a","Ġc riter","Ġanaly z","Ġper cent","Ġlaun ch","Ġma ven","Ġdec or","Ġmanage ment","at is","Ġfa m","Ġb ot","Ġdecla red","Ġinf orm","s k","Ġpred icate","in c","Ġc ir","di o","Ġa nt","m ark","Ġcons ole","Ġm utable","Ġsubscrib er","a vi","Ġmo ve","Ġb ag","Ġconnect or","Ġstro ke","ri ption","Ġinform ation","Ġfix ed","Ġch art","Ġinclu de","ann er","Ġinfl ater","c lass","at form","Ġp ol","Ġmatch es","Ġbound s","Ġst mt","Ġcomp at","Ġc m","Ġannot ated","Ġca ched","Ġbin der","Ġcom bo","Ġhe ap","l l","Ġrow s","Ġda y","Ġpre cond","Ġsh ut","Ġfunction s","Ġch oo","Ġsubsc ription","Ġ1 5","b ed","Ġid x","Ġcomp are","Ġans wer","re ncy","e per","re s","Ġpre v","Ġpl atform","ut ils","Ġsi te","Ġrunn ing","Ġs ent","Ġg en","Ġwh ite","Ġtrig ger","Ġs ide","Ġv alidate","u d","Ġinstance s","y stem","Ġatt ach","it o","Ġde x","Ġsp ring","if icate","Ġal g","Ġcriter ia","up p","Ġblock ing","be an","is e","Ġload ed","Ġcert ificate","Ġt od","Ġsy m","p ro","si te","Ġp ad","Ġbe h","Ġs li","Ġs en","Ġgoo gle","Ġbo ot","Ġman ag","id d","Ġe c","Ġpat ch","Ġinc re","Ġprecond itions","Ġexist s","Ġg it","Ġs ink","Ġsource s","Ġter min","Ġcre ation","um b","Ġfilter s","Ġpublish er","Ġfam ily","Ġus ing","Ġformat ter","Ġus ers","Ġw rit","Ġopt im","w s","on ly","p an","gh ter","Ġdraw er","Ġdeta il","Ġpay load","Ġserializ ation","Ġmod ifier","s on","inc ip","Ġrep lic","Ġcoord in","Ġpr incip","Ġut ilities","Ġextra ctor","t ype","it ive","Ġbot t","Ġprincip al","Ġut f","h ost","Ġsub string","Ġsm all","Ġorg an","Ġli ght","Ġlog ging","me d","Ġexp and","Ġrel ative","la p","c at","Ġsha pe","2 4","er o","Ġli f","Ġs po","Ġgr ad","Ġe ffect","Ġstar ted","Ġvalid ator","Ġs l","Ġs v","le ase","Ġh it","Ġwith out","Ġcompo se","Ġthre sh","Ġthresh old","er red","Ġau dio","ser ializ","Ġstatist ics","Ġmon th","Ġt l","Ġg c","w a","Ġs atis","Ġref le","Ġparce lable","Ġdra ft","u mp","Ġun i","Ġdis po","Ġbott om","Ġc ard","nd i","Ġrout ing","00 0","Ġcont in","Ġj ndi","Ġdo es","Ġhighli ghter","Ġfinal ly","Ġprepa re","Ġcheck ed","Ġorgan ization","Ġrep lication","Ġcre ator","Ġpri m","ix el","Ġs orted","Ġ2 5","Ġdisp atcher","Ġe j","Ġgroup s","Ġd r","Ġg e","Ġs um","Ġrep ly","Ġsh ad","Ġwid get","Ġlo wer","Ġerror s","aliz er","Ġsatis fied","Ġt xt","Ġfa st","ce d","Ġlist s","Ġfor ward","Ġvalid ation","ar m","Ġca mer","Ġmi ss","al ler","Ġej b","Ġdec oder","Ġw s","ec ycle","Ġtransl ated","Ġpre ss","Ġshut down","Ġwh ere","te nt","w e","Ġprim ary","Ġb lob","te st","Ġpad ding","ma il","Ġcompo site","Ġshad ow","Ġupdate d","Ġrule s","re ad","Ġwarn ing","Ġtransform er","Ġld ap","Ġext ract","k a","Ġma sk","Ġcolle ct","Ġmodule s","Ġb et","Ġrequest ed","Ġcamer a","Ġlif ecycle","Ġbro ker","g ed","Ġm ong","Ġincre ment","Ġmock ito","Ġexc lu","Ġe ach","Ġdeta ils","Ġvis it","vis ion","Ġtable s","Ġstruct ure","v or","Ġind icator","Ġfa ke","Ġspo ut","Ġred uce","Ġbe gin","Ġbeh avi","Ġte n","Ġp ush","Ġfa c","Ġcalc ul","Ġper form","Ġcor rect","Ġh y","Ġde serializ","Ġfl at","ter al","Ġd rop","0 1","pt r","Ġor ient","in ation","Ġal ph","Ġnorm al","Ġboo k","Ġabs ol","Ġd one","Ġe mail","upp orted","Ġns string","Ġind ices","Ġdis co","Ġtod o","Ġsla ve","Ġ1 4","Ġbase d","con nect","Ġpay ment","Ġare a","Ġuni que","Ġli teral","Ġwe ight","Ġview er","Ġc ptr","z y","Ġuns upported","Ġno te","Ġm bean","Ġinspe ction","Ġfields only","Ġsc al","Ġendpoint s","Ġc f","or ith","Ġem bed","Ġdet ector","Ġke ep","an ch","Ġstring s","Ġchar s","Ġprevi ous","b ol","Ġadd ed","Ġalg orith","r up","Ġr t","Ġhe art","Ġind ent","end ing","Ġinst all","Ġreg ex","Ġp icker","rup ted","Ġsc anner","Ġcon n","em on","Ġo c","Ġcomponent s","Ġdep rec","Ġload ing","ant s","Ġnest ed","Ġp ending","Ġca p","3 3","q l","Ġf n","Ġlocal host","f ul","an cer","c ut","Ġt t","Ġstart s","Ġlo op","Ġsym bol","t a","Ġs le","Ġm ot","Ġle x","if t","Ġr ate","Ġph ase","Ġbro ad","Ġbr anch","Ġpe er","Ġmanag ed","bo ard","Ġback up","Ġexp i","Ġpack et","Ġmong o","Ġdeclar ation","Ġcomp leted","Ġcomp ute","Ġhost name","Ġca st","Ġsec ret","Ġline ar","Ġp ager","Ġge o","Ġh am","Ġg at","g a","Ġcm d","Ġtrans ition","Ġro und","Ġinvo ice","Ġt b","Ġm v","j o","Ġde l","Ġtoken s","use d","a ws","Ġamazon aws","Ġmin i","Ġd fs","Ġal ert","for med","Ġjson object","Ġabsol ute","Ġfin der","Ġcheck er","Ġkey word","Ġregist ration","Ġth an","Ġla zy","Ġw al","Ġa x","Ġun d","Ġcp u","se cond","Ġvar s","Ġu id","Ġm arsh","Ġoper and","f er","Ġsub t","7 8","Ġchoo ser","Ġinter rupted","o ther","Ġinst r","Ġb la","Ġdiagnost ics","un c","Ġab c","Ġup per","Ġh int","Ġre po","Ġtri m","Ġp in","Ġl ate","Ġb ad","Ġz ip","oc i","Ġsl ot","u th","Ġs umm","Ġcheck point","e ss","Ġalgorith m","Ġprevi ew","d f","Ġne g","Ġan other","Ġimplement ation","Ġbrow ser","be at","Ġre lease","Ġd er","st rap","Ġfl ush","Ġk er","Ġca ret","h e","i ch","Ġmil li","Ġham let","Ġg iv","Ġboot strap","Ġ od","Ġdi ffer","Ġdisable d","Ġre m","Ġz ero","Ġhand l","Ġinstr ument","Ġsub ject","Ġm d","Ġprocess ing","Ġexp ort","Ġ1 3","Ġshort cut","Ġgat ew","Ġinitializ er","Ġhe al","Ġdec ode","Ġh d","Ġcontin ue","Ġcal lable","Ġclose d","Ġtab s","v s","Ġschedule d","second s","r ame","ys is","Ġheal th","5 0","i ct","Ġap pe","Ġwh ich","Ġanim ator","Ġallow ed","Ġanal ysis","Ġup load","Ġqu o","Ġ ra","Ġk ind","Ġde li","Ġs in","Ġreturn ed","it ies","n ate","Ġcont act","Ġhi ber","Ġal b","Ġcolor s","o u","Ġalb um","Ġmot ion","me t","Ġres er","Ġv ec","set s","Ġqu ot","mo unt","Ġac d","Ġhel p","Ġgatew ay","Ġheart beat","Ġro t","st ore","ss on","Ġass oci","ol t","Ġhiber nate","Ġmultip le","Ġst d","Ġmap p","Ġmiss ing","sc a","Ġsupp lier","Ġb olt","Ġdis k","Ġfactor ies","Ġredi sson","Ġup d","Ġa mount","Ġen sure","c lo","Ġvert ical","oo p","Ġf ore","Ġsle ep","Ġm ig","la st","Ġax is","Ġp ull","f rame","Ġ1 9","Ġent er","Ġd s","de f","Ġanalyz er","u ff","Ġauthor ization","Ġe s","Ġdest ination","Ġda emon","Ġproto s","Ġgiv en","Ġvariable s","Ġencod er","Ġdr ag","Ġmax imum","Ġc s","Ġcoordin ator","Ġe mp","Ġbt n","Ġcontent s","Ġj ust","Ġc ar","Ġh ook","Ġmin imum","ug h","Ġh ere","Ġp ul","Ġre ver","Ġclass path","Ġpoint s","Ġcon vers","Ġframe work","Ġaggreg ation","Ġbit s","Ġrad i","Ġcur rency","Ġsv n","Ġmem bers","Ġ0 0","Ġse ed","lu me","Ġant i","Ġali gn","f il","8 0","Ġdis pos","Ġman if","Ġg d","con st","6 4","Ġcred entials","Ġsh ift","Ġh or","re sent","Ġaw are","Ġre pe","Ġbuffer ed","Ġpersist ent","pan el","Ġcompile d","Ġj b","Ġvo lume","Ġ5 0","Ġrep resent","Ġinspe ctor","Ġma c","Ġserializ e","Ġa ge","Ġdesc rib","Ġnet ty","a ctor","Ġta ke","di r","Ġregister ed","we en","Ġbet ween","Ġp k","Ġd f","Ġaccess or","c ol","ifi able","Ġinterp re","ifi ers","Ġe vi","Ġcat alog","Ġv m","Ġalloc ate","Ġmanif est","f ig","Ġd up","Ġencod ed","it ter","Ġkey code","Ġ3 2","Ġrel ation","Ġdeprec ated","Ġsw ipe","Ġinterpre ter","Ġdisco very","i an","d b","Ġpresent er","Ġfi re","Ġsin ce","Ġpartition s","Ġfile name","Ġth umb","Ġin et","Ġwrit able","Ġten ant","Ġint o","Ġe last","lic it","Ġac c","ar se","Ġlabel s","d es","Ġshard s","Ġconfigur able","wa ys","Ġprod uct","Ġdoc s","Ġj panel","Ġassign ed","Ġma il","Ġcheck box","Ġpref erred","Ġsumm ary","Ġ3 0","Ġe p","ff ff","Ġal ways","v as","Ġfinish ed","Ġhd fs","th ing","Ġbal ancer","Ġsegment s","che ck","3 4","Ġbreak point","Ġma ch","Ġ20 1","Ġt i","Ġinterp ol","Ġmilli seconds","Ġca ch","Ġignore d","Ġf ol","Ġtr ust","Ġhighli ght","Ġboo l","Ġtool s","Ġsu ff","Ġa ck","Ġsu ite","Ġter m","Ġdispos able","Ġcompil ation","Ġsc r","Ġexecutor s","m an","Ġcan vas","Ġgraph ics","Ġcheck s","s o","at ar","p p","Ġcomp ar","pe ct","lis m","Ġparalle lism","Ġmapp ings","Ġne ver","Ġquali fi","Ġelast ic","Ġper formed","Ġth ro","Ġg est","a cle","Ġs us","Ġthrow n","Ġg re","Ġalloc ation","Ġconnection s","am ing","Ġh our","Ġembed ded","Ġsc ore","c ies","Ġapp ro","Ġy arn","Ġp b","Ġdefault s","Ġid le","Ġplugin s","Ġh arn","Ġkey clo","Ġharn ess","Ġkeyclo ak","Ġquot a","Ġ10 24","ro s","Ġk af","Ġsec ure","Ġkaf ka","Ġp ixel","rib ution","s ar","Ġdependen cies","Ġstore s","Ġr x","Ġast node","ch ar","Ġfe ed","Ġc and","Ġac l","Ġpo wer","Ġav atar","Ġpul sar","Ġnot ify","Ġdist ance","Ġ2 2","ic le","Ġor acle","te n","Ġsen der","Ġsuff ix","am l","Ġsk in","d a","ut il","Ġrequest s","xt ure","Ġpermission s","Ġlex er","3 0","Ġc b","Ġhor iz","Ġalph a","Ġrecord s","is ion","Ġmin ute","Ġpat terns","Ġfor ce","Ġadd ition","Ġdecor ator","Ġcl one","Ġmach ine","Ġsq lex","Ġclo ud","Ġradi us","as h","ment s","Ġbehavi or","Ġsearch er","Ġsplit ter","a uth","idd en","Ġin sets","Ġenc ry","Ġgra nt","Ġconfig s","Ġf ree","ale ct","Ġwrap ped","Ġt c","Ġth ere","ate s","in s","Ġs ig","st rix","Ġhy strix","Ġfi xture","Ġlaunch er","Ġlo w","Ġo ffer","Ġbu g","Ġv s","Ġm gr","Ġsub mit","Ġget ter","t s","Ġrefle ction","Ġpar sing","Ġcand id","Ġe sca","Ġemp loy","Ġrest ore","Ġd ump","Ġj ed","Ġtrans fer","Ġc ls","Ġout er","Ġh ad","ont al","Ġblock s","Ġoutput s","Ġjd k","Ġgd x","Ġsuggest ion","Ġhoriz ontal","1 0","Ġop code","Ġupd ater","o ff","Ġaw a","Ġc ip","Ġd on","la b","Ġbod ies","Ġpart s","Ġsh ader","bo und","Ġde s","Ġfol low","Ġserializ able","Ġrec ur","ca che","Ġview s","Ġhandl ers","Ġs pac","Ġrep orter","ca use","Ġpersist ence","Ġex terns","const ants","Ġbe cause","ribute d","Ġnorm aliz","Ġawa it","ali ty","Ġpref s","Ġwarn ings","Ġdire ction","Ġre q","Ġse q","Ġso ft","Ġpro fil","ma nt","Ġdel ta","Ġbu ff","Ġn an","Ġle ga","Ġop s","nt ax","Ġr ing","Ġlega cy","Ġassert ion","Ġse mant","Ġrepresent ation","Ġpo jo","Ġg one","Ġj m","Ġsupp ress","Ġgest ure","Ġextension s","Ġenc ode","un it","Ġart ist","Ġmay be","Ġba z","Ġjed is","Ġm ag","Ġdat as","ub y","Ġcoord s","a a","Ġm ime","cess or","Ġs ur","Ġad v","Ġca pt","Ġbu ck","Ġspac ing","Ġstr ict","Ġquali fied","ar ray","Ġdire ctor","Ġjdbc utils","Ġcir cle","Ġy ou","Ġh s","o per","Ġrout er","g b","Ġw ater","Ġf re","ag ing","Ġto m","Ġr ank","Ġserializ ed","Ġtx n","f ix","Ġcip her","Ġmatch ers","Ġpri ce","n g","Ġmod ification","ang es","Ġn aming","Ġw atch","Ġcan on","Ġexist ing","Ġserver s","8 8","Ġprog ram","Ġsk y","on y","Ġproject ion","Ġgrad le","Ġs im","Ġke eper","ab ility","Ġcir c","Ġan ch","Ġe as","iv es","Ġre vision","Ġstart up","Ġalloc ator","con text","s ystem","Ġanch or","st ream","Ġdig est","p r","Ġct xt","Ġexception s","ced ure","ul ate","Ġinfo s","Ġto ast","Ġinteger field","Ġdi alect","Ġroot s","ver age","Ġdir s","Ġis o","f low","la in","st ate","Ġqualifi er","t ain","ir d","Ġc e","Ġevalu ator","Ġdirector ies","Ġhad oop","Ġdefin ed","Ġdiffer ent","Ġs ce","Ġhttp s","Ġzoo m","Ġsp arse","Ġt d","Ġj ni","ul ator","Ġsy s","Ġrepe at","Ġad j","Ġthre e","Ġj unit","Ġrem ain","Ġprovid ers","Ġli ve","Ġj ax","Ġpro cedure","Ġro ll","c ard","Ġde ad","Ġret ri","vis or","w are","r or","Ġc oder","Ġcom bin","2 0","Ġdet er","Ġadd r","Ġmod ified","Ġaccess ible","Ġr gb","am b","Ġstream s","Ġc c","comp onent","Ġdocument s","if ic","Ġp s","Ġdist ributed","Ġcontain ing","Ġrece ive","Ġreg ular","Ġaccept s","Ġdom test","Ġ1 7","Ġn b","Ġinv ok","la bility","Ġcall s","Ġo ur","t t","Ġclo sure","lab el","Ġpresent ation","Ġ4 0","Ġ0 1","Ġemploy ee","Ġfeature s","Ġmarsh aller","Ġinc or","n et","Ġg ain","Ġro b","Ġauthor ity","u it","t able","Ġcomment s","n ull","Ġbla ck","Ġs low","Ġcf g","Ġbe en","Ġser ial","Ġdef ine","Ġmap s","Ġre name","od ed","Ġsqlex ception","Ġbl ue","Ġinterpol ator","Ġa sc","Ġhb m","Ġright s","li p","Ġaggreg ate","Ġdup lic","Ġset s","arg e","Ġup gr","Ġw ar","Ġun mod","Ġh ex","Ġb ul","Ġr uby","o un","Ġrest art","Ġmulti map","Ġar r","Ġincor rect","Ġaddition al","Ġd ot","Ġconfigure d","Ġw atcher","Ġn l","Ġs lic","Ġw r","Ġredi rect","Ġst orm","def in","Ġco uld","Ġparalle l","Ġco st","Ġfla vor","Ġsha re","Ġdep th","Ġut ility","Ġd ur","Ġpol y","Ġm arg","Ġs ong","Ġresol ved","vid er","Ġiter ations","i ted","Ġdo ck","Ġversion s","Ġun ion","Ġmap ped","Ġred is","x f","ar ies","b it","Ġass ume","Ġref actor","Ġsus pend","Ġcol lis","Ġn ls","read y","Ġstate s","Ġjava x","Ġquo te","Ġappe nder","Ġb c","Ġ unt","Ġcandid ate","Ġwindow s","Ġs on","d ata","9 0","Ġsub st","Ġcach ing","Ġau d","Ġspe ed","Ġi e","Ġdist ribution","Ġal ready","Ġlog s","Ġ123 4","0000 0","Ġfiles ystem","li de","Ġrole s","Ġwe ak","Ġsu ch","Ġr b","Ġhist og","Ġtr ade","ni um","Ġas pect","Ġreturn s","Ġpol l","Ġsele nium","vi ew","Ġretri e","Ġbind ings","Ġo auth","pe cted","Ġk v","Ġloc ator","Ġhost s","me di","as on","Ġinv alidate","Ġh ide","Ġdiagnost ic","Ġm b","Ġaud it","Ġremain ing","Ġdef s","Ġre load","Ġle af","Ġ et","ist ic","bu f","Ġcanon ical","Ġ2 1","Ġdeleg ation","Ġdispo se","Ġgu i","Ġcollis ion","Ġset ter","Ġtemplate s","Ġunmod ifiable","Ġcli p","th on","Ġdat an","Ġbl ank","Ġg lide","Ġmag ic","ath er","Ġstr ip","Ġpro ble","Ġm q","Ġtom cat","Ġwe ek","Ġno thing","Ġbal ance","Ġquali ty","Ġmig ration","Ġrec o","Ġn m","Ġnon null","Ġfac ade","Ġde leted","Ġser ies","Ġui util","Ġl amb","Ġali ase","ur al","Ġ1 8","lo ader","Ġ2 4","Ġinstanti ator","Ġhistog ram","Ġl ater","h older","Ġl arge","Ġprocessor s","Ġpy thon","Ġbroad cast","Ġj av","Ġspec ification","a fe","Ġtransl ator","Ġvs ync","Ġm ix","Ġcapt ure","Ġth ird","le s","ign ed","Ġplace holder","Ġinstanti ate","ke eper","Ġq name","Ġinitializ ed","Ġex act","iz ard","Ġexclu de","Ġs iz","Ġavai lability","Ġequ alizer","Ġh constants","g es","Ġst ick","Ġresol ution","ro y","Ġrefactor ing","g gle","Ġreplic a","ur l","p ar","Ġdest roy","f o","Ġesca pe","Ġse cs","Ġinter action","Ġinstrument ation","Ġcla use","Ġb i","Ġo type","Ġhi er","Ġdatan ode","id er","Ġu df","ke y","c ing","d s","Ġent ities","Ġbuil t","st yle","Ġj component","Ġwr ong","Ġlamb da","Ġsiz es","Ġzoo keeper","defin ed","ck s","vi leg","Ġcheck ing","Ġedit able","Ġprofil er","Ġnum er","Ġhier arch","Ġpri vileg","Ġm m","Ġfa ce","Ġconvers ion","Ġob tain","Ġdi m","Ġe q","Ġback ing","Ġbuff ers","Ġreference s","Ġg b","Ġthro ugh","le ss","Ġpos itive","Ġp lain","h ere","Ġda ys","Ġcol s","idd le","b ook","Ġd id","Ġm us","co me","Ġremo ved","Ġdi ction","Ġal arm","sh eet","Ġn a","Ġgener al","Ġd ns","Ġre w","Ġwater mark","d d","Ġcop ro","Ġevi ction","r pc","Ġcons ume","Ġp p","Ġj ms","for ce","in al","Ġs aml","Ġproject s","Ġfoo ter","Ġvar char","Ġsent ence","Ġf unc","Ġdefinition s","Ġcondition s","Ġto ggle","Ġm iddle","a c","Ġupgr ade","Ġexp licit","Ġsuper visor","Ġextend ed","Ġman y","con tent","Ġs ol","Ġund o","Ġpro m","gro up","Ġt y","Ġre ason","Ġpr inter","Ġm ir","Ġcomp ut","Ġcustom er","Ġparse d","Ġdig it","a ched","Ġi r","Ġe ase","Ġsp ark","Ġinject ion","Ġcopro cessor","Ġnotification s","i vate","Ġuns afe","Ġover lay","Ġcomp ress","Ġrot ation","Ġsm art","Ġker n","Ġab out","Ġclean up","Ġspec ific","Ġt ile","Ġmarg in","Ġw izard","Ġali ve","Ġr at","Ġe po","Ġh idden","Ġvert ices","Ġp ic","Ġbul k","Ġneed ed","Ġappro val","Ġbo th","Ġre b","Ġaliase s","Ġc vs","Ġac qui","Ġph one","Ġs ure","Ġdisp atch","Ġur is","Ġ8 0","Ġattach ment","Ġsy ntax","Ġnum bers","Ġor d","Ġinitializ ation","ut or","y y","Ġag ain","Ġwork ers","Ġed ges","Ġslic e","Ġbucket s","act ive","Ġsub class","Ġ2 3","Ġpersist er","Ġsub system","Ġtemp or","Ġse e","Ġj et","Ġpre load","Ġpr un","Ġpa use","b a","Ġcur ator","Ġoc cur","Ġam b","Ġtl rpc","Ġx path","Ġjava c","Ġlate st","Ġconnect ed","t ing","Ġsynchron izer","Ġun ex","Ġmus ic","Ġmatch ing","Ġm ut","t ip","Ġconstru ct","Ġtool tip","s ql","Ġint r","me nd","Ġjob s","a ss","Ġb son","Ġspec ified","Ġnot ifier","Ġsemant ic","j ava","Ġm k","Ġpercent age","connect ion","Ġun check","Ġdt m","Ġwork ing","p ted","n ow","Ġsubst it","Ġcontain ers","Ġhash er","Ġframe s","Ġb p","Ġunt il","Ġpackage s","Ġrece nt","Ġassoci ation","Ġcount ry","Ġmv c","Ġreser ved","con fig","Ġdi vider","Ġw w","Ġf old","Ġuncheck ed","Ġver ifier","i i","Ġin her","Ġg ame","Ġj bu","ry pt","Ġto o","Ġmir ror","Ġjbu i","Ġde mo","Ġ0 33","Ġmod ifiers","Ġinput s","ns ity","Ġg a","Ġaggreg ator","Ġf x","Ġas gn","Ġasgn mt","Ġproto buf","li ent","xx xx","Ġjson string","Ġcomp ression","Ġsuccess ful","2 2","Ġacc um","Ġhit s","Ġl b","Ġnumer ic","Ġp ag","Ġunex pected","Ġenc lo","Ġjm x","Ġend s","Ġd d","Ġplay ing","ce nd","Ġhierarch y","Ġlo oper","iv ity","Ġres ume","Ġdouble field","Ġgrad ient","Ġww w","Ġ0 00","Ġk ill","Ġun m","l us","Ġfal l","Ġfa vor","Ġc r","Ġevalu ation","2 6","Ġprepa red","Ġorient ation","Ġrever se","Ġsur face","Ġcont ract","Ġforward ing","b us","ser ver","Ġp ur","mp p","Ġdock er","Ġorder ed","he ap","Ġe very","Ġle t","Ġfetch er","Ġoverr id","Ġt v","Ġtermin al","Ġins ide","Ġrad ial","Ġexpand ed","Ġl lap","Ġstart ing","Ġencry ption","Ġneg ative","ap p","Ġre pa","Ġwal let","w t","Ġ4 4","Ġconfiguration s","Ġun used","Ġthe m","Ġn n","Ġurl s","st r","Ġj me","Ġgener ation","Ġinf in","Ġb s","re f","Ġdeserializ er","Ġdom ts","Ġoffset s","Ġj ps","Ġt int","ce ed","Ġle ader","Ġj label","Ġtransform ation","Ġdescrib e","Ġw ild","Ġfavor ite","Ġconf ir","mi ss","Ġadv ance","Ġquick fix","Ġsli der","en ch","Ġc od","re m","Ġfloat field","Ġt re","Ġph ys","Ġmo unt","medi ate","Ġgo od","is c","Ġtw itter","Ġc ro","b on","Ġs r","Ġd n","Ġcount s","Ġord inal","Ġso meth","Ġplay list","Ġpress ed","Ġcount ers","Ġcomplet able","Ġsometh ing","Ġas m","Ġrat io","Ġsh ell","ra se","Ġtc p","Ġdf sc","bin der","Ġcomp lex","Ġalign ment","Ġread y","Ġg ray","Ġ5 00","Ġw ant","ne ss","Ġsub p","Ġb g","Ġan g","Ġfl ink","Ġqu ant","Ġn io","Ġpage s","Ġspec ial","Ġasc ii","5 5","Ġm c","Ġassert s","Ġpo ss","Ġ6 0","Ġpl us","Ġattr url","Ġsp in","Ġjs p","Ġdis miss","Ġactiv ation","Ġrt l","Ġco in","Ġaddress es","Ġc ycle","Ġexecut able","Ġact ivate","Ġpr on","Ġf ri","Ġe st","Ġenclo sing","Ġpoo led","Ġscal ar","Ġtempor ary","Ġfore ground","7 4","1 6","f x","lo c","Ġread able","at abase","Ġtoken izer","Ġneed s","Ġrec ip","Ġro om","7 6","Ġpron oun","Ġj pa","Ġsp here","Ġca s","Ġcompo und","Ġconcur rency","raw l","Ġk nown","Ġdiction ary","Ġissue s","Ġde nsity","re g","Ġli ke","Ġx s","Ġit s","Ġse ver","Ġconvert ers","Ġx content","Ġdime n","Ġunm arsh","Ġmock s","p ers","Ġn d","Ġsk etch","Ġattempt s","Ġaccess ibility","Ġfre que","ch o","i re","Ġkey board","Ġprev ent","Ġscal ing","l ing","Ġret ries","Ġsupport s","Ġprovid ed","c om","Ġfac et","state ment","Ġinject ed","Ġd l","v ing","li te","Ġe cho","Ġnl p","Ġword s","Ġinfl ate","Ġg ap","mo us","a ke","Ġcond en","ony mous","z e","or um","Ġr w","Ġlocation s","Ġinterface s","v es","Ġan onymous","Ġph rase","Ġreb al","Ġqu orum","Ġrecip ient","Ġre v","Ġduplic ate","Ġcommand s","Ġcol lap","ca ster","Ġjax b","Ġmy sql","Ġp c","Ġformat s","Ġatt rem","Ġsubp ixel","Ġattrem pty","Ġun p","ab ilities","Ġnan o","pa ck","Ġtra in","o j","Ġvi a","Ġab sent","Ġindex ed","Ġconden sed","Ġ4 8","Ġdeclar ing","Ġkern el","Ġb f","Ġsubt ree","Ġle ast","Ġri ch","Ġeas ing","Ġmultip lier","Ġc xx","Ġvi ol","9 8","Ġcal ler","Ġqu er","Ġpre c","Ġem oj","Ġexp l","Ġclick ed","Ġicon s","Ġsynchron ization","Ġrob oto","Ġbroad caster","Ġbe ans","Ġx mpp","Ġbook mark","Ġco lo","Ġfr ont","Ġrecyc le","ad oc","Ġdi v","Ġevalu ate","Ġiter ation","Ġl ru","Ġsymbol s","Ġcl z","Ġt ip","Ġdet ect","Ġc n","Ġpro vision","Ġx y","Ġscr ub","Ġdeleg ating","Ġbrow se","Ġdeli mit","Ġupdate s","Ġb ill","Ġconfir m","1 8","Ġconstructor s","up cast","Ġswig upcast","x ff","Ġbuilder s","Ġd c","i ed","Ġassert ions","Ġpart ial","Ġvari ant","Ġ25 5","se ns","comp at","Ġst amp","Ġinst e","Ġde ep","1 5","Ġh ap","ri c","Ġb b","Ġins n","Ġgu ice","Ġter ms","ld em","Ġdescrib ed","o mp","Ġjav adoc","Ġle d","Ġbutton s","Ġtrack ing","Ġan n","oo l","Ġsh ip","Ġvert x","1 4","b ine","Ġlink s","r ate","Ġh g","Ġscr atch","Ġcol l","Ġund ert","Ġcirc uit","g ers","h s","Ġmod ify","Ġgener ics","Ġundert ow","o id","Ġc rypt","Ġpop ulate","Ġl at","Ġfor k","Ġsce ne","Ġg ate","Ġkey mod","Ġgra m","Ġd ash","Ġsh uff","Ġcap abilities","Ġintr od","Ġproble m","Ġdec ision","Ġin compat","Ġdur ing","Ġint ros","ro me","56 78","Ġme sh","t ime","Ġsession s","Ġref er","Ġoptim ize","Ġma ker","Ġg ot","Ġgu ard","ction s","Ġstatement s","Ġexpression s","Ġinterce pt","Ġincompat ible","ug e","Ġ3 3","Ġobser ve","v ation","Ġby e","ol ved","Ġwh at","oc ument","Ġconfigur ator","Ġang el","Ġfall back","al low","is m","1 3","Ġsign al","ot ype","j a","Ġe g","Ġcon cat","ch ain","Ġassign able","c ase","Ġsa x","Ġev en","Ġred ucer","Ġs lo","Ġdispo ser","Ġder ived","Ġp ick","Ġwhite space","Ġcalcul ate","l ink","Ġfri end","Ġde n","Ġregion s","Ġtim ing","Ġj st","Ġfreque ncy","Ġme an","Ġl l","Ġl p","Ġcom bine","Ġcs v","Ġl s","Ġannot ate","Ġpart ic","Ġcompar able","Ġrecur s","Ġio s","Ġcombin ed","id ge","Ġn or","pro cess","Ġinteraction s","Ġ0 2","Ġre ject","Ġem itter","Ġdoes n","6 6","Ġn fa","Ġson ar","Ġag g","m as","Ġcred ential","al led","Ġcompat ibility","Ġr c","Ġf q","Ġbo b","c re","Ġim g","m n","Ġa verage","Ġsql statement","Ġshuff le","Ġar bit","Ġso und","Ġpk g","Ġspin ner","Ġprofile s","9 2","Ġv el","it i","Ġreco very","re nce","Ġchannel s","Ġj int","Ġauthent icator","Ġacqui re","Ġo red","oc ity","Ġtt l","Ġprot otype","Ġmer ged","Ġeffect s","b ase","Ġp id","Ġon ce","ang le","Ġexp ir","sens itive","Ġstyle d","Ġ6 4","Ġprec ision","Ġmk dir","b y","Ġ12 8","Ġhand sh","Ġc nt","Ġloc aliz","Ġvel ocity","Ġvo ldem","Ġvoldem ort","Ġav oid","bu ild","Ġti cket","w ise","Ġartifact s","Ġfoc used","Ġcons ist","Ġoff line","Ġass ist","Ġchecks um","Ġs ip","oo th","Ġemoj i","Ġpost gre","Ġbehavi our","ru id","lip se","Ġd ruid","ly ing","Ġmo b","Ġlate ncy","Ġreplace ment","Ġscrub ber","Ġcor re","Ġem it","is on","Ġactiv iti","Ġth ing","Ġen umer","Ġch rome","Ġle ss","se arch","Ġinste ad","Ġfavorite s","Ġclass ifier","Ġspace s","Ġa mend","Ġwild card","Ġuns igned","Ġtime sheet","Ġparameter ized","Ġorder ing","Ġim mediate","Ġrad io","Ġhand led","bo ss","er lock","Ġind x","in y","Ġe ar","Ġd ark","ic on","Ġj boss","Ġexclu ded","Ġconfigur er","Ġgroup ing","Ġu im","Ġo i","cess ary","Ġg p","Ġbound ary","7 0","u x","met ry","Ġs qu","Ġscale d","Ġdatas et","Ġg son","Ġres ize","Ġsh erlock","Ġi c","Ġdeter min","Ġf un","Ġunder lying","7 11","Ġdist in","Ġtr unc","Ġposs ible","Ġw arm","Ġoptim ization","Ġre de","Ġj ack","Ġfa ct","Ġt ls","is ode","Ġep isode","Ġart icle","Ġ quest","Ġwa ve","Ġch o","Ġcar bon","Ġexact ly","8 3","Ġmust ang","Ġrealm s","Ġexch anges","Ġb ri","Ġvisitor s","Ġperform ance","Ġst a","Ġho ver","Ġest im","Ġrepositor ies","Ġannot ator","lu x","Ġaut om","Ġy et","Ġimplement s","Ġu d","pt ime","Ġdo g","Ġh ard","Ġdistin ct","k s","Ġl java","Ġn in","Ġtransaction al","Ġi v","Ġde v","Ġri pp","Ġcorrect ly","Ġcomp li","Ġconf li","Ġcompat ible","bu ffer","Ġm r","Ġhist or","Ġconfli ct","Ġtra il","Ġt ick","urn al","ug ht","id ent","s ide","Ġc rop","Ġindex es","Ġfull y","Ġblock form","l ation","Ġab ort","Ġshard ing","Ġnull s","e el","us er","in st","Ġav g","Ġusage s","Ġt iny","Ġlog ical","Ġopcode s","im bus","che ma","pe ction","ra ce","Ġ12 7","Ġadj ust","Ġre build","8 5","rol l","tent ion","ith ub","Ġextra s","Ġrefle ct","Ġappe ar","Ġstream ing","Ġjo urnal","Ġwh eel","Ġod atabase","Ġg ithub","Ġeditor s","Ġcomp act","Ġchoo se","e le","Ġd ue","val ue","Ġinstanti ated","Ġs as","he ad","Ġdelimit er","a il","Ġinit i","Ġsli ding","Ġapp le","Ġindex er","Ġf f","Ġintrod uce","Ġfailure s","7 5","ine ss","8 6","Ġthe se","Ġmodel s","Ġatt ached","Ġp m","Ġb el","Ġdec oded","Ġre n","Ġcalcul ator","Ġal so","Ġp ing","Ġaccount s","0000 0000","Ġtop ics","Ġback ed","Ġun defined","Ġrede li","e f","Ġhe li","Ġled ger","Ġfail s","Ġ ment","let te","ser vice","Ġimp orter","Ġphys ical","Ġent itle","Ġcolo red","Ġsta ff","Ġ5 2","Ġj id","Ġpre t","wa ve","al one","Ġpa lette","Ġbuild ing","Ġin bound","r s","Ġrec order","Ġspe cs","Ġcrypt o","Ġminute s","Ġstand alone","Ġexp orter","Ġprocess ed","Ġb ench","Ġpin n","Ġnin ja","Ġte x","Ġp ng","Ġre active","Ġinstanti ation","Ġr anges","Ġgre ater","Ġb le","Ġsa mp","Ġu ptime","Ġrel ated","pr int","ar i","Ġl uce","Ġluce ne","Ġquo ted","Ġbr idge","ra ction","Ġt ap","Ġprimit ives","Ġj text","an cing","Ġf ed","Ġroll back","Ġm t","Ġin sensitive","Ġw ifi","Ġdeclar ations","Ġbl ur","Ġsla sh","Ġvector s","col le","Ġle ad","Ġts db","ut ton","tt le","or er","Ġjet ty","Ġdeli very","Ġw all","Ġn imbus","ut ter","Ġstate ful","Ġi q","Ġepo ch","Ġap k","Ġspec ify","Ġrender ers","Ġb log","Ġdir ty","Ġbreak er","m ine","Ġdeserializ e","on fig","Ġcompar ison","Ġexpir ation","50 9","ing er","Ġhandsh ake","Ġc d","Ġf at","Ġtool chain","Ġeng lish","w d","Ġmo st","Ġrep lay","Ġsw ing","Ġpar ms","Ġelastic search","li ed","Ġcateg or","Ġhistor ic","Ġcase s","Ġtarget s","Ġnor th","Ġf m","Ġnon ce","Ġbound ed","Ġnormaliz e","Ġau x","Ġrew rite","Ġimage s","Ġwa ke","Ġdepend ent","Ġstore d","Ġa ri","Ġexp onent","Ġar row","m and","Ġdelay ed","Ġkey ed","Ġver bo","Ġun able","cre te","Ġquest ion","if e","Ġaw t","Ġjack son","Ġpinn ed","Ġmulti binder","Ġwrap pers","Ġconnect ivity","Ġentitle ment","Ġsp i","st ers","Ġinclu des","o ver","Ġinvok er","Ġt icker","Ġre tention","Ġcre ating","Ġk s","Ġsas l","Ġpro x","Ġobj c","Ġv c","Ġb old","Ġunit s","el y","Ġret ain","Ġs un","Ġimp orted","8 4","Ġimp licit","Ġgram m","Ġcontrol s","i pa","Ġthe y","Ġver ification","h ore","Ġman ual","Ġdeter mine","ipa nt","map hore","Ġbyte code","Ġn p","Ġreplic as","Ġcomput ation","Ġequ iv","r ans","Ġpolic ies","Ġtb l","Ġh ot","Ġsamp ler","mo s","Ġ200 0","n ife","le ct","Ġf ly","Ġse maphore","Ġsubt itle","Ġconvers ation","Ġwait ing","Ġcur ve","Ġgu ava","Ġac ls","Ġpre set","on es","Ġpartic ipant","Ġpret ty","Ġmkdir s","Ġsli de","Ġapp s","Ġprod uce","Ġrequire s","at ter","Ġbp mn","ra nt","Ġsc m","ph ere","Ġper mit","Ġbt c","Ġsa les","Ġpartition er","Ġedit ing","0000 00","Ġec lipse","cend ing","a ce","Ġwrit ten","Ġd fa","Ġt m","Ġjme ter","Ġdes ign","li b","Ġgra ils","Ġ9 9","h ip","Ġcompute d","Ġ2 6","Ġj er","Ġst ill","Ġp ix","Ġroute s","Ġsi e","Ġfat al","Ġview port","Ġbad ge","Ġexc lus","g i","Ġco verage","Ġmeasure d","c lient","Ġexpi red","Ġpo m","Ġcallback s","Ġcancel led","Ġat mos","ver se","Ġbe st","Ġbench mark","Ġpronoun s","Ġne ar","Ġcro ss","g o","Ġm p","ro und","st or","Ġind array","Ġname node","9 6","ann ed","sc roll","Ġ5 6","Ġen vel","Ġcance led","Ġrest ri","Ġcod ing","Ġgeo metry","Ġregist r","Ġ3 4","Ġintent ion","ag ram","Ġsky frame","Ġsh r","Ġremo val","Ġen h","Ġ2 56","Ġsql utils","Ġmark et","Ġbit co","Ġconv ent","Ġasset s","Ġsing ular","de bug","pe c","Ġadapt ive","Ġv es","Ġne cessary","Ġsen sor","Ġtrunc ate","Ġp i","Ġtransaction s","Ġquer ies","Ġ100 00","Ġimplement or","Ġclean er","Ġca ption","Ġun w","Ġh c","ru pt","Ġacd m","Ġfl ing","Ġg utter","Ġtrans ient","Ġinte g","Ġsep ar","99 99","ializ e","Ġ xx","Ġstatist ic","Ġend ian","al y","Ġdis allow","ot ing","n able","Ġsw ap","Ġ xxx","man ager","Ġmult ic","et ype","Ġcook ies","Ġcommit ted","7 3","Ġg t","Ġwa y","Ġa z","Ġan om","Ġsp rite","se y","colle ction","Ġface book","Ġblock ed","Ġrem oting","Ġp x","Ġreplic ated","Ġwork s","Ġker ber","Ġc lu","Ġw el","Ġ3 6","12 34","Ġinher it","Ġst uff","Ġy yy","Ġp iv","et ic","Ġb id","Ġtra cer","Ġkerber os","Ġfoo bar","Ġequiv ale","Ġex e","Ġbut ter","Ġves pa","r aries","Ġeffect ive","Ġcalcul ation","Ġcheck style","u i","Ġinst alled","ff ic","Ġarbit rary","Ġser de","Ġstop ped","Ġblack list","Ġbill ing","Ġexpi re","Ġjer sey","Ġl t","Ġatmos phere","Ġscope s","e ster","Ġe e","Ġpe ek","Ġa a","Ġdecor ation","Ġtra vers","Ġdfsc onfig","as er","ar io","Ġal tern","Ġf le","Ġg z","Ġc id","Ġpro v","Ġtermin ation","Ġhandle s","Ġpiv ot","ub e","Ġrecurs ive","h n","Ġfilter ed","Ġso cks","Ġshr ink","Ġmix in","Ġsever ity","Ġw c","Ġwe st","Ġclu sters","Ġsq lite","Ġanalyz ed","Ġlib raries","Ġout bound","Ġwel come","Ġe ure","Ġeure ka","Ġsche mas","Ġdescriptor s","ge on","Ġn ump","Ġfuture s","Ġ urn","Ġmultip art","l t","Ġcompli ance","1 30","d ay","Ġpa st","Ġh file","Ġresponse s","0 5","Ġcor ner","Ġprom ise","Ġtext s","d oc","Ġcomp an","Ġsce n","ss and","Ġnan os","9 4","o me","k it","Ġno ins","Ġnoins pection","Ġfragment s","Ġw ell","Ġappear ance","Ġy es","Ġwork flow","Ġport able","Ġse m","Ġtri p","Ġinteg ration","i li","ist er","Ġpro b","Ġref s","Ġs id","Ġta il","qu ery","Ġback off","Ġpl ot","Ġslo p","om ing","Ġripp le","Ġimport s","Ġdis c","Ġnump ad","Ġqu al","Ġhap pen","7 2","Ġgramm ar","li ght","Ġg reen","Ġj fx","Ġsqu are","Ġo pa","Ġins ight","Ġsave point","Ġle ak","Ġsp y","Ġcharact ers","Ġexpand able","Ġun ic","Ġ4 5","Ġm x","Ġopa que","Ġinc oming","Ġre ward","Ġlo ss","Ġdispo sed","Ġfle et","p x","Ġscrol ler","a ve","Ġlet ter","Ġbe am","Ġsuper class","Ġcompress ed","Ġpro c","Ġident ifiers","Ġst icker","Ġanom aly","Ġp t","Ġalph ab","Ġle ase","Ġc xf","ver ted","Ġf lip","Ġscen ario","Ġmac ro","at ic","Ġb d","is pan","arg s","Ġinfin ispan","Ġma j","Ġsyn th","Ġun set","Ġhy per","ele ments","Ġs al","Ġc tr","Ġre ent","Ġkey map","t ree","Ġappend able","ssand ra","Ġca ssandra","Ġaut ow","Ġcontext s","le ment","Ġint s","Ġm ic","Ġdig ester","g able","Ġbri ck","Ġexample s","Ġd u","Ġx debug","Ġring buffer","Ġcount down","Ġra ck","ator y","Ġli te","mpl ing","ed a","Ġrepa ir","Ġg s","Ġm n","Ġexpi res","Ġrever b","Ġregist ers","se s","Ġposition s","Ġstick ers","Ġenvel ope","Ġm id","Ġdi p","Ġst am","Ġpartition ed","Ġf ab","Ġme ter","ic ated","Ġpri me","99 9","Ġfollow ing","Ġverbo se","ar ant","bin ary","Ġversion ed","Ġreent rant","Ġre le","Ġcho ice","ure d","Ġs orter","Ġe ast","Ġdp ad","Ġjson array","Ġother wise","Ġredeli very","Ġevi ct","in fo","ceed ed","Ġal ter","Ġ2 8","Ġincrement al","Ġlock ed","Ġod ocument","Ġsuspend ed","Ġ3 1","Ġ200 1","Ġretrie ve","Ġn at","Ġdet ection","Ġb and","Ġv e","out ils","Ġrot ate","Ġmo vi","Ġstep s","Ġp et","Ġav ro","Ġmaj or","Ġoccur rence","Ġn pe","av ing","Ġtw eet","Ġk now","Ġ5 000","Ġ11 1","Ġlevel s","Ġinclu ded","Ġi map","Ġk it","Ġs eda","Ġplay back","Ġal lux","Ġallux io","Ġlog ged","Ġj p","Ġpar s","4 4","Ġal t","nt ial","Ġdisco ver","l li","sh ip","pe de","Ġport s","Ġopen ed","Ġmv p","Ġstam pede","Ġctr l","Ġequ ality","Ġsp ider","Ġr f","Ġde let","Ġauthor izer","Ġjo hn","Ġoverrid es","Ġn ut","li es","Ġdis connect","Ġz wave","Ġun re","Ġsort ing","Ġr id","Ġet c","Ġ80 80","Ġseque ntial","Ġv p","Ġqueue s","Ġp d","Ġcap ability","o ve","Ġhelp ers","Ġt it","Ġtravers al","ag ger","rib utor","Ġtri e","Ġc ity","Ġmess aging","Ġga uge","32 0","Ġf it","Ġhint s","Ġn oop","pa rent","aliz e","Ġcan al","Ġbal lo","Ġhandl ing","7 7","Ġgoo g","Ġcall ing","Ġss a","Ġviol ation","Ġm ight","t ab","Ġrect angle","Ġrelation ship","Ġj an","8 00","me m","Ġgu arant","ith er","Ġtit an","Ġpro per","Ġlo st","Ġheli x","an der","Ġ3 00","ft ware","Ġty p","at able","ch an","Ġchunk s","Ġfocus able","c ript","Ġfed er","Ġlog out","Ġballo on","Ġjson exception","Ġrelease d","la s","Ġt z","Ġh old","en ger","Ġv pc","Ġmark up","Ġdesc r","Ġmess enger","Ġmanag ers","Ġts d","Ġd umb","Ġskin nable","Ġsnapshot s","9 5","i red","Ġc ron","Ġo m","Ġalloc ated","Ġun ass","Ġinstruction s","Ġadvance d","Ġprivileg ed","Ġs sh","Ġari th","Ġprom pt","po p","Ġas cending","w id","Ġeas y","Ġunic ode","ul er","Ġlimit s","b r","Ġclient s","Ġcirc ular","Ġis ol","Ġshortcut s","Ġregex p","ing le","Ġsubt ask","Ġor c","Ġdat um","pe ns","Ġw p","ak er","Ġalphab et","Ġexpi ry","Ġso ck","Ġm al","Ġr ating","Ġassignment s","Ġf tp","Ġmeasure s","Ġh ref","Ġp lease","lu et","Ġe lap","sc lass","Ġio sclass","luet ooth","i b","Ġdis card","Ġnormaliz ed","Ġlanguage s","met ic","mi ted","Ġui elements","Ġrs a","h a","am er","Ġbase line","Ġmeta store","Ġh ub","Ġdec omp","Ġsub net","s ize","Ġun lock","par ser","Ġaccum ulator","Ġf inger","Ġro cks","Ġre use","Ġarith metic","Ġb luetooth","Ġshow n","o ugh","Ġo id","Ġte le","re ader","Ġin gest","Ġmembers hip","Ġte ns","Ġtens or","k u","Ġv fs","Ġun read","Ġct or","Ġdash board","Ġwork force","so ftware","Ġconvent ion","Ġworkforce software","Ġp collection","Ġsecond ary","Ġmedi um","Ġa aa","Ġpre ser","Ġvis ual","Ġopt s","Ġssl context","Ġyyy y","t ics","Ġsc ann","Ġpro be","Ġover flow","Ġcur r","Ġex po","Ġat las","Ġlist able","u ation","Ġdat agram","Ġuse s","Ġcount ing","Ġc rawl","Ġsplit s","res ource","Ġab ove","Ġme chan","Ġm l","Ġbrick let","Ġdep s","Ġelap sed","Ġf d","Ġcomp action","Ġc ue","Ġh al","Ġj ta","Ġbe ing","use s","Ġun ary","Ġanaly tics","Ġl in","un geon","Ġmultic ast","Ġg oto","Ġcons um","Ġhash ing","b ank","rec ord","en cy","Ġb ank","Ġapplication s","Ġz ones","on heap","Ġmem off","Ġmem onheap","Ġmemoff heap","Ġlimit er","u ction","Ġlay ers","Ġdown loader","Ġdef erred","Ġhour s","Ġe h","Ġoptim izer","Ġs pa","Ġfore ign","Ġthumb s","li an","Ġnew s","pe g","Ġtree bank","Ġf b","Ġclo b","Ġv r","et ing","Ġw m","Ġcom ma","Ġdescription s","Ġunw rap","Ġs an","u de","Ġd st","Ġst ale","Ġcon crete","Ġgro u","Ġr uler","sc reen","Ġg lass","Ġbel ow","t o","Ġe y","Ġpin ot","Ġqueue d","Ġanim ate","Ġcor s","v ar","Ġf bo","Ġz y","Ġu int","Ġu fs","Ġdire cted","Ġmin or","Ġbo un","Ġbig int","Ġiter ate","Ġslot s","Ġg ather","Ġvar args","l ark","Ġver b","Ġk o","Ġpass ed","Ġble nder","Ġrender ing","Ġsol ution","Ġh m","Ġf raction","Ġmod ality","Ġdra in","o se","2 56","od el","Ġmod al","Ġjb utton","al ly","Ġas k","Ġw at","Ġpart icle","Ġsuite s","Ġdigit al","Ġde que","Ġxml s","Ġstr ipe","Ġcollector s","ict ure","Ġtra ffic","Ġcategor ies","Ġplace ment","1 00","p y","Ġar c","Ġsky lark","Ġseek bar","5678 90","Ġpar ag","Ġstick y","Ġsemant ics","Ġden se","Ġ0 4","Ġboo st","Ġer asure","ical ly","Ġdetermin istic","it ude","lay er","Ġbitco in","Ġl int","Ġpair s","Ġc ru","Ġsk ew","Ġli fe","Ġinterceptor s","Ġmo ved","Ġloc ate","Ġparag raph","Ġh ow","ler ate","Ġmovi e","Ġsign ed","Ġi b","Ġse en","Ġz ep","pe lin","Ġmob ile","Ġzep pelin","se c","Ġv b","Ġn v","Ġi ce","Ġj wt","Ġpre di","Ġp upp","Ġz z","Ġfeed back","Ġtre es","Ġgz ip","Ġos gi","w ay","Ġma nt","Ġds l","m d","ff e","Ġpe op","Ġgen re","Ġtime d","Ġthe ir","Ġanalyz e","Ġwe ather","ri er","yc rawl","Ġpupp ycrawl","Ġres p","Ġdirect ive","om mand","Ġs f","Ġadmin s","Ġkey store","Ġy aml","Ġkeyword s","Ġepo xy","i k","Ġinv olved","mod el","Ġ0 3","Ġhigh est","Ġut c","Ġa es","Ġprun ed","Ġg if","Ġli ttle","i er","Ġprov ide","ual ly","Ġparent s","Ġparce l","5 4","Ġc ra","Ġacce pted","Ġa ffect","pe ctor","Ġintros pector","6 9","il ar","Ġle g","Ġhost ed","Ġb anned","Ġfold ing","Ġmark ed","Ġin avi","Ġtest ed","Ġfilter ing","Ġrebal ance","Ġass em","Ġsie ve","Ġsim ilar","Ġper m","2 7","og en","Ġsen s","Ġhighlight ing","Ġn er","r ule","Ġimplement ations","v a","Ġh um","Ġwe igh","Ġa round","Ġc u","Ġdesign er","al a","te s","Ġexecute d","Ġdimension s","Ġscope d","Ġpin point","Ġcomm un","b re","Ġdiffer ence","Ġindex ing","Ġcach es","Ġreject ed","Ġt f","en v","Ġsubstit ution","Ġb lo","Ġinv is","Ġoperand s","Ġst an","Ġtab bed","Ġsubstit utor","col s","res ult","p et","Ġtod ay","Ġper f","Ġaut ogen","Ġenh ance","Ġrepa int","Ġment ion","Ġc raw","Ġclose able","Ġres um","Ġg ue","Ġj re","Ġy our","Ġh h","vers ion","Ġv end","Ġre connect","Ġexclu des","Ġg wt","Ġp icture","ind ex","Ġweight s","Ġg bc","l f","Ġcond uit","Ġl on","Ġenumer ation","Ġm g","ab ou","Ġip v","Ġwat abou","Ġprocess es","Ġnote book","Ġl ot","Ġexpl orer","Ġpeop le","y ntax","Ġle arn","Ġout side","Ġcompo s","Ġfail over","Ġprop ag","Ġcell s","Ġr v","Ġpl ural","Ġre ached","Ġun res","Ġconstru cted","Ġ9 0","Ġreser vation","Ġagain st","Ġstat uses","if orm","Ġthumb n","v ent","Ġz h","Ġv k","Ġg row","Ġcp p","Ġz node","Ġxs lt","Ġequivale nce","Ġcid r","Ġvend or","Ġh aving","Ġchain ed","z one","Ġinvis ible","Ġmx bean","f ull","1 7","Ġoperator s","Ġsm ali","Ġc ss","Ġe of","Ġunass igned","Ġ lic","Ġd ual","Ġpag ination","Ġp orter","Ġrecord ing","Ġin vi","Ġsi mp","Ġwrite able","Ġl w","ot i","Ġinvok ed","8 2","si red","Ġpur ge","Ġd ere","Ġst u","Ġmal formed","Ġval s","Ġm and","Ġextra ction","Ġconf orm","Ġr nd","Ġcharset s","is et","Ġread ing","Ġle ave","le n","Ġe ither","Ġon line","Ġ4 00","Ġexplicit ly","se ssion","Ġed ited","Ġoptim ized","Ġatt rib","Ġif ace","reg ion","Ġro bo","Ġdelet ion","Ġbu h","Ġun ca","Ġnamespace s","es er","ip pet","arch ar","Ġhyper link","s g","Ġf ade","Ġkey frame","Ġdead line","Ġti er","Ġc str","not ification","Ġassoci ate","Ġsn ippet","Ġdynam ics","Ġ201 6","Ġconfirm ation","p rop","ir ing","Ġconsist ent","an e","Ġ0 8","Ġxmls chema","Ġc ube","Ġk ry","di re","Ġl y","Ġjo int","Ġregistr ar","full y","Ġmand atory","Ġproble ms","Ġty ping","Ġinit xxxmethodnamexxx","Ġud p","Ġpast e","g ress","Ġme ans","Ġon es","Ġ2 7","Ġk b","Ġtrans log","Ġoc ommand","Ġxml stream","Ġbu dd","oo led","Ġdeprec ation","Ġkry o","Ġn g","Ġare n","Ġdynam o","Ġunp ooled","3 6","Ġk nife","xf d","Ġunmarsh aller","Ġquant ization","rib e","Ġj com","Ġimplement ed","i ss","Ġl c","Ġcache able","Ġgr pc","Ġguarant ee","Ġde sired","Ġdi ct","Ġdis ru","Ġv ery","Ġwith in","Ġns object","an ager","Ġjst ype","Ġdocument ation","Ġf lex","Ġprun er","Ġtrans parent","0 3","Ġf our","Ġjs r","Ġrebal ancing","ub er","Ġlock s","Ġj a","pe st","x ba","Ġmin us","Ġqu ad","Ġfa ir","Ġroll ing","Ġqu art","Ġthumbn ail","f it","Ġembed der","Ġgrou ped","co py","Ġsp am","Ġinf erence","Ġlic en","c c","Ġfe el","Ġi outils","Ġo g","Ġapp lied","Ġtermin ate","2 1","Ġld eser","Ġmarsh all","ba ec","Ġldeser ialize","Ġa h","Ġscheme s","Ġunca ught","Ġen force","Ġinitializ ing","Ġ15 0","now led","Ġchang ing","Ġh er","Ġr hs","Ġaggreg ated","Ġo mit","Ġtool kit","Ġlocaliz ation","Ġvar y","Ġprivileg es","en s","ali as","ig u","Ġflat ten","Ġstr ong","sca pe","h el","Ġcollap se","Ġd y","Ġin ode","Ġprote ction","Ġrun s","tr ans","Ġtr an","Ġf p","Ġdef er","Ġinvi te","Ġshould n","Ġren ew","ializ ed","0 8","Ġtrans itive","Ġcontact s","ap i","Ġdp i","Ġd uff","Ġa head","Ġns notification","Ġblo om","Ġ2 34","Ġreport s","Ġgue ss","g y","Ġj u","z a","Ġcorre ctions","Ġweb p","Ġsample d","Ġd an","process ed","Ġcraw ler","Ġt line","Ġup stream","Ġexclus ive","Ġcurrent ly","Ġinspection s","st at","Ġlist ing","Ġbudd y","Ġfinger print","Ġpartition ing","g l","i lable","Ġzk w","Ġpre se","pec ial","Ġmark ers","Ġgp u","Ġsynth etic","Ġmock ed","Ġrefer r","Ġpag in","p lace","Ġcustom ize","or ph","Ġpack ed","ul a","Ġc v","Ġplay ed","Ġthread ed","Ġtime zone","Ġwal ker","Ġen for","Ġat te","Ġexecut ing","raph ics","Ġc ul","Ġscroll bar","Ġoccurrence s","Ġinte lli","4 2","Ġr p","Ġmultip ly","Ġresum able","l ers","Ġrt n","x ffff","ma x","Ġnum s","Ġdfsc luster","Ġlead ing","w rite","Ġtrain ing","Ġassem b","3 5","Ġp w","Ġpref er","Ġsp ann","u alizer","Ġpersist ed","Ġcompan y","Ġinstrument ed","Ġcon j","Ġde vel","Ġbar rier","Ġab le","Ġjo y","Ġuris yntax","Ġfa v","Ġre il","Ġsh ar","Ġtra verse","Ġp vs","Ġw ire","an c","Ġw in","Ġj scroll","Ġst em","Ġlog o","um ber","or ing","Ġpg raphics","Ġsr v","Ġinvoc ations","Ġamb ient","Ġread ers","la ps","Ġauthent icated","Ġmer ging","Ġnavig ate","Ġl m","Ġtmp dir","Ġxdebug ger","Ġd x","Ġread only","Ġw ere","Ġunres olved","Ġlin ux","so cket","Ġl u","Ġc ms","Ġman ip","t ag","Ġex ce","Ġresol vable","Ġsa mpling","Ġmix ed","Ġc yc","Ġweb socket","Ġp aging","Ġn c","Ġmechan ism","Ġfeder ation","Ġun processed","Ġstrateg ies","Ġformat ted","Ġmic ros","un ct","m ode","Ġreal time","Ġk y","Ġ7 5","Ġt p","Ġb ra","Ġob s","Ġover load","Ġcompos ition","ab ber","ad d","Ġo l","ri cs","Ġun ava","a red","Ġpre defined","Ġack ed","Ġback log","od y","art ition","Ġiterator s","Ġarray copy","Ġexp ander","Ġsign er","Ġhook s","Ġregion server","Ġdecla re","d ec","Ġro l","ines is","Ġa j","Ġup pest","Ġuns ub","Ġmode s","k es","im ate","Ġinvo ices","Ġcop ied","Ġbranch es","Ġg aller","Ġspa wn","ate n","lin es","Ġscroll ing","Ġmail box","Ġie lement","1 9","ro ot","Ġin co","Ġca ps","Ġack nowled","Ġprofil ing","Ġgaller y","Ġf mt","Ġlog ic","Ġn u","Ġstd out","Ġca m","Ġmo ther","se ction","Ġwindow ed","Ġcoordin ates","Ġw ould","Ġcont ributor","Ġwrite s","Ġcru ise","Ġconsist ency","Ġjan itor","Ġko ala","Ġarg b","Ġcontrol lers","Ġsuggest ed","reg ister","d y","t op","Ġh ll","Ġk inesis","Ġwh ole","og n","Ġc ut","Ġdevice s","Ġrepe ated","Ġkey tab","Ġdes cend","go ing","Ġsw t","Ġrequire ment","Ġcon verted","Ġ5 7","Ġsmall int",
[...]
