{"version":"1.0","truncation":null,"padding":null,"added_tokens":[{"id":0,"special":true,"content":"<unk>","single_word":false,"lstrip":false,"rstrip":false,"normalized":false},{"id":1,"special":true,"content":"<pad>","single_word":false,"lstrip":false,"rstrip":false,"normalized":false},{"id":2,"special":true,"content":"<s>","single_word":false,"lstrip":false,"rstrip":false,"normalized":false},{"id":3,"special":true,"content":"</s>","single_word":false,"lstrip":false,"rstrip":false,"normalized":false}],"normalizer":null,"pre_tokenizer":{"type":"ByteLevel","add_prefix_space":true,"trim_offsets":true},"post_processor":{"type":"BertProcessing","sep":["</s>",3],"cls":["<s>",2]},"decoder":null,"model":{"type":"BPE","dropout":null,"unk_token":"<unk>","continuing_subword_prefix":null,"end_of_word_suffix":null,"fuse_unk":false,"vocab":{"<unk>":0,"<pad>":1,"<s>":2,"</s>":3,"!":4,"\"":5,"#":6,"$":7,"%":8,"&":9,"'":10,"(":11,")":12,"*":13,"+":14,",":15,"-":16,".":17,"/":18,"0":19,"1":20,"2":21,"3":22,"4":23,"5":24,"6":25,"7":26,"8":27,"9":28,":":29,";":30,"<":31,"=":32,">":33,"?":34,"@":35,"A":36,"B":37,"C":38,"D":39,"E":40,"F":41,"G":42,"H":43,"I":44,"J":45,"K":46,"L":47,"M":48,"N":49,"O":50,"P":51,"Q":52,"R":53,"S":54,"T":55,"U":56,"V":57,"W":58,"X":59,"Y":60,"Z":61,"[":62,"\\":63,"]":64,"^":65,"_":66,"`":67,"a":68,"b":69,"c":70,"d":71,"e":72,"f":73,"g":74,"h":75,"i":76,"j":77,"k":78,"l":79,"m":80,"n":81,"o":82,"p":83,"q":84,"r":85,"s":86,"t":87,"u":88,"v":89,"w":90,"x":91,"y":92,"z":93,"{":94,"|":95,"}":96,"~":97,"¡":98,"¢":99,"£":100,"¤":101,"¥":102,"¦":103,"§":104,"¨":105,"©":106,"ª":107,"«":108,"¬":109,"®":110,"¯":111,"°":112,"±":113,"²":114,"³":115,"´":116,"µ":117,"¶":118,"·":119,"¸":120,"¹":121,"º":122,"»":123,"¼":124,"½":125,"¾":126,"¿":127,"Â":128,"Ã":129,"Ä":130,"Å":131,"Î":132,"â":133,"ã":134,"ä":135,"å":136,"æ":137,"ç":138,"è":139,"é":140,"ê":141,"ë":142,"ì":143,"í":144,"ï":145,"ð":146,"ĉ":147,"Ċ":148,"č":149,"Ġ":150,"Ģ":151,"ģ":152,"Ĥ":153,"ĥ":154,"Ħ":155,"ħ":156,"Ĩ":157,"ĩ":158,"Ī":159,"ī":160,"Ĭ":161,"ĭ":162,"Į":163,"į":164,"İ":165,"ı":166,"Ĳ":167,"ĳ":168,"Ĵ":169,"ĵ":170,"Ķ":171,"ķ":172,"ĸ":173,"Ĺ":174,"ĺ":175,"Ļ":176,"ļ":177,"Ľ":178,"ľ":179,"Ŀ":180,"ŀ":181,"Ł":182,"ł":183,"Ń":184,"ĠĠ":185,"ĠĠĠĠ":186,"ĠĠĠ":187,"ĠĠĠĠĠĠĠĠ":188,"in":189,"er":190,"et":191,"on":192,"ĠĠĠĠĠĠĠ":193,"at":194,");":195,"re":196,"st":197,"le":198,"Ġ{":199,"Ġ=":200,"en":201,"al":202,"ion":203,"ĠĠĠĠĠĠĠĠĠĠĠ":204,"Ġt":205,"Ġ}":206,"or":207,"ce":208,"Ġĉ":209,"Ġn":210,"Ġ(":211,"get":212,"ing":213,"tr":214,"Ġi":215,"()":216,"ur":217,"Ġp":218,"an":219,"Ġc":220,"ro":221,"ar":222,"es":223,"ct":224,"it":225,"am":226,"se":227,"ul":228,"Ġf":229,"ic":230,"de":231,"Str":232,"ent":233,"String":234,"ut":235,"Ġth":236,"pt":237,"ĠĠĠĠĠĠĠĠĠĠĠĠĠĠĠ":238,"Ġĉĉ":239,"ret":240,"ew":241,"as":242,"Ġif":243,"is":244,"ad":245,"urn":246,"Ġs":247,"return":248,"ĠĊ":249,"ate":250,"ue":251,"ub":252,"čĊ":253,"();":254,"ed":255,"Ġe":256,"Ġb":257,"ull":258,"ch":259,"Ex":260,"ption":261,"int":262,"ĠĠĠĠĠ":263,"In":264,"Ġreturn":265,"Ġnew":266,"il":267,"ap":268,"ame":269,"lo":270,"//":271,"lic":272,"ist":273,"id":274,"Ġre":275,"pe":276,"Ġ\"":277,"Ġm":278,"te":279,"Ġnull":280,"ception":281,"ag":282,"Ġv":283,"ab":284,"un":285,"Exception":286,"ublic":287,"Con":288,"ol":289,"Ġ//":290,"om":291,"ation":292,"Ġpublic":293,"Ġ+":294,"ect":295,"ri":296,"(\"":297,"th":298,"ile":299,"ĠĠĠĠĠĠĠĠĠĠĠĠĠĠĠĠ":300,"ck":301,"ype":302,"inal":303,"ĠString":304,"Ġst":305,"el":306,"St":307,"ass":308,"Ġd":309,"able":310,"ment":311,"Name":312,"ode":313,"Re":314,"row":315,"ig":316,"xt":317,"Ġĉĉĉ":318,"ra":319,"alue":320,"ot":321,"im":322,"Ġo":323,"lass":324,"Ġin":325,"Ġw":326,"if":327,"ter":328,"List":329,"per":330,"set":331,"ject":332,"Type":333,"())":334,"ss":335,"Ġthe":336,"iz":337,"Ġ==":338,"En":339,"ult":340,"age":341,"od":342,"ĠĠĠĠĠĠĠĠĠĠĠĠĠĠĠĠĠĠĠ":343,"Ġ0":344,"Ġ!":345,"um":346,"Ġget":347,"ver":348,"end":349,"Ġthrow":350,"put":351,"Ġint":352,"ey":353,"add":354,"ĠS":355,"Pro":356,"our":357,"Ġa":358,"bject":359,"().":360,"Ġfinal":361,"Ġfor":362,"oid":363,"up":364,"ĠC":365,"and":366,"ild":367,"Ġl":368,"ath":369,"Ġ!=":370,"))":371,"ource":372,"em":373,"Ġvoid":374,"ata":375,"atch":376,"Id":377,"\");":378,"Ġcon":379,"ve":380,"Ġtr":381,"());":382,"Ġto":383,"Ġres":384,"ff":385,"ess":386,"\",":387,"ĠI":388,"Ar":389,"ase":390,"Ġstat":391,"qu":392,"oun":393,"ers":394,"ction":395,"Object":396,"oo":397,"Ġh":398,"Res":399,"len":400,"File":401,"pl":402,"Ġel":403,"Map":404,"us":405,"ĠT":406,"Lo":407,"Ġelse":408,"art":409,"dex":410,"pon":411,"Ġthis":412,"Ġstatic":413,"que":414,"gth":415,"con":416,"Bu":417,"ize":418,"De":419,"ren":420,"vi":421,"Ġpro":422,"Value":423,"To":424,"stan":425,"ime":426,"try":427,"Ġ<":428,"Ġ&":429,"[]":430,"to":431,"ib":432,"ray":433,"quest":434,"Ġ:":435,"));":436,"ext":437,"fig":438,"app":439,"res":440,"Ġ-":441,"text":442,"lean":443,"Ġis":444,"Class":445,"Ġlo":446,"ity":447,"length":448,"pert":449,"aram":450,"rent":451,"orm":452,"iel":453,"ort":454,"oolean":455,"ield":456,"Ġ&&":457,"(),":458,"ain":459,"ream":460,"Ġex":461,"ER":462,"Ch":463,"rit":464,"ser":465,"Ġĉĉĉĉ":466,"ator":467,"ack":468,"ir":469,"ctor":470,"os":471,"final":472,"riv":473,"Ġde":474,"Ġch":475,"ĠM":476,"Key":477,"fo":478,"At":479,"Ġthrows":480,"eth":481,"lement":482,"rivate":483,"Ġ1":484,"essage":485,"ader":486,"vice":487,"Array":488,"ger":489,"ethod":490,"bu":491,"ord":492,"Ġprivate":493,").":494,"ilder":495,"all":496,"Path":497,"ON":498,"stance":499,"ition":500,"Com":501,"ow":502,"ĠD":503,"ure":504,"key":505,"ace":506,"new":507,"ror":508,"ay":509,"ĠĠĠĠĠĠĠĠĠĠĠĠĠĠĠĠĠĠĠĠĠĠĠ":510,"Node":511,"cess":512,"ong":513,"Set":514,"ress":515,"ine":516,"ĠP":517,"ies":518,"ĠĠĠĠĠĠĠĠĠ":519,"ute":520,"li":521,"reate":522,"ach":523,"ind":524,"ponse":525,"ith":526,"ge":527,"An":528,"append":529,"Ġcatch":530,"IN":531,"Stream":532,"Ġ@":533,"yte":534,"Ser":535,"Ġboolean":536,"eck":537,"ore":538,"Ġj":539,"alse":540,"Ġbe":541,"this":542,"ener":543,"ffer":544,"ount":545,"Ġtry":546,"Ġ>":547,"oub":548,"ouble":549,"als":550,"Config":551,"ans":552,"Data":553,"out":554,"Ġresult":555,"read":556,"til":557,"trib":558,"rom":559,"ex":560,"ĠB":561,"ument":562,"ec":563,"Ġvalue":564,"Propert":565,"op":566,"nect":567,"equ":568,"Index":569,"vent":570,"mo":571,"name":572,"ire":573,"Context":574,"ĠA":575,"Util":576,"Ġ|":577,"ĠL":578,"ax":579,"Ġg":580,"Ġbu":581,"urrent":582,"Builder":583,"Ġr":584,"Ġ*":585,"oint":586,"++":587,"Ġfalse":588,"ast":589,"Request":590,"cri":591,"ak":592,"ĠĠĠĠĠĠĠĠĠĠĠĠĠĠĠĠĠĠĠĠĠĠĠĠĠĠĠĠĠĠĠĠ":593,"val":594,"ĠIn":595,"cted":596,"class":597,"ĠList":598,"ence":599,"Col":600,"Ġset":601,"ctory":602,"ial":603,"Ġen":604,"State":605,"ĠObject":606,"Element":607,"ĠF":608,"RE":609,"str":610,"Time":611,"oc":612,"tain":613,"fa":614,"Ġcom":615,"Ġtrue":616,"form":617,"ip":618,"AT":619,"tem":620,"ken":621,"ht":622,"Un":623,"OException":624,"ĠH":625,"Ġnot":626,"--":627,"abled":628,"Fa":629,"Tra":630,"Ġ(!":631,"ann":632,"ery":633,"UR":634,"ask":635,"equals":636,"Ġ.":637,"ll":638,"ive":639,"lient":640,"pro":641,"Info":642,"Message":643,"cl":644,"ound":645,"Entry":646,"Param":647,"com":648,"roup":649,"Ġ||":650,"ST":651,"ber":652,"ust":653,"ĠJ":654,"rite":655,"Field":656,"ID":657,"Of":658,"Ġse":659,"ly":660,"port":661,"Enabled":662,"nection":663,"Ġ)":664,"value":665,"size":666,"Ġwh":667,"Ġof":668,"ash":669,"ĠO":670,"yst":671,"fault":672,"ler":673,"ponent":674,"Ġadd":675,"ĉĉ":676,"Ġlog":677,"ystem":678,"tribute":679,"yn":680,"tent":681,"umn":682,"tp":683,"Ġcase":684,"ule":685,"let":686,"EN":687,"ost":688,"ache":689,"ĠR":690,"bug":691,"Over":692,"Se":693,"uration":694,"ĠN":695,"lock":696,"fer":697,"Ġfile":698,"Ġ'":699,"ride":700,"ign":701,"arget":702,"act":703,"Ġon":704,"of":705,"Ġinstance":706,"Tr":707,"Ġname":708,"ix":709,"lection":710,"putStream":711,"pty":712,"Th":713,"Resource":714,"anag":715,"Property":716,"red":717,"ilter":718,"move":719,"ĠIOException":720,"Ġkey":721,"av":722,"Log":723,"Arg":724,"sion":725,"Ġ((":726,"Ġat":727,"By":728,"00":729,"Ġ_":730,"Ġwe":731,"LE":732,"Loc":733,"son":734,"toString":735,"Stat":736,"use":737,"];":738,"Override":739,"Ad":740,"ob":741,"date":742,"log":743,"Im":744,"leg":745,"Buffer":746,"ifi":747,"arse":748,"OR":749,"der":750,"ues":751,"error":752,"Ġar":753,"Val":754,"AL":755,"He":756,"Ġtype":757,"Method":758,"Result":759,"Er":760,"Ġ?":761,"pr":762,"press":763,"Ġout":764,"Size":765,"),":766,"tern":767,"Service":768,"for":769,"Qu":770,"Utils":771,"Ġval":772,"ĠFile":773,"ession":774,"Error":775,"umber":776,"++)":777,"ĠG":778,"reak":779,"ffset":780,"Ġit":781,"mpty":782,"teger":783,"escri":784,"odel":785,"anager":786,"Response":787,"arent":788,"ames":789,"<?":790,"Ġcreate":791,"ĠArray":792,"riter":793,"file":794,"OG":795,"Ġser":796,"ail":797,"Ġand":798,"lose":799,"ttp":800,"Event":801,"tes":802,"ork":803,"ME":804,"tected":805,"ange":806,"Out":807,"ry":808,"Ġlist":809,"legal":810,"Hand":811,"Ġdouble":812,"eter":813,"AR":814,"iv":815,"irst":816,"ccess":817,"llegal":818,"ill":819,"ĠW":820,">();":821,"Count":822,"ized":823,"ight":824,"uth":825,"Ġprotected":826,"rap":827,"Ġinstanceof":828,"ts":829,"Instance":830,"Ġlong":831,"Ġdata":832,"getName":833,"sh":834,"Attribute":835,"Met":836,"ary":837,"gist":838,"ference":839,"ang":840,"Argument":841,"ĠčĊ":842,"ded":843,"ree":844,"iew":845,"..":846,"Not":847,"pos":848,"index":849,"ĠĠĠĠĠĠĠĠĠĠĠĠ":850,"co":851,"Ġrequest":852,"Component":853,"ert":854,"null":855,"low":856,"Manager":857,"ron":858,"Ġcol":859,"Ġindex":860,"Ġpath":861,"Factory":862,"Ġparam":863,"ml":864,"yp":865,"Ġsh":866,"Ġcheck":867,"Ġx":868,"ĠMap":869,"Ġid":870,"SE":871,"ĠV":872,"ersion":873,"Empty":874,"ings":875,"code":876,"Ġan":877,"Ġ/":878,"col":879,"cord":880,"time":881,"Ġun":882,"ĠIllegal":883,"ref":884,"All":885,"Ġresource":886,"otation":887,"getS":888,"DE":889,"ink":890,"With":891,"Le":892,"Form":893,"Def":894,">>":895,"ĠĠĠĠĠĠĠĠĠĠĠĠĠĠĠĠĠĠĠĠĠĠĠĠĠĠĠ":896,"Ġstart":897,"Ġbreak":898,"Connection":899,"TI":900,"eat":901,"pace":902,"Ġal":903,"ated":904,"Ġup":905,"sub":906,"Code":907,"Table":908,"ory":909,"type":910,"Ġstr":911,"Token":912,"Null":913,"ĠClass":914,"vel":915,"Or":916,"ĠTh":917,"Len":918,"Ap":919,"ari":920,"est":921,"debug":922,"ptor":923,"ecut":924,"Ġ2":925,"next":926,"print":927,"Ġwhile":928,"Status":929,"Ġbyte":930,"create":931,"\")":932,"Ġmethod":933,"((":934,"For":935,"ĠArrayList":936,"Ġfrom":937,"Ġclass":938,"Item":939,"ple":940,"\";":941,"und":942,"ance":943,"Trace":944,"action":945,"start":946,"Ġor":947,"tains":948,"From":949,"Ġresponse":950,"ca":951,"arn":952,"Be":953,"Constan":954,"user":955,"pa":956,"Ġcurrent":957,"Add":958,"Query":959,"pression":960,"Point":961,"Group":962,"Ġfield":963,"ptions":964,"own":965,"write":966,"TE":967,"rl":968,"Client":969,"URL":970,"ypes":971,"current":972,"Configuration":973,"has":974,"On":975,"cket":976,"Handler":977,"Trans":978,"ave":979,"pec":980,"SS":981,"query":982,"Ġwith":983,"erm":984,"Ġnode":985,"one":986,"Ġ);":987,"getP":988,"ĠRe":989,"Url":990,"Inter":991,"Text":992,"chem":993,"Ġconfig":994,"AN":995,"mand":996,"url":997,"Ġread":998,"ere":999,"ard":1000,"TY":1001,"Listener":1002,"AC":1003,"Up":1004,"string":1005,"Descri":1006,"entry":1007,"Ġcl":1008,"Content":1009,"uld":1010,"po":1011,"old":1012,"Ent":1013,"ava":1014,"User":1015,"Date":1016,"attern":1017,"opy":1018,"valid":1019,"Pos":1020,"ĠLOG":1021,"Ġdo":1022,"adata":1023,"ific":1024,"ould":1025,"Ġentry":1026,"idth":1027,"Ġret":1028,"].":1029,"resource":1030,"Ġext":1031,"contains":1032,"Cache":1033,"Column":1034,"Format":1035,"load":1036,"peration":1037,"back":1038,"ocument":1039,"Ġsb":1040,"Ġĉĉĉĉĉ":1041,"ac":1042,"Properties":1043,"abel":1044,"terator":1045,"isEmpty":1046,"Ġpropert":1047,"Length":1048,"As":1049,"throw":1050,"annel":1051,"iter":1052,"sg":1053,"Names":1054,"Task":1055,"remove":1056,"format":1057,"----":1058,"Ġy":1059,"ider":1060,"ĠSystem":1061,"ArgumentException":1062,"tainer":1063,"Char":1064,"Ġend":1065,"loat":1066,"gin":1067,"ĠCol":1068,"View":1069,"Ġcontext":1070,"Ġthat":1071,"tc":1072,"Ġarg":1073,"Ġby":1074,"Entity":1075,"path":1076,"RO":1077,"Constants":1078,"entity":1079,"Ġk":1080,"ension":1081,"Ġhe":1082,"Ġtc":1083,"Source":1084,"par":1085,"Sh":1086,"<?>":1087,"check":1088,"Ġro":1089,"And":1090,"unction":1091,"Ann":1092,"ps":1093,"ĠE":1094,"Start":1095,"\"))":1096,"Line":1097,"data":1098,"SI":1099,"ynch":1100,"Number":1101,"gment":1102,"stra":1103,"Ġmax":1104,"Ġdefault":1105,"Int":1106,"ook":1107,"cal":1108,"ok":1109,"ariable":1110,"Ġne":1111,"Ġmessage":1112,"Ġ+=":1113,"ynchron":1114,"Model":1115,"Child":1116,"End":1117,"Ġas":1118,"ant":1119,"ends":1120,"bj":1121,"untime":1122,"atcher":1123,"az":1124,"mp":1125,"Filter":1126,"result":1127,"getValue":1128,"Ġsub":1129,"Ġle":1130,"mit":1131,"utes":1132,"eters":1133,"ĠIllegalArgumentException":1134,"ĠĠĠĠĠĠĠĠĠĠĠĠĠ":1135,"ĠException":1136,"refix":1137,"point":1138,"lication":1139,"ft":1140,"ther":1141,"Version":1142,"irectory":1143,"Ġmap":1144,"trol":1145,"place":1146,"Bytes":1147,"Ġpre":1148,"Ġobject":1149,"gn":1150,"cond":1151,"vider":1152,".\");":1153,"Next":1154,"iled":1155,"Execut":1156,"cod":1157,"FI":1158,"Ġ>=":1159,"lect":1160,"CO":1161,"Default":1162,"Integer":1163,"gister":1164,"UT":1165,"min":1166,"chema":1167,"list":1168,"ĠHash":1169,"ifier":1170,"Ġsu":1171,"line":1172,"Ġtarget":1173,"getC":1174,"Tag":1175,"info":1176,"ĠCh":1177,"map":1178,"cing":1179,"its":1180,"arch":1181,"pend":1182,"Annotation":1183,"PE":1184,"Valid":1185,"cas":1186,"Ġchar":1187,"Address":1188,"char":1189,"inition":1190,"Level":1191,"ĠStringBuilder":1192,"Ġ{}":1193,"plet":1194,"cur":1195,"cle":1196,"itial":1197,"Header":1198,"service":1199,"Ġlogger":1200,"sum":1201,"URI":1202,"Sub":1203,"ynchronized":1204,"CE":1205,">(":1206,"ner":1207,"Impl":1208,"ĠInteger":1209,"ody":1210,"Ġ->":1211,"Expression":1212,"close":1213,"Reader":1214,"AME":1215,"ING":1216,"ĠSet":1217,"ox":1218,"Any":1219,"Dir":1220,"Ġtime":1221,"Ġhas":1222,"tributes":1223,"Ro":1224,"Ġtrans":1225,"Case":1226,"sing":1227,"raw":1228,"ud":1229,"count":1230,"Row":1231,"be":1232,"cy":1233,"he":1234,"ĠTr":1235,"Ġall":1236,"upport":1237,"Ġare":1238,"Ġservice":1239,"stru":1240,"word":1241,"SON":1242,"GE":1243,"Ġbuffer":1244,"Mod":1245,"Po":1246,"cope":1247,"Ġhand":1248,"Byte":1249,"raph":1250,"Writer":1251,"ĠCom":1252,"rc":1253,"Ġnext":1254,"Ġstate":1255,"byte":1256,"'t":1257,"ym":1258,"parse":1259,"Ġass":1260,"Ġelement":1261,"LI":1262,"substring":1263,"==":1264,"Ġinput":1265,"Al":1266,"yle":1267,"Process":1268,"ĠX":1269,"Ġerror":1270,"()));":1271,"ark":1272,"arser":1273,"Ġlast":1274,"undle":1275,"Ġ%":1276,"request":1277,"Ġpos":1278,"Ġfind":1279,"plate":1280,"Loader":1281,"Tracing":1282,"vert":1283,"Ġsize":1284,"Part":1285,"Parameter":1286,"()))":1287,"UN":1288,"Ġcall":1289,"rig":1290,"Local":1291,"CON":1292,"Ġbuilder":1293,"licy":1294,"gnore":1295,"Ġupdate":1296,"ĠCollection":1297,"Long":1298,"vlet":1299,"quire":1300,"Ġlength":1301,"System":1302,"Ġuser":1303,"InputStream":1304,"Ġfirst":1305,"xy":1306,"ric":1307,"getClass":1308,"Access":1309,"Ġwrite":1310,"ake":1311,"face":1312,"Offset":1313,"ln":1314,"Ġsynchronized":1315,"Auth":1316,"Descriptor":1317,"Bean":1318,"odes":1319,"ql":1320,"Call":1321,"Base":1322,"itor":1323,"ĠĠĠĠĠĠĠĠĠĠĠĠĠĠ":1324,"Ref":1325,"Ġsource":1326,"lete":1327,"Thread":1328,"TracingEnabled":1329,"Reference":1330,"ENT":1331,"isAny":1332,"Ġinter":1333,"true":1334,"Types":1335,"double":1336,"<>();":1337,"Ġparse":1338,"Record":1339,"Definition":1340,"Ġĉĉĉĉĉĉ":1341,"azz":1342,"isAnyTracingEnabled":1343,"ML":1344,"Block":1345,"UE":1346,"Values":1347,"MA":1348,"QL":1349,"field":1350,"Ġevent":1351,"Ġform":1352,"ĠCon":1353,"Store":1354,"eb":1355,"Feat":1356,"pare":1357,"ater":1358,"og":1359,"println":1360,"Session":1361,"Pl":1362,"ackage":1363,"Dis":1364,"ync":1365,"config":1366,"Ġno":1367,"Ġparent":1368,"Http":1369,"NAME":1370,"UL":1371,"Stack":1372,"plit":1373,"Ġso":1374,"Mem":1375,"izer":1376,"cale":1377,"param":1378,"Su":1379,"pre":1380,"Unit":1381,"ates":1382,"Lock":1383,"ages":1384,"ee":1385,"Ġuse":1386,"uture":1387,"Ġextends":1388,"ia":1389,"Action":1390,"Ġquery":1391,"Ġurl":1392,"GER":1393,"sed":1394,"Atom":1395,"Server":1396,"order":1397,"ply":1398,"App":1399,"Metadata":1400,"Sc":1401,"Ab":1402,"ible":1403,"older":1404,"Ġtable":1405,"Ġrow":1406,"max":1407,"ify":1408,"\\\"":1409,"Ġobj":1410,"ms":1411,"Ġclient":1412,"Provider":1413,"Collection":1414,"alen":1415,"LA":1416,"Ġim":1417,"ified":1418,"MP":1419,"TraceComponent":1420,"tin":1421,"Read":1422,"Ġvalid":1423,"ite":1424,"uster":1425,"AD":1426,"node":1427,"Ġchild":1428,"Ġcount":1429,"Tree":1430,"Ġcolumn":1431,"ification":1432,"ush":1433,"ecute":1434,"Ġprocess":1435,"ative":1436,"TR":1437,"ateg":1438,"Ġtoken":1439,"Ġcan":1440,"Image":1441,"emplate":1442,"Target":1443,"build":1444,"Del":1445,"esc":1446,"Ġoutput":1447,"**":1448,"('":1449,"LO":1450,"long":1451,"TH":1452,"getMessage":1453,"ĠĠĠĠĠĠ":1454,"inding":1455,"Ġoffset":1456,"dar":1457,"Ġhave":1458,"Debug":1459,"Ġremove":1460,"Ġitem":1461,"ĠMath":1462,"led":1463,"Hel":1464,"Hash":1465,"Check":1466,"atab":1467,"Container":1468,"Ġmin":1469,"Ġ*/":1470,"Pre":1471,"ization":1472,"Options":1473,"ĠĉĠĠĠ":1474,"aders":1475,"Gener":1476,"Json":1477,"Ġfinally":1478,"Ġtask":1479,"Ġproperty":1480,"NO":1481,"imit":1482,"ĠHttp":1483,"ATE":1484,"IOException":1485,"Ġ<=":1486,"Ġfa":1487,"ination":1488,"KE":1489,"Ġconnection":1490,"ĠĠĠĠĠĠĠĠĊ":1491,"Location":1492,"Non":1493,"getKey":1494,"Ġmet":1495,"pected":1496,"Ġbase":1497,"du":1498,"Ġvalues":1499,"CH":1500,"No":1501,"Ġline":1502,"isEntry":1503,"imple":1504,"isEntryEnabled":1505,"ector":1506,"ĠĠĠĠĠĠĠĠĠĠĠĠĠĠĠĠĠĠĠĠĠĠĠĠĠĠĠĠĠĠĠ":1507,"atabase":1508,"Mode":1509,"Ġnum":1510,"Position":1511,"otal":1512,"method":1513,"cript":1514,"Ġmatch":1515,"Ext":1516,"Ġz":1517,"Ġsc":1518,"OutputStream":1519,"annot":1520,"ual":1521,"last":1522,"rid":1523,"ait":1524,"]);":1525,"getM":1526,"untimeException":1527,"ick":1528,"FF":1529,"Ġpart":1530,"++;":1531,"ved":1532,"ĠNode":1533,"arg":1534,"Input":1535,"VAL":1536,"lector":1537,"unn":1538,"alendar":1539,"Option":1540,"...":1541,"ces":1542,"ude":1543,"DO":1544,"ĠSer":1545,"loc":1546,"Ġ3":1547,"parator":1548,"ATI":1549,"air":1550,"Ġfound":1551,"ping":1552,"ounter":1553,"TER":1554,"tinue":1555,"Que":1556,"Update":1557,"Ġcontent":1558,"lob":1559,"Ġsession":1560,"Params":1561,"ru":1562,"Ġexception":1563,"ous":1564,"itch":1565,"stream":1566,"Cl":1567,"work":1568,"atri":1569,"uri":1570,"ists":1571,"Warn":1572,"entic":1573,"Spec":1574,"ocket":1575,"af":1576,"etry":1577,"ĠHashMap":1578,"DB":1579,"Width":1580,"Directory":1581,"Ġ});":1582,"lag":1583,"Helper":1584,"Document":1585,"Operation":1586,"apt":1587,"Iterator":1588,"ish":1589,"TYPE":1590,"ayout":1591,"Sup":1592,"ie":1593,"Ġtext":1594,"group":1595,"getId":1596,"Ġ[":1597,"Ġbuf":1598,"orage":1599,"Project":1600,"propert":1601,"Ass":1602,"Variable":1603,"ternal":1604,"ĠSib":1605,"atrix":1606,"Ġsw":1607,"Found":1608,"warn":1609,"ell":1610,"oin":1611,"TION":1612,"public":1613,"amp":1614,"ape":1615,"emp":1616,"Ġarray":1617,"Ġstring":1618,"Bound":1619,"Rule":1620,"ĠSibTr":1621,"Host":1622,"){":1623,"Ġapp":1624,"Channel":1625,"Ġdis":1626,"FA":1627,"Output":1628,"ared":1629,"ause":1630,"Segment":1631,"cept":1632,"LOG":1633,"Ġstream":1634,"Statement":1635,"AP":1636,"Ġcache":1637,"Ġroot":1638,"Ġfilter":1639,"Control":1640,"pen":1641,"Queue":1642,"Ġmust":1643,"Pattern":1644,"rame":1645,"DI":1646,"oord":1647,"Ġformat":1648,"stination":1649,"mote":1650,"Job":1651,"##":1652,"TA":1653,"Ġact":1654,"Act":1655,"ĠType":1656,"rapper":1657,"upported":1658,"coding":1659,"ugin":1660,"Ġgroup":1661,"Ġgener":1662,"Function":1663,"VER":1664,"ĠIf":1665,"Ġwill":1666,"mon":1667,"posit":1668,"Page":1669,"ission":1670,"Link":1671,"response":1672,"illis":1673,"buffer":1674,"stract":1675,"vok":1676,"context":1677,"inter":1678,"Ġ/*":1679,"Command":1680,"Ġpl":1681,"First":1682,"Ġother":1683,"server":1684,"assword":1685,"fore":1686,"Ġold":1687,"indow":1688,"ĠU":1689,"\"));":1690,"Fields":1691,"Work":1692,"isDebug":1693,"ample":1694,"Ġshould":1695,"rupt":1696,"Double":1697,"Meta":1698,"ical":1699,"rowable":1700,"\\\\":1701,"ymb":1702,"kip":1703,"io":1704,"igh":1705,"Failed":1706,"Rel":1707,"stat":1708,"equence":1709,"ram":1710,"getType":1711,"pository":1712,"Logger":1713,"Label":1714,"ĠByte":1715,"ready":1716,"Order":1717,"Ed":1718,"Attributes":1719,"target":1720,"PO":1721,"Ġbytes":1722,"Ġad":1723,"Range":1724,"isDebugEnabled":1725,"Color":1726,"PRO":1727,"Parser":1728,"Ġargs":1729,"pic":1730,"Ġmod":1731,"clear":1732,"ph":1733,"BLE":1734,"logger":1735,"Per":1736,"Ġone":1737,"Ġsuper":1738,"Ġpoint":1739,"event":1740,"iterator":1741,"wer":1742,"Warnings":1743,"Ġblock":1744,"Root":1745,"sWith":1746,"Execution":1747,"ency":1748,"entifier":1749,"ide":1750,"()).":1751,"case":1752,"valueOf":1753,"unk":1754,"Ġcode":1755,"Ac":1756,"--------":1757,"Ġentity":1758,"api":1759,"sert":1760,"Ġtra":1761,"ched":1762,"annotation":1763,"Body":1764,"cre":1765,"Ġbuild":1766,"Parameters":1767,"dition":1768,"Servlet":1769,"find":1770,"right":1771,"rint":1772,"hasNext":1773,"gress":1774,"Decl":1775,"Ġlocal":1776,"64":1777,"Get":1778,"utt":1779,"Ġlen":1780,"pan":1781,"ymbol":1782,"with":1783,"copy":1784,"Ġac":1785,"replace":1786,"Ġfloat":1787,"Ġload":1788,"gistry":1789,"Suppress":1790,"message":1791,"obj":1792,"Ġmsg":1793,"ĠRuntimeException":1794,"mary":1795,"array":1796,"If":1797,"KEY":1798,"ailable":1799,"ATION":1800,"ale":1801,"Ġpo":1802,"Ġneed":1803,"quired":1804,"'s":1805,"ustom":1806,"Ġ4":1807,"tries":1808,"values":1809,"vis":1810,"exit":1811,"Match":1812,"Var":1813,"boolean":1814,"ature":1815,"tocol":1816,"Style":1817,"acter":1818,"Millis":1819,"Transaction":1820,"Ġproperties":1821,"tings":1822,"SuppressWarnings":1823,"structor":1824,"scri":1825,"source":1826,"gine":1827,"Ġclose":1828,"Num":1829,"Sequence":1830,"Ġcur":1831,"db":1832,"Ġserver":1833,"item":1834,"Ġcontinue":1835,"charAt":1836,"tx":1837,"straint":1838,"\").":1839,"Ignore":1840,"resent":1841,"Ġheader":1842,"Ġspec":1843,"ĠLOGGER":1844,"parent":1845,"ations":1846,"input":1847,"Ġversion":1848,"false":1849,"state":1850,"vious":1851,"TO":1852,"ĠLong":1853,"irect":1854,"StateException":1855,"are":1856,"match":1857,"ĠUn":1858,"istance":1859,"tract":1860,"Boolean":1861,"from":1862,"sol":1863,"utton":1864,"esource":1865,"{}":1866,"Ġjson":1867,"not":1868,"trans":1869,"ĠĠĠĠĠĠĠĠĠĠĠĠĠĠĠĠĠĠĠĠĠĠĠĠĠĠĠĠĠĠĠĠĠĠĠĠĠĠĠĠĠĠĠĠĠĠĠĠ":1870,"EC":1871,"ĠĠĠĠĊ":1872,"play":1873,"edException":1874,"ility":1875,"indexOf":1876,"MI":1877,"Ġ\",":1878,"ures":1879,"Ġattribute":1880,"num":1881,"sumer":1882,"ĠNo":1883,"Interface":1884,"Ġwas":1885,"Vis":1886,"Ġnumber":1887,"<>(":1888,"Ġassert":1889,"token":1890,"Port":1891,"ities":1892,"Proxy":1893,"Keys":1894,"ont":1895,"Ġtag":1896,"client":1897,"omain":1898,"ignature":1899,"version":1900,"Extension":1901,"Future":1902,"redent":1903,"element":1904,"Ġinitial":1905,"fl":1906,"Ġwork":1907,"Files":1908,"Ġparams":1909,"Height":1910,"EX":1911,"casType":1912,"main":1913,"filter":1914,"mer":1915,"Ġcal":1916,"\".":1917,"Max":1918,"ender":1919,"ĠDate":1920,"eners":1921,"getProperty":1922,"ution":1923,"essages":1924,"aw":1925,"Pool":1926,"Ġ\"/":1927,"ached":1928,"RI":1929,"Last":1930,"md":1931,"ivity":1932,"Ġclazz":1933,"stamp":1934,"wh":1935,"Ġonly":1936,"Sec":1937,"Ġany":1938,"Scope":1939,"object":1940,"AX":1941,"process":1942,"Ġdelete":1943,"olve":1944,"');":1945,"Uri":1946,"sor":1947,"Enum":1948,"sc":1949,"ometry":1950,"ulti":1951,"Ġconvert":1952,"resh":1953,"Ġrun":1954,"base":1955,"voke":1956,"SH":1957,"ep":1958,"Ret":1959,"table":1960,"ULT":1961,"fter":1962,"verter":1963,"Ġdef":1964,"Elements":1965,"Dec":1966,"Ġswitch":1967,"Ġlistener":1968,"PER":1969,"resources":1970,"startsWith":1971,"else":1972,"xml":1973,"JSON":1974,"clude":1975,"Buffered":1976,"getInstance":1977,"Ġwriter":1978,"Ġcomp":1979,"entication":1980,"ĠJson":1981,"ics":1982,"lected":1983,"utable":1984,"met":1985,"ĠIllegalStateException":1986,"rag":1987,"Bundle":1988,"ersist":1989,"andom":1990,"Locale":1991,"Schema":1992,"nown":1993,"New":1994,"Pri":1995,"Socket":1996,"Ġ{}\",":1997,"plo":1998,"Ġ(\"":1999,"Mapping":2000,"EL":2001,"containsKey":2002,"Prefix":2003,"Wrapper":2004,"ptional":2005,"Timeout":2006,"')":2007,"Ġhandle":2008,"Ġalready":2009,"ĠDouble":2010,"ond":2011,"lobal":2012,"itle":2013,"update":2014,"store":2015,"apter":2016,"SER":2017,"Graph":2018,"Ġdoes":2019,"Ġcomponent":2020,"ĠURL":2021,"addAll":2022,"Application":2023,"Ġcopy":2024,"ĠJSON":2025,"ayer":2026,"mt":2027,"Ġresources":2028,"VALUE":2029,"Ġjob":2030,"ERR":2031,"UM":2032,"child":2033,"ED":2034,"Template":2035,"Ġauth":2036,"itions":2037,"ĠData":2038,"reg":2039,"queue":2040,"ug":2041,"getD":2042,"cer":2043,"Ids":2044,"Box":2045,"Ġthread":2046,"Ġorig":2047,"ermission":2048,"Ġlock":2049,"Comp":2050,"trim":2051,"tex":2052,"NotFound":2053,"ĠĠĠĠĠĠĠĠĠĠ":2054,"Ġref":2055,"Ġbut":2056,"BU":2057,"dater":2058,"Ġrecord":2059,"down":2060,"issing":2061,"ĠBoolean":2062,")));":2063,"Ġus":2064,"ookie":2065,"tra":2066,"Ġloc":2067,"bers":2068,"lation":2069,"Web":2070,"qual":2071,"sure":2072,"Mon":2073,"Ġregister":2074,"imal":2075,"valu":2076,"Ġhttp":2077,"Ġover":2078,"offset":2079,"round":2080,"Pair":2081,"Ġmodel":2082,"(_":2083,"plete":2084,"Ġiter":2085,".\",":2086,"Ġstatus":2087,"redic":2088,"IgnoreCase":2089,"ploy":2090,"ome":2091,"Layout":2092,"ments":2093,"checked":2094,"ally":2095,"Ġreader":2096,"default":2097,"FAULT":2098,"Change":2099,"ifact":2100,"entrySet":2101,"uid":2102,"ating":2103,"column":2104,"sb":2105,"ĠThe":2106,"Ġnames":2107,"Ġq":2108,"Ġparameter":2109,"SC":2110,"Ġjava":2111,"=\"":2112,"etwork":2113,"NotNull":2114,"oordin":2115,"ayload":2116,"Package":2117,"ĠLog":2118,"cip":2119,"Module":2120,"hand":2121,"itr":2122,"Ġtemp":2123,"Storage":2124,"vailable":2125,"etch":2126,"SQL":2127,"ole":2128,"0000":2129,"content":2130,"ormal":2131,"ingle":2132,"Ver":2133,"Ġparameters":2134,"SP":2135,"ĠK":2136,"StackTrace":2137,"cover":2138,"ĠĉĉĊ":2139,"Ġhost":2140,"Calendar":2141,"apply":2142,"split":2143,"getString":2144,"eature":2145,"Is":2146,"ĠIm":2147,"Ġview":2148,"Back":2149,"Assign":2150,"Ġuri":2151,"Ġexist":2152,"lot":2153,"Matrix":2154,"register":2155,"ERROR":2156,"],":2157,"ich":2158,"Ġmem":2159,"coded":2160,"buf":2161,"Serial":2162,"Api":2163,"NotFoundException":2164,"etail":2165,"lease":2166,"Doc":2167,"delete":2168,"Headers":2169,"Nodes":2170,"Ġper":2171,"Executor":2172,"XML":2173,"ategy":2174,"uple":2175,"Ġdate":2176,"inary":2177,"ier":2178,"mod":2179,"position":2180,"ns":2181,"Ġinfo":2182,"urity":2183,"The":2184,"Ġsend":2185,"Resol":2186,"comp":2187,"err":2188,"solute":2189,"Ġtmp":2190,"cul":2191,"Callback":2192,"ĠĠĠĠĠĠĠĠĠĠĠĠĠĠĠĠĠ":2193,"ĠTime":2194,"binding":2195,"Ġimage":2196,"ĠMethod":2197,"Metric":2198,"gle":2199,"Ġorder":2200,"anged":2201,"fs":2202,"FIN":2203,"by":2204,"part":2205,"Feature":2206,"[])":2207,"Min":2208,"01":2209,"nal":2210,"policy":2211,"dis":2212,"Ġ\"'":2213,"enter":2214,"dd":2215,"Ġdescri":2216,"Ġsrc":2217,"andid":2218,"Close":2219,"imension":2220,"ld":2221,"Parent":2222,"Description":2223,"Term":2224,"Ġ<<":2225,"Ġtotal":2226,"java":2227,"output":2228,"property":2229,"::":2230,"ĠPro":2231,"Ġ};":2232,"Ġconfiguration":2233,"auth":2234,"Ġinit":2235,"Ġaction":2236,"Ġcommand":2237,"Delet":2238,"Ġoptions":2239,"Ġdel":2240,"equalsIgnoreCase":2241,"Ġport":2242,"trace":2243,"Ġ\".":2244,"sl":2245,"Ġback":2246,"Ġexp":2247,"http":2248,"tach":2249,"lem":2250,"ĠThread":2251,"enu":2252,"Ġthere":2253,"float":2254,"pendency":2255,"Ġthen":2256,"ank":2257,"uct":2258,"ined":2259,"PAR":2260,"ise":2261,"first":2262,"Ag":2263,"NON":2264,"voc":2265,"Build":2266,"ĠThis":2267,"oot":2268,"execute":2269,"ĠCollections":2270,"ique":2271,"Registry":2272,"Processor":2273,"Exp":2274,"Throwable":2275,"dateresource":2276,"ient":2277,"Invalid":2278,"river":2279,"atas":2280,"edia":2281,"ĠOptional":2282,"ceptor":2283,"pute":2284,"LS":2285,"redicate":2286,"UTF":2287,"ority":2288,"ĠTrans":2289,"Policy":2290,"angu":2291,"task":2292,"Current":2293,"ĠWe":2294,"Ġ++":2295,"formation":2296,"su":2297,"aster":2298,"inked":2299,"Ġposition":2300,"Ġab":2301,"atal":2302,"ays":2303,"session":2304,"Ġ'\"":2305,"Engine":2306,"Ġprefix":2307,"ĠIterator":2308,"cause":2309,"view":2310,"Iter":2311,"Ġmake":2312,"Ġstore":2313,"break":2314,"ĠDe":2315,"root":2316,"TT":2317,"stant":2318,"Ġ(_":2319,"unchecked":2320,"Pan":2321,"tml":2322,"ĠMessage":2323,"ear":2324,"Ġ8":2325,"HE":2326,"Ġempty":2327,"ĠPath":2328,"Ġexecut":2329,"ĠElement":2330,"ĠInputStream":2331,"getR":2332,"over":2333,"Create":2334,"Ġproject":2335,")))":2336,"Ġannotation":2337,"Ġargument":2338,"lags":2339,"supported":2340,"sp":2341,"iff":2342,"imum":2343,"coder":2344,"ged":2345,"ĠAp":2346,"Cell":2347,"Button":2348,"cache":2349,"ĠResource":2350,"space":2351,"IT":2352,"AGE":2353,"json":2354,"her":2355,"ruptedException":2356,"ging":2357,"VE":2358,"Write":2359,"dir":2360,"ials":2361,"viron":2362,"gor":2363,"32":2364,"Java":2365,"nap":2366,"getF":2367,"gorith":2368,"ĠSQL":2369,"ĠChar":2370,"Ġag":2371,"shot":2372,"Ġhandler":2373,"msg":2374,"':":2375,"Encoding":2376,"header":2377,"ta":2378,"inish":2379,"Ġpri":2380,"Ġ\");":2381,"oly":2382,"MAX":2383,"ĠSe":2384,"UP":2385,"][":2386,"mutable":2387,"LASS":2388,"ting":2389,"builder":2390,"ĠHashSet":2391,"anguage":2392,"wner":2393,"PRE":2394,"Ġnow":2395,"args":2396,"Ġexecute":2397,"Internal":2398,"Ġpattern":2399,"perator":2400,"Ġignore":2401,"ines":2402,"Ġchannel":2403,"Lower":2404,"connection":2405,"AY":2406,"width":2407,"Bounds":2408,"Ġright":2409,"ĠBuffered":2410,"anges":2411,"empty":2412,"Generator":2413,"Ġleft":2414,"ĠField":2415,"ĠCheck":2416,"call":2417,"mb":2418,"Ġdb":2419,"ertific":2420,"uto":2421,"merce":2422,"Ġ\"+":2423,"src":2424,"Handle":2425,"Window":2426,"maining":2427,"Ġed":2428,"imer":2429,"ĠPre":2430,"Ġwhen":2431,"Vector":2432,"ĠURI":2433,"tempt":2434,"oll":2435,"VI":2436,"flow":2437,"utdown":2438,"orted":2439,"Ġattr":2440,"vocation":2441,"Search":2442,"vironment":2443,"Ġmay":2444,"Ġvis":2445,"Idx":2446,"compare":2447,"we":2448,"OP":2449,"Ġpage":2450,"instance":2451,"Connect":2452,"getResource":2453,"Async":2454,"ran":2455,"Ġind":2456,"Msg":2457,"ĠĠĠĠĠĠĠĠĠĠĠĠĠĠĠĠĠĠĠĠĠĠĠĠĠĠĠĠĠĠĠĠĠĠĠ":2458,"GET":2459,"Cur":2460,"sTo":2461,"chedule":2462,"Ġbeen":2463,"Attr":2464,"iod":2465,"Ġ,":2466,"ys":2467,"ialog":2468,"tag":2469,"Ġbefore":2470,"Ġlabel":2471,"napshot":2472,"Return":2473,"ZE":2474,"gion":2475,"ClassName":2476,"itro":2477,"Absolute":2478,"SO":2479,"ĠResponse":2480,"STR":2481,">)":2482,"gorithm":2483,"Ġfactory":2484,"Wh":2485,"nitro":2486,"Adapter":2487,"vers":2488,"bo":2489,"ClassLoader":2490,"Space":2491,"Decimal":2492,"Ge":2493,"Ġrule":2494,"Args":2495,"Strategy":2496,"FO":2497,"Ġput":2498,"Ġu":2499,"df":2500,"Ġnon":2501,"DS":2502,"redentials":2503,"ĠInter":2504,"ACE":2505,"unning":2506,"Ġoperation":2507,"Ġappend":2508,"ĠZ":2509,"exists":2510,"Left":2511,"MO":2512,"Identifier":2513,"ĉĉĉĉ":2514,"Only":2515,"ices":2516,"host":2517,"Ġwhich":2518,"ĠIN":2519,"Dig":2520,"ors":2521,"do":2522,"Ġ\"\";":2523,"iler":2524,"acity":2525,"ĠGet":2526,"ted":2527,"Ġhash":2528,"status":2529,"crement":2530,"lowed":2531,"Holder":2532,"ĠAb":2533,"enc":2534,"Script":2535,"ragment":2536,"Bit":2537,"Validation":2538,"Ġcannot":2539,"Condition":2540,"Ġvalidate":2541,"(\"/":2542,"Ġbean":2543,"Ġatom":2544,"Ġresults":2545,"gener":2546,"ne":2547,"Chain":2548,"DC":2549,"Obj":2550,"apacity":2551,"Fail":2552,"ertificate":2553,"Ġver":2554,"Ġstop":2555,"ove":2556,"gr":2557,"ĠKey":2558,"ĠLinked":2559,"000":2560,"ipe":2561,"ending":2562,"MS":2563,"stall":2564,"OT":2565,"duct":2566,"MetaData":2567,"Ind":2568,"Art":2569,"Ġexpected":2570,"ataset":2571,"10":2572,"matcher":2573,"Member":2574,"cell":2575,"Bl":2576,"updateresource":2577,"SION":2578,"TimeMillis":2579,"cs":2580,"StringBuilder":2581,"rie":2582,"project":2583,"former":2584,"getParent":2585,"atalog":2586,"Ġsql":2587,"while":2588,"Track":2589,"Endpoint":2590,"lear":2591,"Ġthan":2592,"Ġconf":2593,"conds":2594,"IL":2595,"Ġcor":2596,"pth":2597,"getPath":2598,"Ġreference":2599,"Ġwidth":2600,"Settings":2601,"Ġserial":2602,"CT":2603,"Ġsearch":2604,"angle":2605,"other":2606,"ean":2607,"label":2608,"Abstract":2609,"Ali":2610,"Sum":2611,"mem":2612,"INT":2613,"ĠRequest":2614,"Load":2615,"getAttribute":2616,"mitive":2617,"Ġsegment":2618,"ixel":2619,"connect":2620,"MENT":2621,"====":2622,"rop":2623,"Converter":2624,"eet":2625,"Ġgenerate":2626,"afe":2627,"ice":2628,"Ġattributes":2629,"Counter":2630,"Ġdirectory":2631,"Desc":2632,"ultip":2633,"asic":2634,"ĠTO":2635,"local":2636,"Constraint":2637,"bytes":2638,"ped":2639,"UID":2640,"util":2641,"ugh":2642,"ffix":2643,"Ġprops":2644,"Present":2645,"clazz":2646,"####":2647,"Ġcontainer":2648,"Ġreplace":2649,">()":2650,"known":2651,"Ġstack":2652,"quence":2653,"init":2654,"Ġaccess":2655,"igned":2656,"unnable":2657,"Ġprevious":2658,"ĠSt":2659,"rypt":2660,"Namespace":2661,"Ġdir":2662,"keySet":2663,"Frame":2664,"Constant":2665,"****":2666,"Ġmetadata":2667,"StringUtils":2668,"(!":2669,"block":2670,"acket":2671,"ĠInvalid":2672,"Ġfunction":2673,"Ġvariable":2674,"newInstance":2675,"ward":2676,"Ġafter":2677,"Word":2678,"Ġtest":2679,"Ġdoc":2680,"Children":2681,"Mark":2682,"Ġaddress":2683,"ancel":2684,"Ġskip":2685,"getRe":2686,"Struct":2687,"END":2688,"Ġlevel":2689,"SIZE":2690,"ĠPoint":2691,"Zone":2692,"model":2693,"Progress":2694,"Permission":2695,"QU":2696,"ik":2697,"no":2698,"ince":2699,"ĠTo":2700,"Ġfailed":2701,"Mapper":2702,"anaged":2703,"incip":2704,"idx":2705,"Man":2706,"jcasType":2707,"Ġqu":2708,":\"":2709,"Ste":2710,"Ġschema":2711,"Matcher":2712,"Ġmapp":2713,"ĠArrays":2714,"logy":2715,"Ne":2716,"printStackTrace":2717,"ategory":2718,"expected":2719,"Ġtransaction":2720,"Ġoriginal":2721,"Ġxml":2722,"Protocol":2723,"Ġfields":2724,"Ġfiles":2725,"Ġlook":2726,"ĠAbstract":2727,"getT":2728,"Ġhere":2729,"Ġmodule":2730,"greg":2731,"pc":2732,"Ġbecause":2733,"FIX":2734,"Profile":2735,"Nullable":2736,"Such":2737,"Database":2738,"PAT":2739,"Ġfail":2740,"properties":2741,"])":2742,"Ġrange":2743,"open":2744,"Math":2745,"Ġprop":2746,"Cluster":2747,"attribute":2748,"IC":2749,"ten":2750,"reen":2751,"Ġqueue":2752,"ground":2753,"Conf":2754,"()),":2755,"NLS":2756,"def":2757,"Ġsum":2758,"Ġinto":2759,"Render":2760,"Ġwait":2761,"HashMap":2762,"ĠStream":2763,"lick":2764,"now":2765,"Ġprint":2766,"roll":2767,"Ġ6":2768,"ĠSh":2769,"Ġ5":2770,"Pointer":2771,"ployment":2772,"AM":2773,"Ġvar":2774,"Day":2775,"oogle":2776,"Account":2777,"Ġsame":2778,"Ġdest":2779,"left":2780,"Ġcallback":2781,"verse":2782,"udit":2783,"ĠclassName":2784,"ek":2785,"irection":2786,"Missing":2787,"change":2788,"iate":2789,"erge":2790,"Ġused":2791,"Ġparser":2792,"Ġop":2793,"currentTimeMillis":2794,"andidate":2795,"Ġidx":2796,"Plugin":2797,"DEFAULT":2798,"ias":2799,"Par":2800,"Symbol":2801,"Rep":2802,"ĠBig":2803,"ived":2804,"Ġdocument":2805,"Ġtemplate":2806,"moved":2807,"LowerCase":2808,"Post":2809,"Ġbundle":2810,"Classes":2811,"Resources":2812,"Methods":2813,"ĠSI":2814,"getO":2815,"ĠTODO":2816,"ume":2817,"Ġjust":2818,"ĠAdd":2819,"Detail":2820,"lish":2821,"Ġbound":2822,"ĠMo":2823,"Unable":2824,"lip":2825,"ĠEx":2826,"Xml":2827,"Ġscope":2828,"Interval":2829,"Delete":2830,"SU":2831,"LOC":2832,"Listeners":2833,"Results":2834,"send":2835,"Nonnull":2836,"Batch":2837,"Ġctx":2838,"andard":2839,"Entries":2840,"names":2841,"(\"\\":2842,"Relation":2843,"component":2844,"Controller":2845,"toArray":2846,"Ġexpression":2847,"Limit":2848,"ration":2849,"istory":2850,"Messages":2851,"Collector":2852,"ĠĠĠĠĉ":2853,"incipal":2854,"OL":2855,"Ġdon":2856,"ty":2857,"Could":2858,"job":2859,")).":2860,"ByteArray":2861,"Parse":2862,"Memory":2863,"TTP":2864,"Consumer":2865,"TIME":2866,"Columns":2867,"Declar":2868,"Ġ//$":2869,"ABLE":2870,"Ġcluster":2871,"Ġsplit":2872,"DateTime":2873,"Ġterm":2874,"Stats":2875,"ao":2876,"TED":2877,"ĠOut":2878,"Ġeach":2879,"Ġiterator":2880,"Ġrequired":2881,"ĠRE":2882,"ied":2883,"record":2884,"FOR":2885,"ero":2886,"Repository":2887,"Edge":2888,"Ġreport":2889,"location":2890,"IP":2891,"Ġmore":2892,"thing":2893,"mark":2894,"ĠWeb":2895,"Character":2896,"rency":2897,"anner":2898,"ced":2899,"Ġopen":2900,"Us":2901,"ĠQuery":2902,"ranch":2903,"ens":2904,"oordinate":2905,"Topic":2906,"getAbsolute":2907,"ĠXML":2908,"scription":2909,"sql":2910,"getB":2911,"Ġbit":2912,"ycle":2913,"Items":2914,"ily":2915,"Ġlimit":2916,"run":2917,"12":2918,"Ġdestination":2919,"Qual":2920,"US":2921,"hash":2922,"ifiers":2923,"Ġconn":2924,"command":2925,"matches":2926,"ision":2927,"invoke":2928,"amed":2929,"Bucket":2930,"Ġelements":2931,"Open":2932,"idd":2933,"Destination":2934,"Partition":2935,"Initial":2936,"ĠDB":2937,"ump":2938,"Constructor":2939,"Ġconnect":2940,"sw":2941,"toLowerCase":2942,"09":2943,"ection":2944,"CLASS":2945,"ĠDE":2946,"pect":2947,"ured":2948,"IG":2949,"ĠStringBuffer":2950,"ĠByteArray":2951,"adi":2952,"TAG":2953,"ighb":2954,"Cannot":2955,"Ġlocation":2956,"lope":2957,"Ġreq":2958,"Menu":2959,"cor":2960,"Ġheight":2961,"Ġmark":2962,"Active":2963,"Vertex":2964,"Flow":2965,"ĠService":2966,"ason":2967,"Select":2968,"ignment":2969,"ixed":2970,"We":2971,"org":2972,"Ġinsert":2973,"Short":2974,"Ġclear":2975,"Ġtimeout":2976,"Artifact":2977,"Ġcontrol":2978,"SET":2979,"Ġfull":2980,"ability":2981,"Device":2982,"riteria":2983,"FILE":2984,"Resolver":2985,"Run":2986,"Ġ\")":2987,"exception":2988,"ATA":2989,"ĠSQLException":2990,"vh":2991,"getField":2992,"Ġpost":2993,"Ġbody":2994,"Ph":2995,"qPath":2996,"Ġlink":2997,"validate":2998,"NOT":2999,"box":3000,"Ġge":3001,"._":3002,"ĠProperties":3003,"});":3004,"Role":3005,"FileName":3006,"pri":3007,"+\"":3008,"Password":3009,"hs":3010,"endsWith":3011,"----------------":3012,"mail":3013,"mar":3014,"Ġpar":3015,"Ġmon":3016,"conditions":3017,"DER":3018,"ĠTree":3019,"getTime":3020,"ĠCreate":3021,"Ġ10":3022,"bound":3023,"Ġresolve":3024,"Illegal":3025,"eek":3026,"ibility":3027,"gon":3028,"ĠĠĠĠĠĠĠĠĠĠĠĠĠĠĠĠĠĠĠĠĠĠĠĠĠĠĠĠĠĠĠĠĠĠĠĠĠĠĠĠĠĠĠĠĠĠĠĠĠĠĠĠĠĠĠĠĠĠĠĠĠĠĠĠ":3029,"Security":3030,"MIN":3031,"Ġrel":3032,"aint":3033,"ĠMet":3034,"ULL":3035,"orter":3036,"prefix":3037,"cheme":3038,"ibr":3039,"olygon":3040,"Op":3041,"Step":3042,"serv":3043,"ĠserviceName":3044,"NonNull":3045,"ĠmethodName":3046,"arraycopy":3047,"',":3048,"COL":3049,"cent":3050,"ĠResult":3051,"getNode":3052,"Ġkeys":3053,"AS":3054,"eep":3055,"rigger":3056,"rect":3057,"Ġproxy":3058,"ssible":3059,"Ġdatabase":3060,"Ġapplication":3061,"Activity":3062,"Ġexisting":3063,"Ġimp":3064,"OF":3065,"Ġnodes":3066,"Props":3067,"Copy":3068,"tachment":3069,"++]":3070,"16":3071,"ĠProperty":3072,"lf":3073,"types":3074,"/{":3075,"Signature":3076,"ByteBuffer":3077,"Rows":3078,"Alias":3079,"Upper":3080,"ĠThrowable":3081,"ANCE":3082,"ĠSimple":3083,"rib":3084,"ATTR":3085,"lush":3086,"Ġtypes":3087,"QUE":3088,"ĠĠĠĠĠĠĠĠĠĠĠĠĊ":3089,"OUT":3090,"doc":3091,"orig":3092,"ĠĠĠĠĠĠĊ":3093,"rea":3094,"ĠĠĠĠĠĠĠĠĠĠĠĠĠĠĠĠĠĠĠĠ":3095,"adding":3096,"page":3097,"Ġstatement":3098,"Ġsystem":3099,"Ġresol":3100,"Ġextract":3101,"Ġchange":3102,"eas":3103,"cast":3104,"xis":3105,"attr":3106,"rincipal":3107,"ĠID":3108,"getData":3109,"ĠDocument":3110,"ĠjcasType":3111,"oci":3112,"getAbsolutePath":3113,"ĠĠĠĠĠĠĠĠĠĠĠĠĠĠĠĠĠĠĠĠĠĠĠĠĠĠĠĠĠĠĠĠĠĠĠĠĠĠĠ":3114,"sort":3115,"vision":3116,"lat":3117,"reset":3118,"FS":3119,"culate":3120,"mbed":3121,"Tick":3122,"[]{":3123,"link":3124,"Ġren":3125,"Ġtx":3126,"Prop":3127,"writer":3128,"ES":3129,"can":3130,"initial":3131,"gex":3132,"struct":3133,"Ġ;":3134,"SECON":3135,"Anim":3136,"Tile":3137,"Chunk":3138,"casFeat":3139,"Report":3140,"pleted":3141,"Ġavailable":3142,"Ġpool":3143,"ublish":3144,"image":3145,"Ġorg":3146,"ĠdefaultValue":3147,"Ġextension":3148,"Ġmetric":3149,"ling":3150,"unc":3151,"ĠGener":3152,"Stop":3153,"ynt":3154,"ServletRequest":3155,"options":3156,"Groups":3157,"ceived":3158,"Ġraw":3159,"dest":3160,"Expr":3161,"Ġcompute":3162,"11":3163,"ote":3164,"ws":3165,"Ġtree":3166,"Ġoption":3167,"parseInt":3168,"ersistence":3169,"Folder":3170,"aj":3171,"itude":3172,"number":3173,"One":3174,"onical":3175,"address":3176,"Ġ>>":3177,"Ġchildren":3178,"VERSION":3179,"ĠValue":3180,"style":3181,"amily":3182,"POST":3183,"LOGGER":3184,"ĠTask":3185,"abs":3186,"ĠImmutable":3187,"stop":3188,"ACK":3189,"rs":3190,"Down":3191,"eded":3192,"iver":3193,"PA":3194,"Validator":3195,"oe":3196,"Panel":3197,"height":3198,"Buf":3199,"ĠNot":3200,"Preference":3201,"Ġob":3202,"Ġreset":3203,"Ġheaders":3204,"struction":3205,"Ġusing":3206,"ĠNumber":3207,"PI":3208,"Changed":3209,"ECT":3210,"ott":3211,"descri":3212,"conf":3213,"ArrayList":3214,"!=":3215,"ou":3216,"Formatter":3217,"Ġtrace":3218,"ĠDefault":3219,"Ġclean":3220,"Ġfeature":3221,"prec":3222,"Ġword":3223,"formed":3224,"wo":3225,"ĠGe":3226,"Full":3227,"Red":3228,"cp":3229,"ĠConfiguration":3230,"asList":3231,"Environment":3232,"impleName":3233,"lers":3234,"Display":3235,"Use":3236,"getBytes":3237,"reader":3238,"reshold":3239,"ses":3240,"ORT":3241,"Ġ()":3242,"Failure":3243,"aging":3244,"oop":3245,"Notification":3246,"Ġcollection":3247,"encies":3248,"Ġnamespace":3249,"Ġmeta":3250,"ĠAttribute":3251,"Ġprev":3252,"Right":3253,"Authentication":3254,"Ġdecl":3255,"bean":3256,"tree":3257,"Ġpassword":3258,"Arch":3259,"Binding":3260,"Ġdown":3261,"201":3262,"Duration":3263,"ker":3264,"sist":3265,"req":3266,"covery":3267,"ins":3268,"getDefault":3269,"ĠFF":3270,"Ġ\"]":3271,"MAT":3272,"Tags":3273,"More":3274,"ĠIndex":3275,"Each":3276,"tmp":3277,"Plan":3278,"ĠgetS":3279,"Ġopt":3280,"ariant":3281,"cat":3282,"Selected":3283,"Cre":3284,"Jar":3285,"post":3286,"olt":3287,"ferred":3288,"ds":3289,"PROPER":3290,"ĠBase":3291,"ALL":3292,"jo":3293,"istics":3294,"Ġprovider":3295,"visit":3296,"Assignable":3297,"Ġstyle":3298,"Success":3299,"aded":3300,"ian":3301,"!\");":3302,"TERN":3303,"ccur":3304,"ottom":3305,"Bar":3306,"body":3307,"Ġpackage":3308,"ATOR":3309,"Ġactual":3310,"UI":3311,"params":3312,"Ġrender":3313,"var":3314,"Ġtop":3315,"ibrary":3316,"ges":3317,"Ġpartition":3318,"Ġoff":3319,"convert":3320,"Ġlocale":3321,"Dialog":3322,"Ġtile":3323,"Test":3324,"Objects":3325,"ired":3326,"Interceptor":3327,"parameter":3328,"Domain":3329,"ĠTable":3330,"OM":3331,"Ġapply":3332,"ites":3333,"://":3334,"licit":3335,"collect":3336,"Ġĉĉĉĉĉĉĉ":3337,"adius":3338,"listener":3339,"notNull":3340,"Ġweb":3341,"Custom":3342,"Ġsecond":3343,"Bind":3344,"Float":3345,"opul":3346,"getCurrent":3347,"ĠIter":3348,"Ob":3349,"Ġav":3350,"Tokens":3351,"Serializer":3352,"Writ":3353,"eser":3354,"Draw":3355,"Icon":3356,"Ġman":3357,"Remote":3358,"Ġfuture":3359,"axis":3360,"catch":3361,"ship":3362,"head":3363,"HT":3364,"Network":3365,"XT":3366,"ĠConfig":3367,"velope":3368,"Ġcolor":3369,"ASE":3370,"jection":3371,"ĠJSONObject":3372,"Ġour":3373,"Distance":3374,"eed":3375,"flush":3376,"sets":3377,"\"),":3378,"LIN":3379,"xFF":3380,"channel":3381,"Ġcompare":3382,"Sp":3383,"LIC":3384,"Available":3385,"google":3386,"Ġsave":3387,"ĠFFDC":3388,"Join":3389,"ift":3390,"ĠToken":3391,"Common":3392,"UND":3393,"BO":3394,"ĠContext":3395,"Ġrep":3396,"ĠUser":3397,"ART":3398,"Kind":3399,"Ġmatcher":3400,"Commit":3401,"Ġentries":3402,"</":3403,"limit":3404,"Ġ16":3405,"Arguments":3406,"className":3407,"BY":3408,"full":3409,"Ġmode":3410,"Ġsince":3411,"test":3412,"ux":3413,"ular":3414,"ynam":3415,"Multi":3416,"ended":3417,"Ġremote":3418,"Ġtopic":3419,"erson":3420,"Ġsequence":3421,"chedul":3422,"ĠTimeUnit":3423,"Ġshort":3424,"Ġunit":3425,"dk":3426,"xff":3427,"ĠError":3428,"join":3429,"rough":3430,"pendencies":3431,"Ġapi":3432,"Ġsuccess":3433,"Bond":3434,"Ġcause":3435,"ĠAss":3436,"Di":3437,"Ġinitialize":3438,"handle":3439,"ĠExpression":3440,"Ġdig":3441,"ĠfileName":3442,"yntax":3443,"AssignableFrom":3444,"apped":3445,"Grid":3446,"sn":3447,"ĠEntity":3448,"setProperty":3449,"Ġdelet":3450,"vm":3451,"Timestamp":3452,"med":3453,"getStatus":3454,"Agent":3455,"Layer":3456,"ma":3457,"Ġnormal":3458,"temp":3459,"losing":3460,"Geometry":3461,"artifact":3462,"Tasks":3463,"Blank":3464,"SK":3465,"Ġ[\"":3466,"OB":3467,"redential":3468,"lang":3469,"application":3470,"ense":3471,"ĠgetC":3472,"Ġitems":3473,"Declared":3474,"getIn":3475,"Ġspecified":3476,"Ġ'\\":3477,"OK":3478,"atom":3479,"Ġcontains":3480,"istrib":3481,"Ġactive":3482,"Ġplugin":3483,"idget":3484,"SL":3485,"ĠParse":3486,"Ġenc":3487,"ducer":3488,"Ġwhere":3489,"PREFIX":3490,"Algorithm":3491,"ENTI":3492,"ĠView":3493,"ĠByteBuffer":3494,"ĠPreconditions":3495,"Paths":3496,"Ġgo":3497,"isAssignableFrom":3498,"ĠStringUtils":3499,"ĠInterruptedException":3500,"curity":3501,"eserial":3502,"exp":3503,"Ġsign":3504,"MPTY":3505,"ExecutionException":3506,"After":3507,"Arrays":3508,"Ġcould":3509,"Ġinternal":3510,"API":3511,"Ġdst":3512,"respon":3513,"ffect":3514,"Ġarguments":3515,"DATA":3516,"Ġcondition":3517,"ĠMod":3518,"legate":3519,"CODE":3520,"Ġprob":3521,"Ġjar":3522,"Ġits":3523,"Driver":3524,"Ġenv":3525,"accept":3526,"cessed":3527,"encode":3528,"del":3529,"Factor":3530,"Ġframe":3531,"Operator":3532,"ĠJava":3533,"yped":3534,"ĠSec":3535,"TEXT":3536,"cr":3537,"Ġsp":3538,"ressed":3539,"ENG":3540,"Ġgraph":3541,"gistration":3542,"wait":3543,"ifest":3544,"Optional":3545,"Tx":3546,"alle":3547,"Ġsort":3548,"Declaration":3549,"level":3550,"Modified":3551,"segment":3552,"IndexOf":3553,"STRING":3554,"card":3555,"iteral":3556,"Visible":3557,"PATH":3558,"Ġresp":3559,"Ġscale":3560,"Generic":3561,"AND":3562,"Area":3563,"Ġcell":3564,"Ġ\"\\":3565,"Ġthem":3566,"Enc":3567,"This":3568,"Ġdescription":3569,"(\",":3570,"iven":3571,"Ġinterface":3572,"getContext":3573,"ock":3574,"Annotations":3575,"ĠServer":3576,"ha":3577,"ĠFunction":3578,"Temp":3579,"wise":3580,"ĠConnection":3581,"Ġensure":3582,"pology":3583,"olution":3584,"Ġcontain":3585,"Rect":3586,"Metrics":3587,"Html":3588,"Ġconstructor":3589,"Points":3590,"getX":3591,"UUID":3592,"AccessException":3593,"Ġcf":3594,"prop":3595,"uplic":3596,"leton":3597,"versation":3598,"orization":3599,"ĠConstants":3600,"clu":3601,"<?>>":3602,"Ġtokens":3603,"Ġbind":3604,"Ġmain":3605,"ads":3606,"ely":3607,"Anal":3608,"ultiple":3609,"getSimpleName":3610,"Ġimplement":3611,"Tuple":3612,"Ġdistance":3613,"Ġvisit":3614,"URE":3615,"pattern":3616,"Ġcounter":3617,"ationException":3618,"Can":3619,"just":3620,"itional":3621,"Ġbucket":3622,"Exists":3623,"Ġencoding":3624,"tual":3625,"Ġcolumns":3626,"Ġencode":3627,"forEach":3628,"}/":3629,"Db":3630,"Hex":3631,"cc":3632,"Ġ\\\"":3633,"Ġstorage":3634,"Attempt":3635,"Monitor":3636,"ires":3637,"Ġprofile":3638,"ĠPattern":3639,"STANCE":3640,"roy":3641,"Ġ>>>":3642,"ĠModel":3643,"net":3644,"getFirst":3645,"BE":3646,"Information":3647,"Unique":3648,"(((":3649,"configuration":3650,"Ġrs":3651,"stri":3652,"plier":3653,"Selection":3654,"escape":3655,"easure":3656,"};":3657,"Ġscan":3658,"rieve":3659,"cluded":3660,"total":3661,"Dependency":3662,"[][]":3663,"eta":3664,"posite":3665,"Weight":3666,"aven":3667,"Simple":3668,"Ġselect":3669,"Bits":3670,"ollow":3671,"access":3672,"stack":3673,"Ġscript":3674,"Title":3675,"used":3676,"02":3677,"Ġloop":3678,"Dao":3679,"patch":3680,"insert":3681,"ynamic":3682,"READ":3683,"aun":3684,"imes":3685,"Top":3686,"my":3687,"Ġspace":3688,"Ġchunk":3689,"Ġendpoint":3690,"getRequest":3691,"CESS":3692,"ĠAnnotation":3693,"ĠClient":3694,"pose":3695,"pha":3696,"Sign":3697,"getLocal":3698,"ĠAl":3699,"oto":3700,"Summary":3701,"FINE":3702,"addBody":3703,"serial":3704,"Single":3705,"(\".":3706,"Ġexists":3707,"generate":3708,"Wait":3709,"nt":3710,"Ġph":3711,"Ġcustom":3712,"select":3713,"ĠOvh":3714,"FormatException":3715,"replaceAll":3716,"ingBox":3717,"ipher":3718,"ĠNull":3719,"Ġsocket":3720,"Sql":3721,"eration":3722,"system":3723,"Ġdevice":3724,"Ġchain":3725,"Ġmethods":3726,"FIEL":3727,"JS":3728,"Support":3729,"make":3730,"getParameter":3731,"Structure":3732,"Ġ[{}":3733,"Ġsome":3734,"ableFuture":3735,"Ġtri":3736,"Ġfilename":3737,"amples":3738,"execut":3739,"Static":3740,"Global":3741,"IS":3742,"ĠVector":3743,"Font":3744,"IO":3745,"vid":3746,"getChild":3747,"DATE":3748,"El":3749,"Ġrelation":3750,"getMax":3751,"Certificate":3752,"Remove":3753,"Capacity":3754,"getInt":3755,"JECT":3756,"resolve":3757,"profile":3758,"wrap":3759,"ĠUtil":3760,"Ġdone":3761,"mission":3762,"color":3763,"LIST":3764,"ĠAuth":3765,"Ġbatch":3766,"Ġ...":3767,"ifiable":3768,"InterruptedException":3769,"unlock":3770,"Ġdif":3771,"MESS":3772,"25":3773,"ĠState":3774,"imiter":3775,"env":3776,"shall":3777,"Ġra":3778,"Ġsure":3779,"Ġmerge":3780,"feat":3781,"()];":3782,"addr":3783,"super":3784,"(@":3785,"getMethod":3786,"aps":3787,"Owner":3788,"ways":3789,"Ġcre":3790,"External":3791,"ĠIterable":3792,"gative":3793,"Extra":3794,"VALID":3795,"Details":3796,"oom":3797,"etAddress":3798,"Region":3799,"Language":3800,"Ġ-=":3801,"Imp":3802,"ĠContent":3803,"getY":3804,"ĠBox":3805,"80":3806,"Dataset":3807,"WAR":3808,"Ġpoints":3809,"ĠNoSuch":3810,"QUEST":3811,"itive":3812,"Required":3813,"Identity":3814,"container":3815,"Ġjoin":3816,"ĠBit":3817,"Selector":3818,"Ġcreated":3819,"Ġ--":3820,"ĠBigDecimal":3821,"ĠParam":3822,"Services":3823,"(\"%":3824,"ITY":3825,"Ġpayload":3826,"AV":3827,"Binary":3828,"Ġinvalid":3829,"top":3830,"Ġmapping":3831,"Tool":3832,"Ġbest":3833,"Closed":3834,"ĠEvent":3835,"Ġhigh":3836,"ĠDEFAULT":3837,"ii":3838,"side":3839,"pared":3840,"Variables":3841,"Ġme":3842,"ĠImage":3843,"Strings":3844,"agement":3845,"Unknown":3846,"ĠJob":3847,"Ġclasses":3848,"CONT":3849,"Rate":3850,"template":3851,"CRE":3852,"ĠUnsupported":3853,"Ġdescriptor":3854,"Ġos":3855,"FT":3856,"ĠForm":3857,"compareTo":3858,"Scale":3859,"Score":3860,"Members":3861,"ootstr":3862,"loud":3863,"Ġstep":3864,"Ġ(!(":3865,"lastIndexOf":3866,"Ġstmt":3867,"Ġhapp":3868,"Ġtransform":3869,"ĠOperation":3870,"ĠLinkedList":3871,">\");":3872,"intValue":3873,"transform":3874,"ĠEnum":3875,"Append":3876,"pletion":3877,"Ġparts":3878,"dbc":3879,"DK":3880,"pn":3881,"rule":3882,"Ġexec":3883,"valuator":3884,"getUser":3885,"Inf":3886,"ipeline":3887,"getColumn":3888,"(\"\\\\":3889,"PROPERTY":3890,"Ġlisteners":3891,"Ġallow":3892,"getLength":3893,"Ġinclude":3894,"ĠCache":3895,"Complete":3896,"Usage":3897,"Register":3898,"RuntimeException":3899,"Inner":3900,"Section":3901,"ov":3902,"IDs":3903,"Import":3904,"Primitive":3905,"Cookie":3906,"Ġns":3907,"Visitor":3908,"precated":3909,"Slot":3910,"gram":3911,"ĠLocal":3912,"Ġbegin":3913,"SECONDS":3914,"the":3915,"ĠconvertTo":3916,"cret":3917,"ested":3918,"WN":3919,"ĉĉĉ":3920,"Cursor":3921,"HTTP":3922,"operation":3923,"ootstrap":3924,"perand":3925,"Ġexecutor":3926,"inished":3927,"Runtime":3928,"di":3929,"Predicate":3930,"opt":3931,"Ġsm":3932,"proxy":3933,"Ġaccept":3934,"metadata":3935,"Ġadded":3936,"Ġsupported":3937,"very":3938,"irtual":3939,"rivile":3940,"getText":3941,"Events":3942,"Ġ|=":3943,"Week":3944,"ene":3945,"ONE":3946,"CR":3947,"Ġdi":3948,"MAP":3949,"getContent":3950,"START":3951,"getFile":3952,"ĠGit":3953,"CP":3954,"schema":3955,"Ġ7":3956,"Cor":3957,"search":3958,"CHAR":3959,"locate":3960,"ĠOn":3961,"currentThread":3962,"SY":3963,"Lat":3964,"NS":3965,"NE":3966,"wn":3967,"HO":3968,"ffers":3969,"control":3970,"ĠOutputStream":3971,"ĠĠĠĠĠĠĠĠĠĠĠĠĠĠĠĠĠĠĠĠĠĠĠĠĠĠĠĠĠĠĠĠĠĠĠĠĠĠĠĠĠĠĠ":3972,"URCE":3973,"Ġsee":3974,"ĠTra":3975,"Ġarr":3976,"Bus":3977,"oice":3978,"active":3979,"\":":3980,"Gr":3981,"isting":3982,"Ġdec":3983,"cluster":3984,"Ġds":3985,"aunch":3986,"zip":3987,"Credentials":3988,"Unsupported":3989,"TableName":3990,"throws":3991,"metric":3992,"Ġcls":3993,"uring":3994,"Fragment":3995,"Uuid":3996,"Pixel":3997,"ĠĉĉčĊ":3998,"Comment":3999,"ween":4000,"stats":4001,"PUT":4002,"Ġreal":4003,"short":4004,"ourn":4005,"Ġwant":4006,"addresource":4007,"ountry":4008,"Separator":4009,"Ġrows":4010,"Ġthrough":4011,"Ġmy":4012,"clud":4013,"pletableFuture":4014,"Mar":4015,"patcher":4016,"etween":4017,"AtomContainer":4018,"setName":4019,"Attachment":4020,"spec":4021,"Find":4022,"manager":4023,"handler":4024,"]\",":4025,"ĠByteArrayOutputStream":4026,"avig":4027,"Invocation":4028,"Click":4029,"setValue":4030,"Look":4031,"gest":4032,"COM":4033,"99":4034,"sent":4035,"AsString":4036,"report":4037,"getObject":4038,"Ġremoved":4039,"Equ":4040,"ĠCalendar":4041,"NODE":4042,"ĠApp":4043,"Print":4044,"Ġtrack":4045,"Pane":4046,"ĠSub":4047,"Ġdecode":4048,"Ġmember":4049,"arm":4050,"Ġbond":4051,"draw":4052,"Comparator":4053,"ĠPl":4054,"24":4055,"REQUEST":4056,"Ġselected":4057,"TABLE":4058,"FIELD":4059,"mine":4060,"web":4061,"stit":4062,"allback":4063,"cheduler":4064,"bind":4065,"Ġextra":4066,"Ġimport":4067,"Archive":4068,"ĠBufferedReader":4069,"509":4070,"etect":4071,"ula":4072,"resp":4073,"Ġ\"/\"":4074,"SOURCE":4075,"UpperCase":4076,"Tri":4077,"ĠEn":4078,"Month":4079,"ern":4080,"COMP":4081,"ĠCommand":4082,"Ġ\":":4083,"clus":4084,"previous":4085,"Snapshot":4086,"ĠĉĉĠĠĠ":4087,"Ġprovi":4088,"havi":4089,"scope":4090,"ssue":4091,"Delay":4092,"BYTE":4093,"allel":4094,"Category":4095,"Ġinvoke":4096,"Screen":4097,"Split":4098,"Ġcmd":4099,"INSTANCE":4100,"formatter":4101,"Ġneeded":4102,"servable":4103,"Ġap":4104,"aces":4105,"LETE":4106,"Ġalias":4107,"hasMore":4108,")(":4109,"JB":4110,"ibm":4111,"Tracker":4112,"bl":4113,"Ġinst":4114,"Bug":4115,"ware":4116,"ĠProject":4117,"Mask":4118,"Ġconsumer":4119,"getHost":4120,"separator":4121,"Before":4122,"ĠColor":4123,"Scan":4124,"found":4125,"izable":4126,"Ġloader":4127,"Flag":4128,"OD":4129,"loader":4130,"mbedded":4131,"global":4132,"conn":4133,"REN":4134,"BUTE":4135,"vserver":4136,"rowser":4137,"Ġcursor":4138,"Payload":4139,"Ġcp":4140,"INFO":4141,"prev":4142,"LY":4143,"Ġcached":4144,"Ġencoded":4145,"Ġsignature":4146,"ours":4147,"document":4148,"Ġdelta":4149,"Depth":4150,"Ġcalculate":4151,"IBUTE":4152,"NING":4153,"MESSAGE":4154,"bit":4155,"Ms":4156,"require":4157,"(\"<":4158,"Ġwindow":4159,"ĠJsonObject":4160,"Init":4161,"Errors":4162,"Raw":4163,"getWidth":4164,"oordinates":4165,"Big":4166,"--;":4167,"rt":4168,"(\"[":4169,"Ġ1000":4170,"Ġmatches":4171,"Shape":4172,"bundle":4173,"ĠFor":4174,"ĠServlet":4175,"########":4176,"Ġpair":4177,"Random":4178,"rows":4179,"forName":4180,"Flags":4181,"IM":4182,"AG":4183,"BER":4184,"Void":4185,"Ġsettings":4186,"push":4187,"CL":4188,"LINE":4189,"WOR":4190,"losure":4191,"Ġdim":4192,"ToString":4193,"etermine":4194,"Transform":4195,"AUT":4196,"Ġbl":4197,"Ok":4198,"ĠPrint":4199,"Ġrunning":4200,"children":4201,"Ġpossible":4202,"sd":4203,"Ġerr":4204,"Ġrandom":4205,"ĠFilter":4206,"LED":4207,"Dimension":4208,"FIG":4209,"Ġfire":4210,"tact":4211,"getHeight":4212,"clone":4213,"Ġflow":4214,"thread":4215,"ORY":4216,"ĠClassLoader":4217,"alt":4218,"Ġsingle":4219,"timeout":4220,"Ġregistered":4221,"Year":4222,"SQLException":4223,"Ġmove":4224,"Ġwrit":4225,"Ġbits":4226,"assert":4227,"ACT":4228,"da":4229,"relation":4230,"Ġioe":4231,"umul":4232,"Ġcommit":4233,"ĠRet":4234,"Features":4235,"Timer":4236,"acters":4237,"EXT":4238,"History":4239,"look":4240,"Ġshow":4241,"ĠRepository":4242,"pool":4243,"ĠTransaction":4244,"ELE":4245,"isDirectory":4246,"HEAD":4247,"ONG":4248,"Public":4249,"fine":4250,"skip":4251,"Tokenizer":4252,"DArray":4253,"ION":4254,"getAll":4255,"Ġdebug":4256,"module":4257,"ĠCharacter":4258,"Ġartifact":4259,"Ġsupport":4260,"Super":4261,"Iterable":4262,"Diff":4263,"ful":4264,"ĠMatcher":4265,"itespace":4266,"Media":4267,"omer":4268,"Replace":4269,"Validate":4270,"RM":4271,"amer":4272,"roid":4273,"Ident":4274,"Ġservlet":4275,"feature":4276,"range":4277,"Ġhead":4278,"words":4279,"Seq":4280,"ĠUpdate":4281,"Ġ},":4282,"Segments":4283,"me":4284,"Ġprogress":4285,"Background":4286,"domain":4287,"aml":4288,"ids":4289,"Ġmessages":4290,"valuate":4291,"Ġlookup":4292,"ĠfieldName":4293,"gable":4294,"impl":4295,"========":4296,"Ġnotify":4297,"MD":4298,"Parts":4299,"Period":4300,"Logging":4301,"option":4302,"ĠProcess":4303,"Ġallowed":4304,"Ġagain":4305,"uch":4306,"Ġday":4307,"Chars":4308,"APP":4309,"ike":4310,"Ġremaining":4311,"Ġattempt":4312,"ĠRead":4313,"ACHE":4314,"&&":4315,"Ġam":4316,"ions":4317,"istic":4318,"Second":4319,"Real":4320,"ACTION":4321,"yz":4322,"Ġ'%":4323,"Ġperform":4324,"ournal":4325,"Lines":4326,"curs":4327,"PointerException":4328,"cf":4329,"available":4330,"Ġdisplay":4331,"Ġdoesn":4332,"BUG":4333,"Sync":4334,"getEnd":4335,"ATTRIBUTE":4336,"Ġpass":4337,"Product":4338,"Head":4339,"DAY":4340,"RAY":4341,"Ġmanager":4342,"Ġ\"\");":4343,"setAttribute":4344,"warning":4345,"reference":4346,"Ġcharacter":4347,"Ġedge":4348,"Axis":4349,"Ġduration":4350,"FilePath":4351,"Ġmapper":4352,"ceive":4353,"ĠpropertyName":4354,"ĠĉĉĉĊ":4355,"ferent":4356,"show":4357,">,":4358,"Ġdomain":4359,"Prob":4360,"Auto":4361,"jar":4362,"ants":4363,"keys":4364,"complete":4365,"ĠFileInputStream":4366,"tf":4367,"ĠEntry":4368,"Ġregion":4369,"Statistics":4370,"DD":4371,"ctionary":4372,"ĠDis":4373,"18":4374,"Ġpermission":4375,"Ġca":4376,"Syntax":4377,"leep":4378,"TypeName":4379,"ĠAction":4380,"';":4381,"ators":4382,"off":4383,"Utilities":4384,"DataSource":4385,"STATE":4386,"Upload":4387,"Ġthey":4388,"Deprecated":4389,"isTrace":4390,"DataType":4391,"Edit":4392,"Ġtwo":4393,"Ġip":4394,"ĠBean":4395,"ĠInternal":4396,"Ġretry":4397,"CS":4398,"ingException":4399,"ĠRunnable":4400,"Ġtimestamp":4401,"ĠText":4402,"Worker":4403,"rec":4404,"original":4405,"Ġhel":4406,"Ġzip":4407,"ven":4408,"ĠUtils":4409,"IdOr":4410,"continue":4411,"serviceName":4412,"Packet":4413,"atform":4414,"Ġcookie":4415,"ssl":4416,"Ġcomplete":4417,"Transport":4418,"Accept":4419,"Admin":4420,"20":4421,"gra":4422,"ĠY":4423,"ither":4424,"ĠLe":4425,"andidates":4426,"********":4427,"Ġhappen":4428,"ENGTH":4429,"Ġparsed":4430,"ServletResponse":4431,"ĠName":4432,"Dest":4433,"Ġobjects":4434,"ĠSerial":4435,"isNull":4436,"stanti":4437,"luster":4438,"Ġoccur":4439,"ĠSAX":4440,"URLConnection":4441,"CONN":4442,"CONFIG":4443,"Ori":4444,"Sw":4445,"ĠLogger":4446,"ese":4447,"ulk":4448,"Ġgiven":4449,"Ġids":4450,"Rules":4451,"VICE":4452,"'re":4453,"Ġ\"\\\"":4454,"ffic":4455,"idden":4456,"getAnnotation":4457,"Ġcalendar":4458,"udio":4459,"oPackage":4460,"ctx":4461,"Ġinner":4462,"Ġerrors":4463,"Ġformatter":4464,"Retry":4465,"less":4466,"=\\\"":4467,"bar":4468,"Instances":4469,"Equal":4470,"getDeclared":4471,"locale":4472,"alformed":4473,"Ġsent":4474,"Ġrole":4475,"Ġssl":4476,"Components":4477,"Total":4478,"Ġ\"\"":4479,"[]>":4480,"Ġchanged":4481,"Digest":4482,"Ġconstraint":4483,"commerce":4484,"Collectors":4485,"essaging":4486,"Ġexecution":4487,"member":4488,"aim":4489,"Ġunique":4490,"Ġcalled":4491,"ĠLocale":4492,"Ġtitle":4493,"cm":4494,"Ġ(@":4495,"Commerce":4496,"ĠcheckNotNull":4497,"Ġrec":4498,"addresources":4499,"decode":4500,"ĠMAX":4501,"Ġinterval":4502,"FE":4503,"PT":4504,"mode":4505,"Transformer":4506,"LENGTH":4507,"ĠXml":4508,"Ġqual":4509,"section":4510,"graph":4511,"ĠAtom":4512,"Ġrepository":4513,"ĠOb":4514,"<?,":4515,"Persist":4516,"getNext":4517,"Secret":4518,"Ġdefinition":4519,"Ġdraw":4520,"Ġshutdown":4521,"ceiver":4522,"rapped":4523,"sync":4524,"DEX":4525,"ĠBuild":4526,"ĠgetAll":4527,"Ġdefined":4528,"ysis":4529,"uplicate":4530,"eer":4531,"eric":4532,"LOW":4533,"Aggreg":4534,"Coord":4535,"LL":4536,"LLI":4537,"ĠQ":4538,"track":4539,"Ġiv":4540,"namespace":4541,"Ġprotocol":4542,"toUpperCase":4543,"Ġdependency":4544,"ĠItem":4545,"ĠBasic":4546,"meta":4547,"late":4548,"yy":4549,".<":4550,"OS":4551,"Tab":4552,"ĠSession":4553,"Ġflush":4554,"commit":4555,"OperationException":4556,"Span":4557,"pol":4558,"Stage":4559,"ifec":4560,"getStart":4561,"go":4562,"wt":4563,"getLast":4564,"olume":4565,"RED":4566,"Ġverify":4567,"etter":4568,"Ġowner":4569,"EMPTY":4570,"alance":4571,"Ġsymbol":4572,"html":4573,"Ġweight":4574,"THOD":4575,"ifecycle":4576,"CTION":4577,"hip":4578,"variable":4579,"Ġusername":4580,"signed":4581,"ĠFileOutputStream":4582,"Ġcurr":4583,"Audit":4584,"Direct":4585,"Running":4586,"Ġlayout":4587,"ĠqPath":4588,"Assignment":4589,"EncodingException":4590,"Opt":4591,"getError":4592,"roker":4593,"updateresources":4594,"Ġcandidate":4595,"ĠME":4596,"ĠCompletableFuture":4597,"Qualified":4598,"Core":4599,"jcas":4600,"password":4601,"requ":4602,"ĠĠĠĠĠĠĠĠĠĠĠĠĠĠĠĠĠĠĠĠĠĠĠĠ":4603,"getIndex":4604,"aved":4605,"eeper":4606,"ĠtableName":4607,"Constraints":4608,"Ġmatrix":4609,"Subject":4610,"ries":4611,"raction":4612,"ARY":4613,"title":4614,"cls":4615,"Ġrelease":4616,"Ġdesc":4617,"ĠSecurity":4618,"Ġexpr":4619,"FieldName":4620,"ogram":4621,"cessary":4622,"release":4623,"ases":4624,"parameters":4625,"PTION":4626,"Subscription":4627,"UB":4628,"USER":4629,"ĠJS":4630,"55":4631,"ĠSchema":4632,"ById":4633,"TIVE":4634,"attributes":4635,"Ġ();":4636,"jector":4637,"ĠAssert":4638,",\"":4639,"GRO":4640,"Ġmulti":4641,"fail":4642,"ĠRect":4643,"sheet":4644,"getSh":4645,"save":4646,"getEntity":4647,"ĠST":4648,"shutdown":4649,"ĠStatus":4650,"istogram":4651,"Cost":4652,"Literal":4653,"getMin":4654,"expression":4655,"switch":4656,"MBean":4657,"Route":4658,"distance":4659,"scale":4660,"ĠNO":4661,"Ġnothing":4662,"shaller":4663,"getConnection":4664,"Ġ\"-":4665,"Ġglobal":4666,"Ġalways":4667,"Clause":4668,"PARATOR":4669,"casFeatCode":4670,"Expected":4671,"under":4672,"Registration":4673,"ConfigurationException":4674,"Allowed":4675,"FORMAT":4676,"cludes":4677,"also":4678,"ĠĠĠĠĠĠĠĠĠĠĠĠĠĠĠĠĠĠĠĠĠĠĠĠĠĠĠĠĠĠĠĠĠĠĠĠĠ":4679,"TRAN":4680,"Blocks":4681,"oler":4682,"render":4683,"pack":4684,"ĠinputStream":4685,"lice":4686,"ĠVersion":4687,"Extensions":4688,"custom":4689,"sv":4690,"ALI":4691,"fileName":4692,"Catalog":4693,"Ġfs":4694,"Master":4695,"pair":4696,"oth":4697,"Ġfetch":4698,"Utility":4699,"factory":4700,"Ġzero":4701,"getComponent":4702,"ReturnType":4703,"ĠZip":4704,")\",":4705,"elet":4706,"ĠHand":4707,"ict":4708,"ving":4709,"isNot":4710,"Ġ\").":4711,"ĠApi":4712,"CACHE":4713,"Native":4714,"getE":4715,"ĠColumn":4716,"Assert":4717,"Ġprepare":4718,"Insert":4719,"Cal":4720,"lash":4721,"rel":4722,"Ġpush":4723,"ĠRel":4724,"NULL":4725,"ĠStorage":4726,"ernal":4727,"ework":4728,"ramework":4729,"GL":4730,"ITH":4731,"dig":4732,"ĠgetP":4733,"Ġlower":4734,"LAY":4735,"ĠDescri":4736,"agn":4737,"ĠFloat":4738,"putAll":4739,"Ġgrid":4740,"compute":4741,"begin":4742,"ui":4743,"ually":4744,"vance":4745,"destination":4746,"Ġbox":4747,"MIT":4748,"ĠParameter":4749,"WS":4750,"ĠBlock":4751,"bose":4752,"Animation":4753,"Final":4754,"Fixed":4755,"ĠĠĠĠĠĠĠĠĠĠĠĠĠĠĠĠĠĠĠĠĠ":4756,"AXB":4757,"Sid":4758,"ĠTR":4759,"partition":4760,"Marker":4761,"points":4762,"Gen":4763,"ives":4764,"nextToken":4765,"/*":4766,"ĠPair":4767,"DateFormat":4768,"Am":4769,"gen":4770,"Ġtoo":4771,"ĠPage":4772,"processException":4773,"Ġuntil":4774,"azy":4775,"Ġupdated":4776,"MILLI":4777,"fill":4778,"toByteArray":4779,"INTER":4780,"Ġmissing":4781,"ĠgetClass":4782,"ĠOr":4783,"aN":4784,"uce":4785,"Ġpending":4786,"toList":4787,"Ġmemory":4788,"Requests":4789,"Ġengine":4790,"opulate":4791,"Sent":4792,"Ġalso":4793,"Ġbinding":4794,"unit":4795,"ctories":4796,"fields":4797,"cheduled":4798,"Family":4799,"tl":4800,"getSource":4801,"ĠNullPointerException":4802,")\");":4803,"Ops":4804,"ention":4805,"ĠLine":4806,"Ġclosed":4807,"(-":4808,"Ġ[]":4809,"imate":4810,"ĠAd":4811,"description":4812,"urable":4813,"ĠInt":4814,"ĠRef":4815,"Suffix":4816,"OBJECT":4817,"increment":4818,"Ġlines":4819,"NoSuch":4820,"Dat":4821,"Send":4822,"Transition":4823,"viders":4824,"CONTENT":4825,"Ġii":4826,"Ġsubject":4827,"Editor":4828,"ierarch":4829,"uper":4830,"Ġent":4831,"argument":4832,"Labels":4833,"icle":4834,"Begin":4835,"LOCK":4836,"havior":4837,"Codes":4838,"Hint":4839,"apping":4840,"ĠAccess":4841,"},":4842,"isLog":4843,"doubleValue":4844,"ĠGraph":4845,"Bitmap":4846,"usters":4847,"Ġnever":4848,"Direction":4849,"mx":4850,"Lookup":4851,"ByName":4852,"rupted":4853,"UMN":4854,"dap":4855,"Ġlayer":4856,"Arr":4857,"Esc":4858,"Ġfeat":4859,"ANT":4860,"rivileged":4861,"PRI":4862,"fire":4863,"kg":4864,"SEPARATOR":4865,"<?>)":4866,"Ġavoid":4867,"Ġcommon":4868,"Ġrequested":4869,"Ġjs":4870,"DEBUG":4871,"Ġsup":4872,"illi":4873,"UNK":4874,"Ġindent":4875,"Ġdirect":4876,"plex":4877,"WE":4878,"Ġdist":4879,"Ġpolicy":4880,"ELEMENT":4881,"ketch":4882,"Ġsorted":4883,"IdOrPath":4884,"bb":4885,"iol":4886,"Ġyet":4887,"Sort":4888,"core":4889,"2018":4890,"ross":4891,"Ġstill":4892,"extension":4893,"Ġ12":4894,"AUTH":4895,"Ip":4896,"package":4897,"seconds":4898,"ApiException":4899,"Encoder":4900,"DELETE":4901,"poch":4902,"getCause":4903,"tokens":4904,"Ġgeometry":4905,"Ticket":4906,"Deployment":4907,"Handlers":4908,"Coordinate":4909,"safe":4910,"remote":4911,"remaining":4912,"ĠĠĠĠĠĠĠĠĠĠĠĠĠĠĠĠĠĠĠĠĠĠĠĠĠĠĠĠ":4913,"ĠChannel":4914,"vas":4915,"INVALID":4916,"Ġidentifier":4917,"ColumnName":4918,"parser":4919,"Ġneighb":4920,"sume":4921,"TargetException":4922,"socket":4923,"anization":4924,"Principal":4925,"synchronized":4926,"Ġflags":4927,"NumberOf":4928,"Renderer":4929,"responses":4930,"Filename":4931,"self":4932,"Ġfollow":4933,"ĠCall":4934,"OutOf":4935,"Ġprovided":4936,"fw":4937,"Ġdiff":4938,"empl":4939,"Ġcons":4940,"opes":4941,"Ġupper":4942,"results":4943,"ĠHe":4944,"ĠWork":4945,"Accessor":4946,"isPresent":4947,"Ġconverter":4948,"Codec":4949,"Ġchars":4950,"olerance":4951,"()[":4952,"Ġ32":4953,"Av":4954,"getService":4955,"ATUS":4956,"ĠVariable":4957,"Ġleast":4958,"include":4959,"Ġduring":4960,"setText":4961,"Interfaces":4962,"Ġauthentication":4963,"NUM":4964,"Dependencies":4965,"Place":4966,"function":4967,"normal":4968,"Ġcenter":4969,"isValid":4970,"(\"-":4971,"orld":4972,"anonical":4973,"ĠComponent":4974,"HashSet":4975,"zu":4976,"chor":4977,"INDEX":4978,"SSION":4979,"checkNotNull":4980,"Has":4981,"Ġregistry":4982,"readLine":4983,"Ġsuffix":4984,"HEADER":4985,"props":4986,"Ġasync":4987,"BASE":4988,"Ġkeep":4989,"Ring":4990,"Zip":4991,"iration":4992,"ĠOp":4993,"prepare":4994,"!!":4995,"Mo":4996,"So":4997,"Ġwrapper":4998,"Ġplace":4999,"lookup":5000,"getVersion":5001,"Ġmd":5002,"ENER":5003,"Definitions":5004,"Ġsnapshot":5005,"Ġequal":5006,"Ġ\";":5007,"board":5008,"Ġcorrect":5009,"ĠMozu":5010,"lev":5011,"Ġrest":5012,"Ġsecurity":5013,"Ġshared":5014,"ROOT":5015,"SPACE":5016,"Ġdeleted":5017,"OFF":5018,"]));":5019,"cmd":5020,"Ġ?>":5021,"compile":5022,"ĠApplication":5023,"Ġtrigger":5024,"getRoot":5025,"SERVER":5026,"ĠMozuUrl":5027,"SA":5028,"Skip":5029,"au":5030,"bed":5031,"ookies":5032,"Ġcharset":5033,"creen":5034,"Ġresolved":5035,"Off":5036,"Ġdetermine":5037,"Ġtasks":5038,"ParseException":5039,"imeType":5040,"Ġbounds":5041,"inner":5042,"Connections":5043,"Ġprimary":5044,"Ġts":5045,"Ġwould":5046,"ĠIO":5047,"Ġevents":5048,"ajor":5049,"ĠGeometry":5050,"uff":5051,"Ġfill":5052,"ARRAY":5053,"Dispatcher":5054,"Tst":5055,"Modifiers":5056,"ADD":5057,"parts":5058,"Digits":5059,"Ġrelative":5060,"road":5061,"Ġ100":5062,"throwFeat":5063,"transaction":5064,"featOk":5065,"throwFeatMissing":5066,"featOkTst":5067,"Ġconfigure":5068,"frame":5069,"lab":5070,"non":5071,"ingleton":5072,"Ġmask":5073,"getClassLoader":5074,"Ġgroups":5075,"Ġtags":5076,"EV":5077,"ĠHTTP":5078,"dx":5079,"ĠĠĠĠĠĠĠĠĠĠĠĠĠĠĠĠĠĠĠĠĠĠ":5080,"ĠĠĠĠĠĠĠĠĠĠĠĠĠĠĠĠĠĠĠĠĠĠĠĠĠĠĠĠĠĠĠĠĠĠĠĠĠĠĠĠĠĠĠĠĠĠĠ":5081,"Tables":5082,"getPort":5083,"td":5084,"Drawable":5085,"Padding":5086,"dates":5087,"newBuilder":5088,"RES":5089,"Ġactivity":5090,"Managed":5091,"eeded":5092,"Ġdelay":5093,"Ġmonitor":5094,"ociated":5095,"Cap":5096,"iss":5097,"ĠCode":5098,"SSL":5099,"valuation":5100,"Login":5101,"Ġwithout":5102,"Ġretrieve":5103,"undera":5104,"sq":5105,"sign":5106,"Conversion":5107,"Ġstats":5108,"bucket":5109,"Seconds":5110,"fieldName":5111,"olling":5112,"Ġfailure":5113,".\"":5114,"/\"":5115,"ĠĠĠĠĠĠĠĠĠĠĠĠĠĠĠĠĠĠĠĠĠĠĠĠĠĠĠĠĠ":5116,"ĠgetValue":5117,")),":5118,"resol":5119,"Extended":5120,"grade":5121,"Library":5122,"PC":5123,"script":5124,"Ġstri":5125,"Ġdid":5126,"filename":5127,"username":5128,"Ġvalidation":5129,"Relationship":5130,"SyntaxException":5131,"Visibility":5132,"amera":5133,"isLoggable":5134,"dim":5135,"getNum":5136,"Ġflag":5137,"Ġrequire":5138,"Cols":5139,"('.":5140,"ilities":5141,"ĠĠĠĠĠĠĠĠĠĠĠĠĠĠĠĠĠĠĠĠĠĠĠĠĠĠĠĠĠĠĠĠĠĠĠĠ":5142,"Ġ^":5143,"ining":5144,"enant":5145,"getAtom":5146,"avax":5147,"ĠMojo":5148,"book":5149,"Mapp":5150,"Ġsection":5151,"callback":5152,"15":5153,"rot":5154,"second":5155,"Cert":5156,"Trigger":5157,"USE":5158,"Ġsync":5159,"Ġlanguage":5160,"Ġenabled":5161,"Subscri":5162,"Modifier":5163,"Fore":5164,"Ġtick":5165,"getResponse":5166,"()){":5167,"Env":5168,"Ġgr":5169,"cedure":5170,"amb":5171,"extract":5172,"ErrorException":5173,"Accessible":5174,"ĠNote":5175,"Ġpresent":5176,"Ġmatching":5177,"Ġshape":5178,"PARAM":5179,"rypted":5180,"sequence":5181,"ĠHtml":5182,"MODE":5183,"iet":5184,"Actions":5185,"Intent":5186,"ĠCLASS":5187,"ĠĠĠĠĠĠĠĠĠĠĠĠĠĠĠĠĠĠĠĠĠĠĠĠĠĠĠĠĠĠĠĠĠĠ":5188,"Ġcomment":5189,"Ġ(((":5190,"izedType":5191,"Ġcompiler":5192,"Ġfree":5193,"Ġlar":5194,"Ġmaximum":5195,"VAR":5196,"lator":5197,"atew":5198,"Producer":5199,"cumul":5200,"decl":5201,"Ġself":5202,"Notation":5203,"weight":5204,"Ġdifferent":5205,"utation":5206,"Install":5207,"Standard":5208,"Ġmetrics":5209,"Used":5210,"ough":5211,"Ġtimer":5212,"admanager":5213,"ĠĠĠĠĠĠĠĠĠĠĠĠĠĠĠĠĠĠĠĠĠĠĠĠĠĠ":5214,"Ġinformation":5215,"ĠRecord":5216,"Generated":5217,"Ġaccount":5218,"js":5219,"oriz":5220,"orary":5221,"verage":5222,"coord":5223,"ĠUI":5224,"Put":5225,"Widget":5226,"Ġcancel":5227,"Ġlow":5228,"HttpClient":5229,"Ġperiod":5230,"TERNAL":5231,"IST":5232,"day":5233,"uc":5234,"getLong":5235,"Angle":5236,"ĠĠĠĠĠĠĠĠĠĠĠĠĠĠĠĠĠĠĠĠĠĠĠĠĠĠĠĠĠĠĠĠĠĠĠĠĠĠ":5237,"executor":5238,"database":5239,"Ġans":5240,"Ġ/**":5241,"Ġ\".\"":5242,"Observer":5243,"):":5244,"Branch":5245,"elements":5246,"Lab":5247,"PORT":5248,"Ġ\"_":5249,"Charset":5250,"internal":5251,"CA":5252,"Ġstruct":5253,"Gu":5254,"Vert":5255,"Ġcomb":5256,"Ġknow":5257,"JSONObject":5258,"modifiable":5259,"Ġdeclar":5260,"eries":5261,"Ġdimension":5262,"region":5263,"zone":5264,"ural":5265,"ĠnewValue":5266,"Ġyear":5267,"Mappings":5268,"clean":5269,"ĠĠĠĠĠĠĠĠĠĠĠĠĠĠĠĠĠĠĠĠĠĠĠĠĠĠĠĠĠĠ":5270,"sList":5271,"icon":5272,"URN":5273,"Compat":5274,"avigation":5275,"EM":5276,"GIN":5277,"Ġtab":5278,"getH":5279,"Completed":5280,"Preferences":5281,"Border":5282,"ĠDateTime":5283,"ĠSearch":5284,"NaN":5285,"cule":5286,"entr":5287,"Ġignored":5288,"device":5289,"Threshold":5290,"AndGet":5291,"References":5292,"beat":5293,"Ġsample":5294,"();)":5295,"Ġbeing":5296,"MethodException":5297,"Shared":5298,"copyOf":5299,"ison":5300,"edge":5301,"Rest":5302,"ĠTypes":5303,"--)":5304,"NumberFormatException":5305,"Named":5306,"Sample":5307,"utures":5308,"Setting":5309,"Fetch":5310,"PL":5311,"random":5312,"Ġpack":5313,"Ġbinary":5314,"getCanonical":5315,"processor":5316,"WARNING":5317,"Pack":5318,"olym":5319,"Encoded":5320,"authentication":5321,"Safe":5322,"Ġslot":5323,"Ġreason":5324,"topic":5325,"REF":5326,"agnost":5327,"Email":5328,"Pass":5329,"direct":5330,"xj":5331,"ager":5332,"HttpServletRequest":5333,"Whitespace":5334,"CLO":5335,"Criteria":5336,"Ġvector":5337,"Quot":5338,"OrEmpty":5339,"nextElement":5340,"ContentType":5341,"ĠInputStreamReader":5342,"Ġtail":5343,"icip":5344,"ĠDo":5345,"ĠĠĠĠĠĠĠĠĠĠĠĠĠĠĠĠĠĠĠĠĠĠĠĠĠĠĠĠĠĠĠĠĠĠĠĠĠĠĠĠĠ":5346,"hasMoreElements":5347,"cancel":5348,"so":5349,"ĠĠĠĠĠĠĠĠĠĠĠĠĠĠĠĠĠĠ":5350,"Ġchanges":5351,"Ġlogin":5352,"AndSet":5353,"Polygon":5354,"Ġsim":5355,"Ġbranch":5356,"ĠĠĠĠĠĠĠĠĠĠĠĠĠĠĠĠĠĠĠĠĠĠĠĠĠĠĠĠĠĠĠĠĠĠĠĠĠĠĠĠĠĠ":5357,"reater":5358,"ResultSet":5359,"getSub":5360,"MON":5361,"pop":5362,"getJ":5363,"apache":5364,"ĠTuple":5365,"ENABLE":5366,"ĠClassNotFoundException":5367,"Ġvertex":5368,"DA":5369,"dr":5370,"oned":5371,"Ġvariables":5372,"ĠFFDCFilter":5373,"CI":5374,"Ġescape":5375,"Ġmer":5376,"ĠRemove":5377,"acy":5378,"ĠReturn":5379,"oring":5380,"Series":5381,"Ġyou":5382,"mi":5383,"ĠSSL":5384,"ĠDatabase":5385,"come":5386,"ryption":5387,"Ġstarted":5388,"checkArgument":5389,"SERVICE":5390,"propertyName":5391,"ENTITY":5392,"plugin":5393,"ultipart":5394,"Ġnetwork":5395,"Collections":5396,"Main":5397,"]))":5398,"Decoder":5399,"ĠMem":5400,"Ġ'/":5401,"Ġdepth":5402,"Ġseconds":5403,"States":5404,"Runnable":5405,"getLogger":5406,"aped":5407,"ĠCluster":5408,"ĠTag":5409,"Units":5410,"NOWN":5411,"BoundingBox":5412,"ĠRes":5413,"getChildren":5414,"ĠSo":5415,"FFER":5416,"ECK":5417,"Src":5418,"Supported":5419,"_.":5420,"getInputStream":5421,"ĠMulti":5422,"ories":5423,"Stmt":5424,"Proto":5425,"Ġlon":5426,"Ġseparator":5427,"Primary":5428,"Do":5429,"cert":5430,"getSession":5431,"headers":5432,"Scroll":5433,"Ġdigest":5434,"GB":5435,"hel":5436,"getHeader":5437,"persist":5438,"curr":5439,"methodName":5440,"fully":5441,"Infos":5442,"alth":5443,"Ġdriver":5444,"Ġlat":5445,"Ġ'{}":5446,"Ġpaths":5447,"ĠComp":5448,"Processing":5449,"riginal":5450,"Implement":5451,"CU":5452,"kdir":5453,"Ġproduct":5454,"ĠPdf":5455,"Ġenvironment":5456,"protocol":5457,"ĠclassLoader":5458,"mediate":5459,"inputStream":5460,"atio":5461,"Ġinte":5462,"Ġsetup":5463,"aterial":5464,"SCRI":5465,"CREATE":5466,"OutOfBounds":5467,"getTask":5468,"Ġsom":5469,"aos":5470,"counter":5471,"ead":5472,"pret":5473,"arr":5474,"Ġwarn":5475,"Ġbug":5476,"ĠGroup":5477,"ront":5478,"etails":5479,"istribution":5480,"ĠObservable":5481,"br":5482,"cookie":5483,"alan":5484,"Ġforce":5485,"artbeat":5486,"exec":5487,"should":5488,"TEMP":5489,"Started":5490,"Ġmultiple":5491,"Envelope":5492,"ĠCms":5493,"illing":5494,"Addr":5495,"COUN":5496,"IllegalArgumentException":5497,"ĠUnsupportedOperationException":5498,"Normal":5499,"oft":5500,"adow":5501,"Received":5502,"refs":5503,"iddle":5504,"ool":5505,"tas":5506,"STATUS":5507,"paredStatement":5508,"Ġmean":5509,"ridge":5510,"Priority":5511,"dst":5512,"umb":5513,"Immutable":5514,"getAttributes":5515,"herit":5516,"SUB":5517,"initialize":5518,"30":5519,"Ġpacket":5520,"Insn":5521,"iling":5522,"ClassNotFoundException":5523,"Ġ24":5524,"ls":5525,"Ġtuple":5526,"ano":5527,"rift":5528,"SELE":5529,"ĠRemote":5530,"DOM":5531,"ĠMetric":5532,"uted":5533,"abilities":5534,"ĠĠĠĠĠĠĠĠĠĠĠĠĠĠĠĠĠĠĠĠĠĠĠĠĠĠĠĠĠĠĠĠĠĠĠĠĠĠĠĠ":5535,"Price":5536,"VR":5537,"cd":5538,"ech":5539,"getTarget":5540,"Ġbetween":5541,"ĠIt":5542,"Ġrot":5543,"clusive":5544,"alias":5545,"Ġequ":5546,"lots":5547,"(\":":5548,"Ġenum":5549,"Asset":5550,"Same":5551,"getElement":5552,"Ġgot":5553,"AsStream":5554,"ateway":5555,"OutOfBoundsException":5556,"\"+":5557,"UBLE":5558,"Ġpixel":5559,"ĠRandom":5560,"panded":5561,"Lib":5562,"getConfig":5563,"Ġcs":5564,"role":5565,"Ġrect":5566,"Remaining":5567,"eme":5568,"Authorization":5569,"Words":5570,"Hook":5571,"Measure":5572,"ĠMon":5573,"pendent":5574,"Ġprocessing":5575,"JsonObject":5576,"spe":5577,"rence":5578,"EventListener":5579,"Ġmembers":5580,"icator":5581,"Ġselector":5582,"Ġpredicate":5583,"Contain":5584,"Reply":5585,"Ġwrap":5586,"Indexes":5587,"Ġanother":5588,"Threads":5589,"notify":5590,"Ġmight":5591,"quires":5592,"Ġwhat":5593,"Ġunder":5594,"Show":5595,"Exit":5596,"Vars":5597,"ets":5598,"alled":5599,"Ġperm":5600,"otype":5601,"Ġalgorithm":5602,"SocketAddress":5603,"ĠGeneric":5604,"cached":5605,"flags":5606,"Ġicon":5607,"Ġelem":5608,"ĠSource":5609,"Js":5610,"ĠScript":5611,"force":5612,"shake":5613,"Ġassign":5614,"Matches":5615,"merge":5616,"Ġway":5617,"ĠVolt":5618,"Dist":5619,"Flush":5620,"ĠPri":5621,"ĠFa":5622,"Sheet":5623,"VM":5624,"bus":5625,"Ġpt":5626,"Ġauto":5627,"ĠInput":5628,"++){":5629,"ExecutorService":5630,"ĠgetLog":5631,"ĠObjects":5632,"Ġpriority":5633,"UNKNOWN":5634,"COR":5635,"gers":5636,"getBase":5637,"Ġhtml":5638,"files":5639,"COLUMN":5640,"Basic":5641,"alf":5642,"identifier":5643,"Locator":5644,"cursor":5645,"TRUE":5646,"Ġgenerated":5647,"Ġcert":5648,"Ġreturned":5649,"izes":5650,"geometry":5651,"ĠInstance":5652,"coming":5653,"IF":5654,"NA":5655,"UTE":5656,"allow":5657,"Ġreceived":5658,"ĠgetProperty":5659,"endpoint":5660,"Ġruntime":5661,"HexString":5662,"directory":5663,"Ġok":5664,"ĠĠĠĠĠĠĠĠĠĠĠĠĠĠĠĠĠĠĠĠĠĠĠĠĠĠĠĠĠĠĠĠĠ":5665,"Compiler":5666,"000000":5667,"Else":5668,"ĠRectangle":5669,"SV":5670,"adoop":5671,"Annot":5672,"Digit":5673,"Virtual":5674,"ka":5675,"Ġ\":\"":5676,"ught":5677,"Connector":5678,"Ġmedia":5679,"ĠAPI":5680,"strument":5681,"cursive":5682,"arl":5683,"apsed":5684,"Completion":5685,"failed":5686,"METHOD":5687,"getSuper":5688,"calar":5689,"Cause":5690,"desc":5691,"ke":5692,"ename":5693,"enable":5694,"chunk":5695,"CharArray":5696,"Permissions":5697,"ambda":5698,"*/":5699,"ingClass":5700,"Ġpersist":5701,"Ġgu":5702,"Supplier":5703,"VO":5704,"Ġcatalog":5705,"Instruction":5706,"ongo":5707,"ĠAct":5708,"Ġ'.":5709,"condition":5710,"ĠcontentType":5711,"GROUP":5712,"emplates":5713,"Candidate":5714,"pending":5715,"MASK":5716,"ĠHttpServletRequest":5717,"Ġcomponents":5718,"PATTERN":5719,"ĠTrace":5720,"ism":5721,"ĠFI":5722,"Ġadditional":5723,"True":5724,"Ġretval":5725,"Absent":5726,"ĠParser":5727,"Created":5728,"jb":5729,"ĠĉĠ":5730,"anos":5731,"ĠClose":5732,"ĠNOT":5733,"ĠIllegalAccessException":5734,"items":5735,"LICATION":5736,"'\",":5737,"Person":5738,"erved":5739,"Ġevery":5740,"irectories":5741,"getPri":5742,"Ġscore":5743,"Matching":5744,"Ġrefresh":5745,"Equals":5746,"Center":5747,"sleep":5748,"ĠCoordinate":5749,"Ġnotification":5750,"Relative":5751,"Aware":5752,"cu":5753,"holder":5754,"plied":5755,"servlet":5756,"Shutdown":5757,"ĠLinkedHashMap":5758,"eserialize":5759,"getState":5760,"aming":5761,"Ġbutton":5762,"ĠĠĠĠĠĠĠĠĠĠĠĠĠĠĠĠĊ":5763,"subscri":5764,"Ġĉĉĉĉĉĉĉĉ":5765,"Disk":5766,"fe":5767,"peek":5768,"Ġseq":5769,"RENT":5770,"man":5771,"Ġclasspath":5772,"ĠPrintWriter":5773,"install":5774,"Ġ*=":5775,"ĠRuntime":5776,"Indices":5777,"ĠĠĠĠĠĠĠĠĠĠĠĠĠĠĠĠĠĠĠĠĠĠĠĠĠ":5778,"ErrorCode":5779,"ĠBigInteger":5780,"ĠMojoExecutionException":5781,"KEN":5782,"ceed":5783,"Unexpected":5784,"QualifiedName":5785,"Loop":5786,"Mgr":5787,"roov":5788,"Ġmo":5789,"Ġlike":5790,"Ġexit":5791,"olders":5792,"NONE":5793,"Free":5794,"Site":5795,"center":5796,"tile":5797,"getProperties":5798,"collection":5799,"Connected":5800,"AB":5801,"batch":5802,"ensure":5803,"ĠĉĠĠĠĠĠĠĠ":5804,"Ġconfigured":5805,"Ġcredentials":5806,"Ġsig":5807,"ibling":5808,"Throw":5809,"Workspace":5810,"ĠnumberOf":5811,"scan":5812,"Margin":5813,"Old":5814,"TURN":5815,"light":5816,"eresource":5817,"Ġarch":5818,"Ġ\"'\");":5819,"Extractor":5820,"Ġmeans":5821,"cest":5822,"Ġcb":5823,"FileSystem":5824,"ANGE":5825,"Deleted":5826,"DT":5827,"racket":5828,"Ġwere":5829,"expr":5830,"Cms":5831,"Push":5832,"aa":5833,"Ġ$":5834,"invalid":5835,"Ġmar":5836,"Stamp":5837,"Revision":5838,"Ġcontents":5839,"ierarchy":5840,"poll":5841,"Ġthese":5842,"ĠSE":5843,"MethodName":5844,"Without":5845,"ĠTransformer":5846,"Book":5847,"DING":5848,"Operand":5849,"sm":5850,"real":5851,"lems":5852,"Ġct":5853,"Filters":5854,"Ġaggreg":5855,"Management":5856,"roovy":5857,"ILED":5858,"Ġ).":5859,"isBlank":5860,"Ġboth":5861,"ĠCON":5862,"ĠInvocation":5863,"Ġcontroller":5864,"ĠImmutableList":5865,"Pdf":5866,"opup":5867,"Added":5868,"ĠWh":5869,"Ġscreen":5870,"EVENT":5871,"ng":5872,"Ġfix":5873,"Ġincrement":5874,"Ġunset":5875,"ĠFormat":5876,"(()":5877,"Needed":5878,"tn":5879,"ĠMan":5880,"ĠFuture":5881,"owner":5882,"Inputs":5883,"ĠStandard":5884,"Runner":5885,"Ġimplementation":5886,"Ġsimple":5887,"quare":5888,"Ġcommerce":5889,"Ġneeds":5890,"Registered":5891,"ernel":5892,"Ġfeatures":5893,"LONG":5894,"Ġthrowable":5895,"Ġcharacters":5896,"Ġtransport":5897,"Ġ#":5898,"Ġbig":5899,"ivalen":5900,">>()":5901,"GroupName":5902,"formatUrl":5903,"Operations":5904,"PROP":5905,"Ġfragment":5906,"Sets":5907,"Ġanal":5908,"BACK":5909,"font":5910,"mkdir":5911,"security":5912,"Ġ\"<":5913,"Ġdetect":5914,"ĠFast":5915,"cade":5916,"Ġotherwise":5917,"ideo":5918,"success":5919,"roadcast":5920,"settings":5921,"parison":5922,"Delta":5923,"ww":5924,"ĠĠĠĠĠĠĠĠčĊ":5925,"Ġsheet":5926,"ermark":5927,"HttpRequest":5928,"Checkpoint":5929,"Decor":5930,"Analysis":5931,"entries":5932,"getApplication":5933,"Ġdes":5934,"Ġdump":5935,"Buffers":5936,"Ġshift":5937,"nodes":5938,"ĠPredicate":5939,"TreeNode":5940,"ECTION":5941,"Ġrules":5942,"Cycle":5943,"XY":5944,"Reg":5945,"Ġinstall":5946,"Ġreading":5947,"Ġagent":5948,"Ġserialize":5949,"Ġtrim":5950,"100":5951,"Cover":5952,"Private":5953,"atermark":5954,"getSize":5955,"Actual":5956,"SHA":5957,"Ġinstead":5958,"Merge":5959,"etector":5960,"icode":5961,"ading":5962,"ĠgetInstance":5963,"irror":5964,"Ġrc":5965,"ĠFind":5966,"Ġsubscri":5967,"Ġcaller":5968,"Authentic":5969,"Clazz":5970,"requency":5971,">());":5972,"HA":5973,"_(":5974,"gl":5975,"rames":5976,"Ġpred":5977,"vide":5978,"ĠAN":5979,"Entities":5980,"listeners":5981,"currency":5982,"Records":5983,"defined":5984,"window":5985,"dec":5986,"term":5987,"ether":5988,"cogn":5989,"Ġupload":5990,"posed":5991,"Ġmonth":5992,"FACT":5993,"layout":5994,"entation":5995,"peat":5996,"riterion":5997,"Ġobtain":5998,"GR":5999,"Ġeither":6000,"actual":6001,"Ġcollect":6002,"Leaf":6003,"emptyList":6004,"--------------------------------":6005,"Ġ[{}]\",":6006,"multi":6007,"interval":6008,"IfAbsent":6009,"Ġspecial":6010,"Ġbitmap":6011,"ResourceBundle":6012,"selected":6013,"setString":6014,"Ġdeployment":6015,"ENCE":6016,"ĠstartTime":6017,"Ġabout":6018,"Paint":6019,"gb":6020,"ĠValidation":6021,"ssu":6022,"activity":6023,"Ġplan":6024,"ĠUse":6025,"Drop":6026,"Publish":6027,"SCH":6028,"XA":6029,"Zero":6030,"delet":6031,"Executable":6032,"ialect":6033,"Ġadjust":6034,"Finder":6035,"FR":6036,"High":6037,"PR":6038,"ior":6039,"assed":6040,"Ġbb":6041,"Ġstrings":6042,"before":6043,"getItem":6044,"LAG":6045,"Ġsegments":6046,"HTML":6047,"Cached":6048,"getL":6049,"Ġvert":6050,"progress":6051,"Ġattrs":6052,"rong":6053,"ather":6054,"Ġroute":6055,"Ġworker":6056,"CCESS":6057,"free":6058,"Ġnamed":6059,"INTERNAL":6060,"ĠFiles":6061,"parable":6062,"Writable":6063,"Days":6064,"JAXB":6065,"tab":6066,"ĠgetString":6067,"ĠDelet":6068,"Ġgenerator":6069,"Ġmodified":6070,"Ġoverride":6071,"Ġannotations":6072,"uxio":6073,"allocate":6074,"Ġfont":6075,"Release":6076,"ĠgetDefault":6077,"rono":6078,"<?>[]":6079,"parsed":6080,"ffective":6081,"DF":6082,"concat":6083,"Ġenable":6084,"ignore":6085,"ĠCharSequence":6086,"ĠLevel":6087,"SCO":6088,"WITH":6089,"ose":6090,"getBoolean":6091,"Ġspan":6092,"Ġhex":6093,"protected":6094,"Graphics":6095,"got":6096,"timestamp":6097,"ategories":6098,"Ġadapter":6099,"256":6100,"ĠGitLab":6101,"Pa":6102,"provider":6103,"SEVER":6104,"Ġfactor":6105,"EW":6106,"Pending":6107,"atype":6108,"ĠLabel":6109,"ĠCommon":6110,"orizont":6111,"dist":6112,"}\",":6113,"inate":6114,"Trust":6115,"ring":6116,"way":6117,"Ġ9":6118,"Ġ})":6119,"BUFFER":6120,"Bindings":6121,"CW":6122,"OW":6123,"bits":6124,"anode":6125,"unnel":6126,">>();":6127,"TS":6128,"Ġmaster":6129,"unmodifiable":6130,"ething":6131,"ocus":6132,"Ġclone":6133,"icker":6134,"Gray":6135,"LATE":6136,"Persistence":6137,"ĠValidate":6138,"setType":6139,"ĠNULL":6140,"Edges":6141,"Reporter":6142,"ĠAtomic":6143,"It":6144,"pi":6145,"||":6146,"()]);":6147,"ĠBy":6148,"ĠĠĠĠĠĠĠĠĠĠĠĠĠĠĠĠĠĠĠĠĠĠĠĠĠĠĠĠĠĠĠĠĠĠĠĠĠĠĠĠĠĠĠĠĠĠ":6149,"Neighb":6150,"AVA":6151,"MM":6152,"lib":6153,"Include":6154,"monitor":6155,"columns":6156,"FOUND":6157,"ociation":6158,"Using":6159,"Ġsafe":6160,"Injection":6161,"lict":6162,"ROM":6163,"interface":6164,"writ":6165,"orElse":6166,"Ġcoord":6167,"sec":6168,"Ġdataset":6169,"EventType":6170,"DED":6171,"paint":6172,"Ġroll":6173,"Clean":6174,"Cast":6175,"Ġcriteria":6176,"ĠĠĠĠĠĠĠĠĠĠĠĠĠĠĠĠĠĠĠĠĠĠĠĠĠĠĠĠĠĠĠĠĠĠĠĠĠĠĠĠĠĠĠĠĠ":6177,"ĠBufferedImage":6178,"hashCode":6179,"Done":6180,"Ġ\\":6181,"encoding":6182,"Ġfolder":6183,"Ġsolution":6184,"Ġbottom":6185,"Reason":6186,"Activ":6187,"Sorted":6188,"Scheme":6189,"olecule":6190,"layer":6191,"schedule":6192,"watch":6193,"Ġreg":6194,"ĠSocket":6195,"ResourceException":6196,"submit":6197,"Ġorigin":6198,"ypedArray":6199,"grid":6200,"otion":6201,"Ġselection":6202,"Contents":6203,"Resolution":6204,"getDocument":6205,"ildcard":6206,"existing":6207,"ĠBundle":6208,"RESOURCE":6209,"Fac":6210,"sqrt":6211,"bs":6212,"Ġannot":6213,"Ġstage":6214,"import":6215,"Ġcompleted":6216,"Unsigned":6217,"Ġreplacement":6218,"Creator":6219,"Break":6220,"getLog":6221,"getClient":6222,"Ġ!(":6223,"ĠTry":6224,"Ġseed":6225,"Ġanim":6226,"ĠConst":6227,"Ready":6228,"versal":6229,"OC":6230,"Ġregex":6231,"ĠJs":6232,"singleton":6233,"duce":6234,"FAIL":6235,"04":6236,"14":6237,"33":6238,"las":6239,"mask":6240,"ench":6241,"Ġpan":6242,"Export":6243,"setRequest":6244,"TOKEN":6245,"ĠfilePath":6246,"account":6247,"ĠControl":6248,"isNullOrEmpty":6249,"ĠUN":6250,"getRef":6251,"ols":6252,"Ġdrop":6253,"ĠWrite":6254,"Ġshard":6255,"Ġexternal":6256,"Ġless":6257,"CLI":6258,"ĠAt":6259,"ĠExecution":6260,"Ġbus":6261,"Exceptions":6262,"Ġws":6263,"SED":6264,"crease":6265,"atic":6266,");}":6267,"storage":6268,"Exchange":6269,"ĠgetM":6270,"ĠAll":6271,"Shard":6272,"after":6273,"Linked":6274,"FailedException":6275,"Amount":6276,"Privileged":6277,"required":6278,"Ġms":6279,"ĠFirst":6280,"comment":6281,"Ġonce":6282,"Ġalpha":6283,"azon":6284,"Ġbased":6285,"Elem":6286,"Home":6287,"MAN":6288,"ks":6289,"Ġdot":6290,"Quiet":6291,"Org":6292,"Locked":6293,"requireNonNull":6294,"Origin":6295,"ĠQueue":6296,"Regex":6297,"Ġemail":6298,"Ġnegative":6299,"Ġtransformer":6300,"MSG":6301,"ĠRepositoryException":6302,"Cancel":6303,"ĠStart":6304,"ively":6305,"Ġknown":6306,"Defaults":6307,"Dictionary":6308,"ĠOrder":6309,"Sur":6310,"Ġzone":6311,"bond":6312,"ĠUrl":6313,"Ġpublish":6314,"ĠStringWriter":6315,"Configs":6316,"Checksum":6317,"ĠRelation":6318,"ENABLED":6319,"inger":6320,"ential":6321,"Ġest":6322,"Classpath":6323,"lide":6324,"ĠcolumnName":6325,"ĠINDArray":6326,"22":6327,"Conn":6328,"ĠSc":6329,"plan":6330,"cores":6331,"Ġupdateresource":6332,"getPackage":6333,"('\\":6334,"statement":6335,"ĠEnumeration":6336,"Ġtolerance":6337,"izing":6338,"ĠNow":6339,"ĠDBConstants":6340,"olymer":6341,"getID":6342,"ĠResultSet":6343,"SELECT":6344,"rep":6345,"Ġlet":6346,"ircle":6347,"Ġserializer":6348,"Mult":6349,"mise":6350,"vals":6351,"getG":6352,"getGroup":6353,"Ġprincipal":6354,"(\"\\\"":6355,"ĠMake":6356,"DIR":6357,"ĠJSONArray":6358,"stitution":6359,"88":6360,"MX":6361,"ĠStringTokenizer":6362,"toCharArray":6363,"Than":6364,"ORM":6365,"Ġcoll":6366,"CHECK":6367,"SIG":6368,"Ġwaiting":6369,"Credential":6370,"Dim":6371,"Evaluator":6372,"Ġ(;":6373,"())));":6374,"TimeZone":6375,"Specification":6376,"COUNT":6377,"chain":6378,"Ġ\"%":6379,"Ġdue":6380,"Ġoperator":6381,"Topology":6382,"Changes":6383,"ĠRule":6384,"display":6385,"ooter":6386,"rees":6387,"ĠCertificate":6388,"Ġloaded":6389,"Ġexchange":6390,"ĠPar":6391,"classes":6392,"Ġwhether":6393,"Ġinterceptor":6394,"tableName":6395,"MatrixRM":6396,"MatrixRMaj":6397,"50":6398,"Side":6399,"duration":6400,"vFailed":6401,"Ġnested":6402,"Ġfinish":6403,"Conversation":6404,"Ġown":6405,"plits":6406,"FAILED":6407,"(){":6408,"Ġpopulate":6409,"adient":6410,"agent":6411,"Ġthrown":6412,"stantiate":6413,"stantiationException":6414,"agnostic":6415,"gate":6416,"ĠisValid":6417,"achine":6418,"Ġradius":6419,"login":6420,"ĠGrid":6421,"resolved":6422,"getRow":6423,"Ġexpect":6424,"Ġwithin":6425,"Ġnecessary":6426,"yzer":6427,"utom":6428,"Ġsym":6429,"ĠIAtom":6430,"Ġprocessed":6431,"Ġgen":6432,"Ġassignment":6433,"Replic":6434,"AlgorithmException":6435,"HER":6436,"lee":6437,"Ġrestore":6438,"Dirs":6439,"Alive":6440,"getFirstChild":6441,"Ġfollowing":6442,"payload":6443,"Ġsite":6444,"Ġmanaged":6445,"ĠPersistence":6446,"posal":6447,"lower":6448,"APPLICATION":6449,"orizontal":6450,"KER":6451,"sect":6452,"rase":6453,")){":6454,"ClassInfo":6455,"ayment":6456,"ĠFeature":6457,"Based":6458,"DU":6459,"getTable":6460,"ables":6461,"Removed":6462,"ĠMatrix":6463,"ordinal":6464,"ĠOAuth":6465,"ServiceResponse":6466,"ĠThere":6467,"Ġsubmit":6468,"ĠByteArrayInputStream":6469,"ĠModule":6470,"Quietly":6471,"Rout":6472,"LOAD":6473,"ChangeListener":6474,"cipient":6475,"private":6476,"Exist":6477,"////":6478,"POSI":6479,"ĠProxy":6480,"Ġmp":6481,"Ġexport":6482,"ĠDOM":6483,"Ġatt":6484,"ĠstartIndex":6485,"LayoutParams":6486,"Appender":6487,"Ranges":6488,"ZER":6489,"Ġpe":6490,"ĠgetType":6491,"ĠMedia":6492,"Ġinstances":6493,"resentation":6494,"descriptor":6495,"Radius":6496,"Variant":6497,"binary":6498,"ĠĠĊ":6499,"Ġcapacity":6500,"Ġmc":6501,"common":6502,"Ġminimum":6503,"ĠBitmap":6504,"icipant":6505,"Ġmerged":6506,"Inst":6507,"Ġrespon":6508,"aving":6509,"Scanner":6510,"Ġspecific":6511,"Feed":6512,"iner":6513,"enari":6514,"()+\"":6515,"Concept":6516,"Previous":6517,"flat":6518,"Ġquot":6519,"Redirect":6520,"Card":6521,"Program":6522,"...\");":6523,"ensity":6524,"best":6525,"span":6526,"Ġpaint":6527,"ower":6528,"ayers":6529,"product":6530,"tinu":6531,"Ġblocks":6532,"ĠParseException":6533,"ĠTRACE":6534,"SEVERE":6535,"EE":6536,"removeAll":6537,"60":6538,"BB":6539,"edis":6540,"Low":6541,"ĠDuration":6542,"ĠOther":6543,"activ":6544,"Ġgeneric":6545,"Ġindic":6546,"Attrs":6547,"Ġnormalize":6548,"Ġ[{}]":6549,"='":6550,"Ġbr":6551,"shape":6552,"CharSequence":6553,"Ġĉĉĉĉĉĉĉĉĉĉ":6554,"etSocketAddress":6555,"Ġcipher":6556,"ĠMP":6557,"CEPTION":6558,"CONTEXT":6559,"Ġscanner":6560,"Ġfilters":6561,"Ġdeclared":6562,"ĠAuthentication":6563,"Grant":6564,"Sig":6565,"cision":6566,"sole":6567,"isIn":6568,"loaded":6569,"ĠPer":6570,"Ġseen":6571,"getSystem":6572,"Descriptors":6573,"ĠSAXException":6574,"Move":6575,"WRI":6576,"Ġcast":6577,"Ġlabels":6578,"ORE":6579,"dn":6580,"fp":6581,"symbol":6582,"FieldType":6583,"ĠVer":6584,"ClientException":6585,"URLException":6586,"ĠHttpServletResponse":6587,"Note":6588,"Getter":6589,"Ġexpand":6590,"EAR":6591,"MAR":6592,"[(":6593,"alk":6594,"Ġeven":6595,"Ġring":6596,"rammar":6597,"Ġdownload":6598,"Viol":6599,"getResult":6600,"Ġ\\\"\"":6601,"AST":6602,"Des":6603,"Ġesc":6604,"repository":6605,"icro":6606,"Encode":6607,"Ġhow":6608,"DataSet":6609,"Ġcomparator":6610,"DIRE":6611,"ysical":6612,"BYTES":6613,"network":6614,"(\"_":6615,"Ġtopology":6616,"Ġsetting":6617,"REG":6618,"ferences":6619,"Ġunknown":6620,"Written":6621,"lex":6622,"ampa":6623,"Ġforward":6624,"ĠCH":6625,"getClassName":6626,"Warning":6627,"MILLISECONDS":6628,"ampaign":6629,"ĠStore":6630,"inite":6631,"getQuery":6632,"Where":6633,"mapping":6634,"RESS":6635,"lb":6636,"xid":6637,"inator":6638,"getA":6639,"Delegate":6640,"Formatted":6641,"IllegalAccessException":6642,"OFFSET":6643,"ĠDelete":6644,"Into":6645,"Consum":6646,"lyph":6647,"Patterns":6648,"MenuItem":6649,"ĠUTF":6650,"Ġbuff":6651,"ĠLists":6652,"ĠOpen":6653,"where":6654,"ĠCharset":6655,"acesContext":6656,"alformedURLException":6657,"Annotated":6658,"({":6659,"Perm":6660,"ceeded":6661,"closed":6662,"Ġdelimiter":6663,"Ġgeom":6664,"CUR":6665,"Pure":6666,"any":6667,"Inv":6668,"ilation":6669,"Ġdat":6670,"Ġdiv":6671,"ĠManaged":6672,"ĠInitial":6673,"pring":6674,"Atoms":6675,"RT":6676,"vpn":6677,"Ġtake":6678,"getLocation":6679,"Ġlib":6680,"Ġindices":6681,"Ġ\")\");":6682,"Ġcleanup":6683,"ĠpackageName":6684,"Ġcfg":6685,"mkdirs":6686,"GENER":6687,"nd":6688,"tail":6689,"ony":6690,"LOAT":6691,"Ġswap":6692,"DN":6693,"Watch":6694,"elem":6695,"Ġcr":6696,"StringBuffer":6697,"Ġscheme":6698,"ValuePair":6699,"ĠRow":6700,"codes":6701,"ĠattributeName":6702,"Resolved":6703,"Ġ60":6704,"17":6705,"language":6706,"messages":6707,"Ġgetter":6708,"uses":6709,"Composite":6710,"aker":6711,">>>":6712,"Urls":6713,"Alignment":6714,"Ġexceptions":6715,"Many":6716,"wd":6717,"Ġpc":6718,"emon":6719,"Ġindexes":6720,"ĠlocalVar":6721,"Convert":6722,"irm":6723,"Ġthreads":6724,"getRaw":6725,"Bag":6726,"Keeper":6727,"bulk":6728,"Ġco":6729,"Ġlater":6730,"apture":6731,"Hosts":6732,"lipse":6733,"Ġissue":6734,"Ġcategory":6735,"Req":6736,"ĠHas":6737,"Ġresolver":6738,"iness":6739,"Ġmv":6740,"Ġder":6741,"ĠInetAddress":6742,"ĠNetwork":6743,"Charsets":6744,"parseLong":6745,"Links":6746,"Working":6747,"Ġmapped":6748,"Dynamic":6749,"GHT":6750,"Save":6751,"step":6752,"Ġisn":6753,"ĠConstructor":6754,"button":6755,"sun":6756,"}\");":6757,"()-":6758,"ĠDat":6759,"Refresh":6760,"TIMEOUT":6761,"ĠHandler":6762,"Dot":6763,"FLAG":6764,"ĠStatement":6765,"getConfiguration":6766,"ĠgetResource":6767,"Ġexample":6768,"ĠEd":6769,"TagName":6770,"Modification":6771,"Updated":6772,"MATCH":6773,"fficient":6774,"Finish":6775,"pus":6776,"ĠĠĠĠĠĠĠĠĉ":6777,"Ġmost":6778,"then":6779,"Ġaxis":6780,"ĠTemplate":6781,"htable":6782,"Ġprimitive":6783,"Indent":6784,"isNotBlank":6785,"getSuperclass":6786,"SCHE":6787,"ĠPart":6788,"Ġrhs":6789,"ĠĠĠĠĠĠĠĠĠĠĠĠĠĠĠĠĠĠĠĠĠĠĠĠĠĠĠĠĠĠĠĠĠĠĠĠĠĠĠĠĠĠĠĠĠĠĠĠĠĠĠ":6790,"ĠRange":6791,"cycle":6792,"QUAL":6793,"13":6794,"ĠgetCurrent":6795,"vertex":6796,"ĠReference":6797,"chars":6798,"Percent":6799,"Portlet":6800,"UST":6801,"tros":6802,"Ġcandidates":6803,"Ġsubscription":6804,"Projection":6805,"OPTION":6806,"Currency":6807,"Other":6808,"Original":6809,"RC":6810,"Ġstarting":6811,"Apply":6812,"getIdentifier":6813,"Manifest":6814,"Roles":6815,"Ġmanifest":6816,"gt":6817,"high":6818,"Ġdirection":6819,"Formula":6820,"subject":6821,"awr":6822,"tachments":6823,"ĠOnly":6824,"digest":6825,"Ġpolygon":6826,"ĠoutputStream":6827,"groups":6828,"################":6829,"atis":6830,"identity":6831,"Ġhistory":6832,"STEM":6833,"Help":6834,"ĠHttpResponse":6835,"interrupt":6836,"getResourceAsStream":6837,"ĠModelNode":6838,"Bottom":6839,"Now":6840,"]\");":6841,"Providers":6842,"geom":6843,"crimin":6844,"ĠĠĠĠĠĠĠĠĠĠĠĠĠĠĠĠĠĠĠĠĠĠĠĠĠĠĠĠĠĠĠĠĠĠĠĠĠĠĠĠĠĠĠĠ":6845,"TIES":6846,"EXCEPTION":6847,"ĠShort":6848,"SECOND":6849,"dc":6850,"jax":6851,"only":6852,"getDouble":6853,"Ġthreshold":6854,"Ġschedule":6855,"Ġoptional":6856,"ixin":6857,"ariants":6858,"Behavior":6859,"priority":6860,"Ġparsing":6861,"Ġwords":6862,"delta":6863,"WT":6864,"fix":6865,"depth":6866,"Ġembedded":6867,"lert":6868,"Expressions":6869,"Backup":6870,"ĠSimpleDateFormat":6871,"Ġsmall":6872,"Ġsomething":6873,"ĠLock":6874,"elf":6875,"ĠgetName":6876,"ĠEMPTY":6877,"encoded":6878,"getAs":6879,"andra":6880,"Chart":6881,"ĠMIN":6882,"ALSE":6883,"Forward":6884,"controller":6885,"UnsupportedEncodingException":6886,"TRANS":6887,"Ack":6888,"CC":6889,"Journal":6890,"Ġbad":6891,"Ġ\"[":6892,"ĠGu":6893,"writeLock":6894,"Ġkind":6895,"Partitions":6896,"Ġzoom":6897,"ĠTreeMap":6898,"setId":6899,"LEAN":6900,"Ġround":6901,"Author":6902,"NUMBER":6903,"Ġinteger":6904,"Broker":6905,"Dto":6906,"Tail":6907,"pm":6908,"Ġperson":6909,"Execute":6910,"assandra":6911,"ĠtoString":6912,"Ġdependencies":6913,"Setter":6914,"DOUBLE":6915,"istributed":6916,"Div":6917,"ITE":6918,"Roll":6919,"Invoke":6920,"ĠCur":6921,"etermin":6922,"ango":6923,"19":6924,";\");":6925,"trig":6926,"Ġreply":6927,"ĠMatch":6928,"longValue":6929,"Ġreferences":6930,"Download":6931,"WORD":6932,"Bad":6933,"Cmd":6934,"EP":6935,"semb":6936,"inality":6937,"ĠOption":6938,"Transfer":6939,"ĠConstraint":6940,"HttpResponse":6941,"locator":6942,"Ġfiltered":6943,"otope":6944,"capacity":6945,"getI":6946,"ilt":6947,"(\"\");":6948,"ĠCO":6949,"Ġportlet":6950,"BIN":6951,"WID":6952,"ae":6953,"getCount":6954,"setAccessible":6955,"Views":6956,"Ġprocessor":6957,"cestor":6958,"SAX":6959,"div":6960,"Ġps":6961,"isEvent":6962,"Ġinvocation":6963,"setStatus":6964,"consumer":6965,"listFiles":6966,"Offsets":6967,"ĠUUID":6968,"finder":6969,"Ġinitialized":6970,"isTraceOn":6971,"atisf":6972,"dns":6973,"nn":6974,"ores":6975,"getNamespace":6976,"(\"&":6977,"setMax":6978,"ĠCell":6979,"equal":6980,"Beans":6981,"ĠComparator":6982,"QUER":6983,"Qualifier":6984,"Ġ\"]\");":6985,"Ġanswer":6986,"MONTH":6987,"Finished":6988,"vc":6989,"Ġsl":6990,"Ġvariant":6991,"Lists":6992,"osition":6993,"ĠAg":6994,"ĠĠĠĠĠĠĠĠĠĠĠĠĠĠĠĠĠĠĠĠĠĠĠĠĠĠĠĠĠĠĠĠĠĠĠĠĠĠĠĠĠĠĠĠĠĠĠĠĠĠĠĠĠĠĠĠĠĠĠ":6995,"MB":6996,"aiter":6997,"stmt":6998,"Ġmid":6999,"agram":7000,"endor":7001,"ĠMBean":7002,"Ġdispatch":7003,"cular":7004,"Ġvisible":7005,"CONNECTION":7006,"Ġdy":7007,"Ġinv":7008,"ĠgetNext":7009,"verity":7010,"moving":7011,"AMETER":7012,"UMENT":7013,"HOST":7014,"Fast":7015,"enabled":7016,"Ġreverse":7017,"ooled":7018,"[],":7019,"Ġgreater":7020,"Ġmany":7021,"getParameterTypes":7022,"Dif":7023,"mm":7024,"iry":7025,"Sources":7026,"methodBuilder":7027,"Ġmatched":7028,"SPON":7029,"Nanos":7030,"XX":7031,"ilar":7032,"RETURN":7033,"Ġident":7034,"Defined":7035,"Platform":7036,"MSException":7037,"Ġconnected":7038,"totype":7039,"Ġte":7040,"ĠSorted":7041,"Ġconstruct":7042,"OrCreate":7043,"calen":7044,"Ġ{},":7045,"Discovery":7046,"DOC":7047,"BigInteger":7048,"ssuer":7049,"Epoch":7050,"MF":7051,"tm":7052,"Ġbasic":7053,"Ġ')":7054,"acam":7055,"checkState":7056,"LOCAL":7057,"enario":7058,"calendar":7059,"Cipher":7060,"ves":7061,"atible":7062,"Ġfn":7063,"FIL":7064,"Ġexplicit":7065,"Indicator":7066,"56":7067,"Ġevaluate":7068,"Ġrequires":7069,"Ġdx":7070,"igr":7071,"Deploy":7072,"resence":7073,"Callable":7074,"olyline":7075,"correct":7076,"unique":7077,"Ġintent":7078,"ĠIntent":7079,"Ġsec":7080,"Checker":7081,"IAtom":7082,"Ġholder":7083,"toHexString":7084,"newArrayList":7085,"ĠLink":7086,"ĠcheckArgument":7087,"ĠSegment":7088,"ĠPlugin":7089,"xx":7090,"Const":7091,"ĠSp":7092,"located":7093,"await":7094,"Ġusage":7095,"NEW":7096,"'ll":7097,"Ġpur":7098,"Ġpid":7099,"Ġpadding":7100,"retty":7101,"Ġbootstrap":7102,"Existing":7103,"Ġlibrary":7104,"ĠAs":7105,"Ġrecords":7106,"Ġstored":7107,"Lon":7108,"Zoom":7109,"javax":7110,"site":7111,"Ġcc":7112,"imize":7113,"Delimiter":7114,"TOP":7115,"QUERY":7116,"Ġangle":7117,"etc":7118,"illed":7119,"period":7120,"Ġexact":7121,"ĠentityType":7122,"ĠMetadata":7123,"Browser":7124,"getV":7125,"ĠTerm":7126,"\")));":7127,"Ġeditor":7128,"tags":7129,"striction":7130,"Der":7131,"Me":7132,"ĠBuilder":7133,"ĠĠĠĠĉĉ":7134,"getPoint":7135,"Ġcn":7136,"Ġ\"(":7137,"Ġmenu":7138,"ĠRender":7139,"ĠCondition":7140,"ReadOnly":7141,"UPDATE":7142,"Ġmaybe":7143,"nowled":7144,"SUCCESS":7145,"Pt":7146,"inated":7147,"ĠSw":7148,"ĠDon":7149,"Ġsetter":7150,"forcer":7151,"Ġchecksum":7152,"ariance":7153,"nextInt":7154,"covered":7155,"getResources":7156,"Users":7157,"serialize":7158,"evaluate":7159,"lines":7160,"Ġio":7161,"ĠFlow":7162,"ĠWriter":7163,"POINT":7164,"FINDER":7165,"SPONSE":7166,"IAtomContainer":7167,"Sm":7168,"ĠAnd":7169,"getServer":7170,"Ġpm":7171,"seq":7172,"isArray":7173,"imed":7174,"('/":7175,"Monomer":7176,"ĠMeta":7177,">\"":7178,"PUB":7179,"Sl":7180,"WR":7181,"})":7182,"ĠStack":7183,"ĠConstant":7184,"ident":7185,"ĠCounter":7186,"ĠIgnore":7187,"Ġdelegate":7188,"Streams":7189,"ORDER":7190,"Ġprevent":7191,"Ġsuch":7192,"Loading":7193,"Ġproblem":7194,"Samples":7195,"lp":7196,"agic":7197,"ORI":7198,"DELI":7199,"ĠendIndex":7200,"Already":7201,"Play":7202,"Ġoverl":7203,"numberOf":7204,"isTraceEnabled":7205,"Ġpanel":7206,"Cloud":7207,"Known":7208,"Ġtimes":7209,"getCode":7210,"getProject":7211,"Ġpkg":7212,"Ġ\"\",":7213,"ands":7214,"Ord":7215,"acro":7216,"Ġmarker":7217,"waitFor":7218,"Ġinterfaces":7219,"Dump":7220,"Multiple":7221,"atest":7222,"loop":7223,"shal":7224,"Ġactually":7225,"sistency":7226,"ness":7227,"pow":7228,"ones":7229,"Ġdetails":7230,"oose":7231,"filePath":7232,"Username":7233,"policylabel":7234,"VIEW":7235,"compareAndSet":7236,"Ġcreating":7237,"going":7238,"JC":7239,"Mirror":7240,"year":7241,"Contact":7242,"Ġaudit":7243,"email":7244,"ĠTop":7245,"mbedd":7246,"Drawer":7247,"trigger":7248,"BAD":7249,"Coordinates":7250,"Scheduler":7251,"Ġfinished":7252,"Ġtheir":7253,"ĠCopy":7254,"lier":7255,"ĠuserId":7256,"MPP":7257,"Ġentities":7258,"illiseconds":7259,"Ġarchive":7260,"Faps":7261,"auto":7262,"engine":7263,"Ġsn":7264,"(\"\"))":7265,"Fault":7266,"ĠVis":7267,"Numeric":7268,"=%":7269,"AF":7270,"SING":7271,"Slots":7272,"signature":7273,"reply":7274,"InProgress":7275,"unct":7276,"Quote":7277,"Translator":7278,"Boundary":7279,"mainder":7280,"Ġabove":7281,"Ġamount":7282,"Ġstructure":7283,">\\":7284,"Audio":7285,"kind":7286,"ster":7287,"igration":7288,"Setup":7289,"ĠPackage":7290,"Ġcurrently":7291,"EXTEN":7292,"-+":7293,"OAuth":7294,"getModifiers":7295,"ably":7296,"Ġdns":7297,"imap":7298,"ĠDb":7299,"ULTI":7300,"Enumeration":7301,"SocketFactory":7302,"Escape":7303,";)":7304,"acl":7305,"retry":7306,"clearCache":7307,"Reduce":7308,"CLIENT":7309,"finderCache":7310,"sib":7311,"ĠStr":7312,"quote":7313,"KET":7314,"Ġactiv":7315,"Numbers":7316,"Phase":7317,"COLOR":7318,"ĠGeoPackage":7319,"dkHeaders":7320,"getOffset":7321,"Ġpipeline":7322,"Counts":7323,"ĠĠĠĠĠĠĠĠĠĠĠĠĠĠĠĠĠĠĠĠĠĠĠĠĠĠĠĠĠĠĠĠĠĠĠĠĠĠĠĠĠĠĠĠĠĠĠĠĠ":7324,"WRITE":7325,"Bootstrap":7326,"atial":7327,"Ġdeploy":7328,"Compare":7329,"ĠJar":7330,"getParentFile":7331,"getOwner":7332,"crete":7333,"Ġcap":7334,"Ġcoordinates":7335,"ĠSymbol":7336,"Ġaddr":7337,"Locations":7338,"responseFields":7339,"ensitive":7340,"Ġblack":7341,"ingerprint":7342,"<<":7343,"Est":7344,"dot":7345,"seek":7346,"Att":7347,"ENCO":7348,"Ġ[%":7349,"Ġworking":7350,"ggest":7351,"decess":7352,"(\"$":7353,"Ġstandard":7354,"ĠCOL":7355,"Ġconstant":7356,"ĠEX":7357,"registered":7358,"Ġdestroy":7359,"destroy":7360,"ĠOtherwise":7361,"ensor":7362,"getJava":7363,"Enforcer":7364,"upper":7365,"Ġexc":7366,"ternate":7367,"contentType":7368,"Ġvisitor":7369,"Creation":7370,"={":7371,"Balan":7372,"olicy":7373,"za":7374,"arded":7375,"Ġemit":7376,"ATURE":7377,"ManagerFactory":7378,"oke":7379,"ĠHttpURLConnection":7380,"DBID":7381,")/":7382,"FALSE":7383,"mun":7384,"pp":7385,"Ġpassed":7386,"Maps":7387,"ivot":7388,"Ġstrategy":7389,"chemas":7390,"Disabled":7391,"Ġadapt":7392,"Compound":7393,"Ġquote":7394,"Hy":7395,"matrix":7396,"runtime":7397,"RESPONSE":7398,"lying":7399,"Animator":7400,"ĠValueEnforcer":7401,"Persistent":7402,"Ġstrip":7403,"'ve":7404,"BR":7405,"den":7406,"ĠreturnType":7407,"Ġinside":7408,"opied":7409,"Ġcomments":7410,"ANG":7411,"ĠContainer":7412,"Ġconnections":7413,"ATIC":7414,"Ġdefine":7415,"screen":7416,"getToken":7417,"selector":7418,"Ġtrying":7419,"TIC":7420,"printf":7421,"ĠXPath":7422,"DBC":7423,"getDimension":7424,"Ġoperations":7425,"ĠOutput":7426,"NN":7427,"SPE":7428,"Ġ){":7429,"MEM":7430,"ĠWindow":7431,"Ġvalidator":7432,"PARAMETER":7433,"SYSTEM":7434,"auncher":7435,"erve":7436,"Ġclosing":7437,"ĠScope":7438,"Quick":7439,"ĠWrit":7440,"Ġservices":7441,"Ġworkspace":7442,"ORMAL":7443,"GP":7444,"iator":7445,"getAddress":7446,"itel":7447,"Ġfore":7448,"permission":7449,"ĠDoc":7450,"columnName":7451,"Fix":7452,"VEL":7453,"YPE":7454,"dm":7455,"future":7456,"Shift":7457,"Ġdisabled":7458,"Modules":7459,"Ratio":7460,"Schedule":7461,"Ġann":7462,"getReturnType":7463,"route":7464,"SEC":7465,"Ġassume":7466,"Blocking":7467,"Ġmodify":7468,"Ġatoms":7469,"Ġserialized":7470,"Replication":7471,"anoTime":7472,"HERE":7473,"Sibling":7474,"driver":7475,"Example":7476,"Increment":7477,"Ġreturns":7478,"perform":7479,"ĠPort":7480,"ĠdataSource":7481,"ĠVar":7482,"maryKey":7483,"redicates":7484,"Ġbackup":7485,"eserializer":7486,"-+-+":7487,"CF":7488,"Ctx":7489,"dimension":7490,"slot":7491,"Ġ())":7492,"getParameters":7493,"ĠSm":7494,"ĠFileNotFoundException":7495,"Deliver":7496,"ĠAddress":7497,"getStatusCode":7498,"(\",\");":7499,"ĠReflection":7500,"ĠHeader":7501,"levation":7502,"TEMPLATE":7503,"23":7504,"Camera":7505,"Criterion":7506,"vt":7507,"Ġconversation":7508,"Ġdep":7509,"extra":7510,"RequestBuilder":7511,"Coll":7512,"ĠOR":7513,"refresh":7514,"Defs":7515,"ĠhttpClient":7516,"Initialized":7517,"II":7518,"Issue":7519,"Sol":7520,"hex":7521,"getW":7522,"adwords":7523,"addChild":7524,"addParameter":7525,"ĠMutable":7526,"Overl":7527,"Versions":7528,"DBIDs":7529,"ĠProtocol":7530,"ĠIOUtils":7531,"LF":7532,"OVER":7533,"RUN":7534,"ora":7535,"getN":7536,"Idle":7537,"Ġdeli":7538,"writeInt":7539,"Describe":7540,"Ġassociated":7541,"ĠGitLabApiException":7542,"WIDTH":7543,"Ca":7544,"RA":7545,"fx":7546,"getNumberOf":7547,"Ġredirect":7548,"unset":7549,"Ġtrust":7550,"ĠTile":7551,"Ġproper":7552,"Ġauthentic":7553,"compressed":7554,"Expand":7555,"Gateway":7556,"ti":7557,"Ġ~":7558,"Ġnet":7559,"ismatch":7560,"Ġste":7561,"ĠSee":7562,"ĠcheckState":7563,"Alpha":7564,"Terms":7565,"ĠwaitFor":7566,"ĠServletException":7567,"Ġpermissions":7568,"ENCODING":7569,"ET":7570,"Ptr":7571,"big":7572,"Ġce":7573,"regex":7574,"getColor":7575,"getConstructor":7576,"ante":7577,"Reset":7578,"constructor":7579,"IDE":7580,"SESSION":7581,"MPLE":7582,"Ġcodec":7583,"Ġcompile":7584,"ClickListener":7585,"Destroy":7586,"201809":7587,"ĠInvocationTargetException":7588,"isEventEnabled":7589,"Country":7590,"mac":7591,"media":7592,"Ġnative":7593,"getPage":7594,"Ġtransition":7595,"Ġimpl":7596,"ATED":7597,"Painter":7598,"ble":7599,"jul":7600,"sorted":7601,"Ġpad":7602,"addAttribute":7603,"Ġarea":7604,"voker":7605,"Parsing":7606,"getCanonicalName":7607,"SCOPE":7608,"DIRECT":7609,"getRecord":7610,"getOutput":7611,"Ġ');":7612,"ĠConvert":7613,"Ġedit":7614,"Ġsentence":7615,"Solution":7616,"InetAddress":7617,"putInt":7618,"ĠFont":7619,"Leg":7620,"getPre":7621,"Hints":7622,"43":7623,"Git":7624,"MT":7625,"Pipeline":7626,"Times":7627,"att":7628,"Ġcases":7629,"(\"</":7630,"verify":7631,"REMO":7632,"ĠHel":7633,"Ġouter":7634,"Ġ255":7635,"ĠConsumer":7636,"Ġacc":7637,"OPEN":7638,"connected":7639,"iki":7640,"****************":7641,"FC":7642,"sig":7643,"ĠĉĠĠĠĠĠĠĠĠĠĠĠ":7644,"Ġear":7645,"(\"=":7646,"ffff":7647,"ĠPRO":7648,"ORITY":7649,"VISI":7650,"SYN":7651,"acamole":7652,"Focus":7653,"allen":7654,"Ġfixed":7655,"Ġsk":7656,"tegr":7657,"Decode":7658,"Keyword":7659,"ynth":7660,"ules":7661,"Translation":7662,"Ġcreation":7663,"entroid":7664,"XPath":7665,"bin":7666,"dfs":7667,"drop":7668,"ium":7669,"Ġcredential":7670,"isFile":7671,"isNaN":7672,"ife":7673,"puted":7674,"REAM":7675,"ashboard":7676,"ĠtypeName":7677,"Ġclusters":7678,"Ġnote":7679,"Ġscroll":7680,"ĠXMLStream":7681,"ĠDescribe":7682,"CSS":7683,"eros":7684,"Ġdialog":7685,"setTime":7686,"addProperty":7687,"Loaded":7688,"ToFile":7689,"Complex":7690,"Try":7691,"ĠFileUtils":7692,"ĠEJB":7693,"configure":7694,"Ġcurrency":7695,"Expired":7696,"need":7697,"Ġvia":7698,"imp":7699,"ObjectName":7700,"ĠDO":7701,"Ġabsolute":7702,"BIT":7703,"Fraction":7704,"bottom":7705,"catalog":7706,"Ġsur":7707,"agraph":7708,"LocalService":7709,"Prev":7710,"ĠUri":7711,"panel":7712,"ĠIndexOutOfBoundsException":7713,"Implicit":7714,"orable":7715,"getTag":7716,"Ġrepo":7717,"ĠIP":7718,"Ġranges":7719,"Ġenough":7720,"Transformation":7721,"Ġcalcul":7722,"IGN":7723,"================":7724,")*":7725,"500":7726,"Clock":7727,"Lifecycle":7728,"vs":7729,"Ġside":7730,"setEnabled":7731,"ĠCore":7732,"STORE":7733,"Theme":7734,"Rendering":7735,"FORM":7736,"LD":7737,"ĠSpec":7738,"Requested":7739,"startIndex":7740,"Pairs":7741,"').":7742,"84":7743,"Best":7744,"OLEAN":7745,"getBlock":7746,"ĠgetContext":7747,"ONLY":7748,"readInt":7749,"OfWeek":7750,"ĠsessionId":7751,"TM":7752,"jules":7753,"isS":7754,"Ġbaos":7755,"ĠSkip":7756,"ielab":7757,"rypto":7758,"Ġparallel":7759,"Ġwritten":7760,"FACTORY":7761,"julielab":7762,"Blob":7763,"Go":7764,"ITI":7765,"Mutable":7766,"PK":7767,"Watermark":7768,"Ġinf":7769,"constraint":7770,"ĠaddTo":7771,"LEFT":7772,"caling":7773,"Ġ\",\"":7774,"Ġhelper":7775,"Histogram":7776,"Volume":7777,"getChannel":7778,"arante":7779,"changed":7780,"ĠRest":7781,"Organization":7782,"PING":7783,"Two":7784,"Ġfeed":7785,"admin":7786,"(\"{}":7787,"Processed":7788,"ĠCount":7789,"Respon":7790,"ĠReader":7791,"Helpers":7792,"TASK":7793,"ĠDevFailed":7794,"ĠTreeSet":7795,"Enclosing":7796,"DKException":7797,"Ġoccurred":7798,"itelist":7799,"YEAR":7800,"inct":7801,"getLine":7802,"Ġ\"\\\\":7803,"ĠBY":7804,"Authority":7805,"Jobs":7806,"Encryption":7807,"Coords":7808,"illingAccount":7809,"Embedded":7810,"ĠStyle":7811,"getBean":7812,"Ġbar":7813,"Receiver":7814,"Ġcanonical":7815,"getRuntime":7816,"Ġdeclaration":7817,"onedDateTime":7818,"ĠAND":7819,"/%":7820,"Navigation":7821,"]).":7822,"audit":7823,"cel":7824,"Ġexclude":7825,"buff":7826,"Ġbelow":7827,"typeName":7828,"getPart":7829,"StoreException":7830,"Ġcanvas":7831,"Mer":7832,"aring":7833,"Ġfast":7834,"Ġreduce":7835,"setHeader":7836,"jected":7837,"FieldValue":7838,"AttributeValue":7839,"Starting":7840,"ynchronization":7841,"ATIVE":7842,"ocker":7843,"ĠAssertion":7844,"ĠHtmlTree":7845,".*":7846,"Slice":7847,"cos":7848,"getUrl":7849,"getTableName":7850,"Ġflat":7851,"ĠerrorMessage":7852,"Sem":7853,"mv":7854,"nel":7855,"nanoTime":7856,"delegate":7857,"Ġem":7858,"ummy":7859,"Ġbuffers":7860,"ARD":7861,"ĠNodeList":7862,"ĠStop":7863,"Occur":7864,"SUP":7865,"ndi":7866,"Ġnorm":7867,"getUn":7868,"getBundle":7869,"(\"'":7870,"LEVEL":7871,"Ġready":7872,"loadClass":7873,"Ġrout":7874,"Ġpositive":7875,"ĠPreparedStatement":7876,"failure":7877,"Coverage":7878,"Ns":7879,"Pull":7880,"ĉĊ":7881,"Ġpr":7882,"Ġpeer":7883,"Ġwrong":7884,"Ġlhs":7885,"Ġlogging":7886,"ĠFileSystem":7887,"izedMessage":7888,"ĠindexOf":7889,"FFFF":7890,"ĠjsonObject":7891,"ĠĠĠĠĠĠĠĠĠĠĠĠĠĠĠĠĠĠĠĠĠĠĠĠĠĠĠĠĠĠĠĠĠĠĠĠĠĠĠĠĠĠĠĠĠĠĠĠĠĠ":7892,"Ġmappings":7893,"arguments":7894,"Footer":7895,"__":7896,"Ġ`":7897,"ĠBug":7898,"getCache":7899,"Ġpw":7900,"seen":7901,"amel":7902,"license":7903,"tein":7904,"(\"{":7905,"ĠgetFile":7906,"STY":7907,"ARG":7908,"ĠVoid":7909,"ereo":7910,"phere":7911,"Ġedges":7912,"(\"/\"))":7913,"ĠLinkedHashSet":7914,"Sentence":7915,"={}":7916,"BL":7917,"CENT":7918,"dat":7919,"tle":7920,"eras":7921,"utf":7922,"Ġrevision":7923,"atory":7924,"ĠMark":7925,"INFIN":7926,"akes":7927,"validation":7928,"calculate":7929,"Functions":7930,"Ġpointer":7931,"Geom":7932,"Parsed":7933,"SecurityException":7934,"Addresses":7935,"ĠoldValue":7936,"Ġloading":7937,"RIGHT":7938,"Problem":7939,"Mouse":7940,"Age":7941,"PAGE":7942,"QName":7943,"enum":7944,"Ġcm":7945,"ĠTarget":7946,"consume":7947,"readLock":7948,"Ġsecret":7949,"errors":7950,"ĠWS":7951,"gistr":7952,"MAIN":7953,"Ġtables":7954,"ĠTimeout":7955,"Ġmodules":7956,"FACE":7957,"Sizes":7958,"tick":7959,"ĠAn":7960,"getDeclar":7961,"trl":7962,"setLength":7963,"ĠBinary":7964,"Ġcheckpoint":7965,"Readable":7966,"Specific":7967,"ĠDocumentBuilder":7968,"Ġconsider":7969,"Facet":7970,"Fs":7971,"ning":7972,"Ġcore":7973,"idual":7974,"person":7975,"ĠgetParent":7976,"ĠresourceName":7977,"Ġbuffered":7978,"Ġtokenizer":7979,"Visit":7980,"OUTPUT":7981,"ĠGeneral":7982,"Mail":7983,"done":7984,"sample":7985,"Ġtm":7986,"getEntry":7987,"getLabel":7988,"Ġpa":7989,"Ġmiddle":7990,"ĠgetUser":7991,"Special":7992,"DBObject":7993,"suffix":7994,"Ġrelationship":7995,"STYLE":7996,"Mock":7997,"Ws":7998,"candidate":7999,"diff":8000,"isAnnotation":8001,"ĠĉĉĉĉĊ":8002,"normalize":8003,"ĠWritable":8004,"CTED":8005,"Detector":8006,"Hierarchy":8007,"reat":8008,"getTransaction":8009,"edit":8010,"Ġhold":8011,"construct":8012,"hasText":8013,"Ġanything":8014,"Ġ1024":8015,"Interceptors":8016,"Packages":8017,"FFIX":8018,"balance":8019,"cn":8020,"dl":8021,"Station":8022,"ĠgetObject":8023,"ĠDimension":8024,"Leader":8025,"ROW":8026,"Ġinputs":8027,"ĠConnect":8028,"Scene":8029,"Ġconverted":8030,"FAILURE":8031,"ALE":8032,"Bracket":8033,"registry":8034,"getLeft":8035,"Ġcat":8036,"addStatement":8037,"appendOptional":8038,"export":8039,"afka":8040,"voked":8041,"ĠJSONException":8042,"ouch":8043,"strict":8044,"SIGN":8045,"Evaluation":8046,"SB":8047,"Templates":8048,"reverse":8049,"Health":8050,"Sessions":8051,"StackTraceElement":8052,"getFull":8053,"Quality":8054,"tracker":8055,"getShort":8056,"59":8057,"Ġcost":8058,"dependency":8059,"Ġsaved":8060,"InBytes":8061,"loor":8062,"ird":8063,"shared":8064,"Ġlex":8065,"Ġimg":8066,"MINUTE":8067,"sistent":8068,"Marshaller":8069,"Ġ'{}'":8070,"preter":8071,"HAND":8072,"Vec":8073,"ZED":8074,"menu":8075,"stand":8076,"Ġwell":8077,"Ġencoder":8078,"cycl":8079,"Checked":8080,"Ġuuid":8081,"delay":8082,"Ġlonger":8083,"ĠActivity":8084,"Co":8085,"TEN":8086,"kt":8087,"pet":8088,"getJob":8089,"anit":8090,"advance":8091,"Ġmat":8092,"Ġlb":8093,"oped":8094,"mous":8095,"ĠLook":8096,"Adjust":8097,"Ġ/=":8098,"gnoring":8099,"LISH":8100,"AccessToken":8101,"ThreadPool":8102,"Serialization":8103,"bounds":8104,"BigDecimal":8105,"SCRIPT":8106,"Ġ]":8107,"()+":8108,"ĠSTR":8109,"Ġweek":8110,"Ġidentity":8111,"Ġunregister":8112,"Implementation":8113,"CORD":8114,"onymous":8115,"Framework":8116,"WA":8117,"Enable":8118,"ĠĠĠĠĠĠĠĠĠĠĠĠĠĠĠĠĠĠĠĠĠĠĠĠĠĠĠĠĠĠĠĠĠĠĠĠĠĠĠĠĠĠĠĠĠĠĠĠĠĠĠĠĠĠĠ":8119,"ĠFROM":8120,"Replacement":8121,"CWSI":8122,"appendOptionalAttribute":8123,"<>":8124,"Between":8125,"radius":8126,"amodel":8127,"Ġinstantiate":8128,"setContent":8129,"Tran":8130,"ĠretVal":8131,"\")))":8132,"ĠhttpRequest":8133,"itrus":8134,"compiler":8135,"Membership":8136,"ci":8137,"fragment":8138,"icense":8139,"Ġreceive":8140,"Ġoid":8141,"Ġseg":8142,"Ġadding":8143,"getSymbol":8144,"ConnectionFactory":8145,"ĠEFaps":8146,"dataType":8147,"Refs":8148,"latform":8149,"Keep":8150,"Sk":8151,"ZIP":8152,"cloud":8153,"ital":8154,"Ġconversion":8155,"ĠXA":8156,"BufferedReader":8157,"20180":8158,"Fill":8159,"cii":8160,"ially":8161,"etic":8162,"Ġreached":8163,"setDefault":8164,"ased":8165,"quot":8166,"ĠTest":8167,"ĠresultSet":8168,"Ġcollector":8169,"Ġformatted":8170,"Attempts":8171,"Ġdirectly":8172,"BLOCK":8173,"category":8174,"sin":8175,"getElements":8176,"assign":8177,"())))":8178,"ĠIAtomContainer":8179,"Mapped":8180,"ONT":8181,"ĠBatch":8182,"++,":8183,"Heap":8184,"ResponseException":8185,"services":8186,"SUFFIX":8187,"IGHT":8188,"execution":8189,"icture":8190,"criminator":8191,"PUBLIC":8192,"JAVA":8193,"Singleton":8194,"dro":8195,"ĠExecutor":8196,"getDescription":8197,"ableType":8198,"ObjectType":8199,"Ġdecor":8200,"Ġ200":8201,"Possible":8202,"Ġimmediate":8203,"TODO":8204,"score":8205,"respond":8206,"metrics":8207,"Light":8208,"Slash":8209,"ili":8210,"android":8211,"BufferSize":8212,"TextField":8213,"ĠJsonNode":8214,"Peer":8215,"Sink":8216,"pear":8217,"Recovery":8218,"setParent":8219,"ooser":8220,"Ġhome":8221,"ĠPO":8222,"ĠPh":8223,"STREAM":8224,"Heartbeat":8225,"pany":8226,"ĠĠĠĠĠĠĠĠĠĠĠĠĠĠĠĠĠĠĠĠĠĠĠĠĠĠĠĠĠĠĠĠĠĠĠĠĠĠĠĠĠĠĠĠĠĠĠĠĠĠĠĠ":8227,"getNodeName":8228,"21":8229,"CATION":8230,"dialog":8231,"ĠĉĠĠĠĠ":8232,"getList":8233,"isEnabled":8234,"peed":8235,"Procedure":8236,"embed":8237,"ĠFS":8238,"Ġcols":8239,"Ġtargets":8240,"TRY":8241,"HashCode":8242,"Secure":8243,"Ġlarge":8244,"IR":8245,"dump":8246,"home":8247,"ners":8248,"pass":8249,"snapshot":8250,"Ġborder":8251,"ibly":8252,"OfMonth":8253,"throwable":8254,"Shell":8255,"CHANGE":8256,"Analyzer":8257,"flatMap":8258,"allenge":8259,"!\",":8260,".\";":8261,"Bin":8262,"Closure":8263,"Rpc":8264,"Ġcclass":8265,"Ġinstruction":8266,"Enter":8267,"Deg":8268,"ĠBad":8269,"Ġseries":8270,"Ġcalls":8271,"transport":8272,"Ġhostname":8273,"Serializable":8274,"Ġbackground":8275,"Ġextensions":8276,"Binder":8277,"MediaType":8278,"Ġagainst":8279,"Ġ^=":8280,"enk":8281,"Contract":8282,"Ġstd":8283,"Probe":8284,"ĠCU":8285,"plus":8286,"ĠTimer":8287,"newLine":8288,"aches":8289,"META":8290,"Ġpartitions":8291,"ĠTypeDesc":8292,"static":8293,"neighb":8294,"HOUR":8295,"Ġannotated":8296,"Sketch":8297,"dom":8298,"running":8299,"Ġdeserialize":8300,"Ġ),":8301,"ALLOW":8302,"writeObject":8303,"getMain":8304,"Rectangle":8305,"essagingEngine":8306,"><":8307,"Mention":8308,"Rad":8309,"ever":8310,"pixel":8311,"support":8312,"Ġcountry":8313,"dem":8314,"adoc":8315,"(\"\",":8316,"addListener":8317,"ailability":8318,"Ġrequests":8319,"ĠuserName":8320,"Association":8321,"unknown":8322,"Counters":8323,"+=":8324,"DP":8325,"DY":8326,"history":8327,"pu":8328,"addTo":8329,"ĠSingle":8330,"ĠCal":8331,"Ġitself":8332,"Shadow":8333,"Allow":8334,"ServletContext":8335,"ĠDataType":8336,"Ġpatterns":8337,"Ġconnector":8338,"Diagnostic":8339,"Latitude":8340,"Jdbc":8341,"ftp":8342,"ho":8343,"Ġclosure":8344,"Ġsq":8345,"InMillis":8346,"riend":8347,"STOP":8348,"ternative":8349,"getSchema":8350,"ConfigurationKeys":8351,"charset":8352,"OptionValue":8353,"attributeName":8354,"Buckets":8355,"subscribe":8356,"enkins":8357,"Alert":8358,"Dom":8359,"Sim":8360,"aries":8361,"ĠdataType":8362,"TRACE":8363,"Ġpartial":8364,"STRU":8365,"NoSuchMethodException":8366,"cumulator":8367,"ĠBytes":8368,"FLOAT":8369,"jdbc":8370,"seg":8371,"isPrimitive":8372,"Ġss":8373,"Ġgetting":8374,"addContent":8375,"Proposal":8376,"ĠCas":8377,"ĠCSS":8378,"Ġtrunc":8379,"Ġprobe":8380,"ElementException":8381,"ATT":8382,"ATCH":8383,"moveTo":8384,"Updates":8385,"Claim":8386,"Ġadmin":8387,"author":8388,"ĠRequestBuilder":8389,"PROPERTIES":8390,"Directories":8391,"ĠUnit":8392,"Ġcertificate":8393,"StringUtil":8394,"ounce":8395,"Ġdecoded":8396,"KeyValue":8397,"ĠAc":8398,"TEGER":8399,"ĠblockSize":8400,"Geo":8401,"cognized":8402,"INFINITY":8403,"vector":8404,"Stroke":8405,"licies":8406,"ĠFrame":8407,"prob":8408,"Targets":8409,"IfNot":8410,"PublicKey":8411,"PRIORITY":8412,"ĠArtifact":8413,"rev":8414,"Ġ().":8415,"Ans":8416,"Ġrunnable":8417,"Appro":8418,"Ġcalling":8419,"ĠMessageDigest":8420,"TxId":8421,"RESULT":8422,"BS":8423,"Ġfamily":8424,"Ġblob":8425,"Ġbetter":8426,"Ġdn":8427,"ĠIs":8428,"ClassPath":8429,"ociate":8430,"SequenceNumber":8431,"WebSocket":8432,"sessionId":8433,"Windows":8434,"Symbols":8435,"ĠNoSuchMethodException":8436,"Design":8437,"ISO":8438,"timer":8439,"erts":8440,"Ġfos":8441,"Contains":8442,"Produ":8443,"anned":8444,"MessageType":8445,"Ġchecked":8446,"Participant":8447,"Ġdisable":8448,"Ġpercent":8449,"Ġdigit":8450,"CLU":8451,":\");":8452,"AMP":8453,"ĠBuffer":8454,"()\");":8455,"Ġreally":8456,"(\"#":8457,"ĠgetProject":8458,"Ġattachment":8459,"ManagerException":8460,"Ġunion":8461,"Formats":8462,"antic":8463,"(':":8464,"Negative":8465,"SVG":8466,"Latch":8467,"Picker":8468,"rest":8469,"getMetadata":8470,"Ġdays":8471,"addElement":8472,"avadoc":8473,"parseDouble":8474,"HttpMethod":8475,"Ġoverrid":8476,"Conditions":8477,"WEB":8478,"IME":8479,"Jms":8480,"aybe":8481,"aching":8482,"udo":8483,"withParam":8484,"defaultValue":8485,"Callbacks":8486,"INTERVAL":8487,"prepareStatement":8488,"isAnnotationPresent":8489,"54":8490,"]*":8491,"scheme":8492,"zz":8493,"setData":8494,"ĠSignature":8495,"ĠCan":8496,"ooKeeper":8497,"converter":8498,"redirect":8499,"forward":8500,"FIER":8501,"Dispatch":8502,"TRA":8503,"methods":8504,"Ordering":8505,"Ordered":8506,"MITER":8507,"Ġusers":8508,"Ġoverflow":8509,"Parallel":8510,"OLD":8511,"features":8512,"'))":8513,"ingMode":8514,"Ġcover":8515,"isode":8516,"Chem":8517,"ĠDraw":8518,"compress":8519,"single":8520,"UNIT":8521,"Ġcalc":8522,"Expiration":8523,"PlanNode":8524,"Creating":8525,"ĠDescriptor":8526,"cycler":8527,"Ovh":8528,"aemon":8529,"Ġpop":8530,"Contexts":8531,"ĠAS":8532,"PropertyName":8533,"logging":8534,"Positions":8535,"ĠjobId":8536,"Backend":8537,"ĠURISyntaxException":8538,"Ġvars":8539,"styleable":8540,"ĠHashtable":8541,"Volt":8542,"Ġ());":8543,"getView":8544,"deployment":8545,"ents":8546,"ĠĉĉĉčĊ":8547,"ĠgetData":8548,"plain":8549,"TimeUnit":8550,"comm":8551,"Ġasset":8552,"ĠConversion":8553,"notification":8554,"ĠDependency":8555,"Ġhelp":8556,"EQUAL":8557,"hance":8558,"ĠStructure":8559,"etty":8560,"ons":8561,"anza":8562,"Ġclip":8563,"Ġcoordinate":8564,"Ġfallback":8565,"Ġwrapped":8566,"ĠJC":8567,"Updater":8568,"Characters":8569,"closeQuietly":8570,"POS":8571,"IfNeeded":8572,"Black":8573,"opulation":8574,"ĠModifier":8575,"getContextClassLoader":8576,"FINEST":8577,"Frequency":8578,"Jvm":8579,"fetch":8580,"arb":8581,"ampl":8582,"isInstance":8583,"Ġduplicate":8584,"ĠDMatrixRMaj":8585,"INITI":8586,"ĠaddAttribute":8587,"avas":8588,"FIED":8589,"CommandLine":8590,"visible":8591,"Ġtemporary":8592,"Vertices":8593,"EXTENSION":8594,"Sdk":8595,"kit":8596,"Ġes":8597,"ĠProvider":8598,"inv":8599,"orph":8600,"Ġfall":8601,"ĠSP":8602,"ĠSend":8603,"Ġcontact":8604,"Indexed":8605,"Ġclaim":8606,"rawtypes":8607,"Ġreplic":8608,"Ġrollback":8609,"KS":8610,"eloc":8611,"wrapper":8612,"Ġsv":8613,"Ġbin":8614,"Injector":8615,"unregister":8616,"ĠSV":8617,"ĠAL":8618,"ĠEOF":8619,"ynchronous":8620,"HttpServletResponse":8621,"PROTO":8622,"ĠUnknown":8623,"cipher":8624,"ldr":8625,"ientation":8626,"origin":8627,"cursively":8628,"pid":8629,"publish":8630,"ucle":8631,"Ġnc":8632,"ubSub":8633,"(\"(":8634,"Ġinjection":8635,"ĠSql":8636,"ĠCookie":8637,"tology":8638,"Ġdecoder":8639,"readValue":8640,"ĠBe":8641,"Ġrank":8642,"General":8643,"getRight":8644,"ĠSIResourceException":8645,"Ġreporter":8646,"Switch":8647,"Bridge":8648,"flip":8649,"getFormatted":8650,"Ġincluded":8651,"Ġstates":8652,"Ġexpanded":8653,"Comments":8654,"ĠDi":8655,"RESH":8656,"ĠRun":8657,"anagers":8658,"ĠhasNext":8659,"Ġhandlers":8660,"LAB":8661,"PROCESS":8662,"memo":8663,"note":8664,"Plugins":8665,"getLocalizedMessage":8666,"enchmark":8667,">=":8668,"ulator":8669,"ToBe":8670,"Comb":8671,"ĠBits":8672,"completed":8673,"getSec":8674,"Discount":8675,"QUI":8676,"Ġnormalized":8677,"Rollback":8678,"ĠAssertionError":8679,"->":8680,"JO":8681,"SRE":8682,"dp":8683,"sym":8684,"getInteger":8685,"putString":8686,"putIfAbsent":8687,"ĠBind":8688,"ĠcheckFor":8689,"ĠVAL":8690,"Ġtranslate":8691,"LOB":8692,"month":8693,"00000000":8694,"doPrivileged":8695,"utils":8696,"Ġdimensions":8697,"ĠGuacamole":8698,"Ldap":8699,"]+":8700,"zero":8701,"restore":8702,"Ġrestart":8703,"Ġproducer":8704,"tools":8705,"Configur":8706,"ĠBound":8707,"Queries":8708,"ĠGVR":8709,"ĠHttpClient":8710,"authentic":8711,"atasource":8712,"wards":8713,"Ġrenderer":8714,"TLE":8715,"Repo":8716,"vere":8717,"Ġcomposite":8718,"ĠJoin":8719,"logp":8720,"ARGET":8721,"Ġleaf":8722,"ĠComparable":8723,"LIMIT":8724,"Ġsources":8725,"BufferedImage":8726,"Ġiterable":8727,"underaMetadata":8728,"('.');":8729,"CLOSE":8730,"ivalent":8731,"getRefValue":8732,"trospe":8733,"Distribution":8734,"Hours":8735,"offer":8736,"Integr":8737,"setColor":8738,"odo":8739,"toURI":8740,"ĠMaven":8741,"Ġenvelope":8742,"anning":8743,"Ġklass":8744,"ĠImmutableMap":8745,"ACKAGE":8746,"ĠinternalRequest":8747,"Delivery":8748,"Io":8749,"Machine":8750,"Sender":8751,"css":8752,"sup":8753,"alker":8754,"getModel":8755,"ofNullable":8756,"When":8757,"marshal":8758,"Calcul":8759,"nowledge":8760,"ĠEFapsException":8761,"03":8762,"ASC":8763,"EJB":8764,"Ġcycle":8765,"FileNotFoundException":8766,"ĠAm":8767,"REST":8768,"SEG":8769,"Ġheap":8770,"NAMESPACE":8771,"Aliases":8772,"packageName":8773,"VED":8774,"si":8775,"ĠAttributes":8776,"inst":8777,"etime":8778,"ĠStringUtil":8779,"Prox":8780,"UTC":8781,"ĠeventType":8782,"ĠstringBuilder":8783,"ĠjarFile":8784,"Factories":8785,"Foreign":8786,"Ġticket":8787,"Ġwarning":8788,"singletonList":8789,"utomatic":8790,"Ġescaped":8791,"Pr":8792,"predicate":8793,"packet":8794,"Ġtz":8795,"Ġtenant":8796,"anity":8797,"Ġrev":8798,"Ġlang":8799,"ĠInetSocketAddress":8800,"Images":8801,"Handshake":8802,"StartTime":8803,"ountered":8804,"PROXY":8805,"WebElement":8806,"White":8807,"segments":8808,"ĠZipEntry":8809,"Lex":8810,"Lml":8811,"Sip":8812,"Wrap":8813,"ji":8814,"getUri":8815,"ĠgetMax":8816,"ĠSA":8817,"Ġack":8818,"ĠTYPE":8819,"Touch":8820,"DEFIN":8821,"Ġformula":8822,"ĠConcurrent":8823,"DIS":8824,"ĠĠĠĠĠĠĠĠĠĠĠĠĠĠĠĠĠĠĠĠĠĠĠĠĠĠĠĠĠĠĠĠĠĠĠĠĠĠĠĠĠĠĠĠĠĠĠĠĠĠĠĠĠĠ":8825,"SHORT":8826,"Spaces":8827,"negative":8828,"Ġdigits":8829,"SCHEMA":8830,"Answer":8831,"1000":8832,"MULTI":8833,"lu":8834,"Ġart":8835,"ĠLocation":8836,"Inline":8837,"Ġrecur":8838,"ĠSort":8839,"Ġhour":8840,"Ġhook":8841,"Ġ&=":8842,"appendChild":8843,"exchange":8844,"URATION":8845,"ĠOS":8846,"AttributeName":8847,"ĠcurrentNode":8848,"Ġtransfer":8849,"Ġnumbers":8850,"=\"+":8851,"https":8852,"Ġresolution":8853,"77":8854,"CAP":8855,"cut":8856,"det":8857,"Ġmillis":8858,"setContext":8859,"velo":8860,"Ġdead":8861,"newValue":8862,"ĠpathSegments":8863,"TITLE":8864,"getPl":8865,"PerPage":8866,"getDuration":8867,"Ġordered":8868,"Ġactions":8869,"ĠmetaData":8870,"ĠCallable":8871,"Balancer":8872,"ucleot":8873,"52":8874,"Ct":8875,"DM":8876,"mean":8877,"pliterator":8878,"Ġchart":8879,"ĠtaskId":8880,"getDatabase":8881,"Ġlocator":8882,"PASS":8883,"getChildNodes":8884,"WORK":8885,"ZERO":8886,"getEx":8887,"getInput":8888,"Ġpatch":8889,"rout":8890,"rogate":8891,"abler":8892,"Ġdf":8893,"Ġstatistics":8894,"Ġproc":8895,"Ġ'-":8896,"ROLL":8897,"mitter":8898,"getRemote":8899,"Tools":8900,"Pixels":8901,"Ġequals":8902,"Publisher":8903,"Live":8904,"Ra":8905,"direction":8906,"getDisplay":8907,"Ġpersistence":8908,"arge":8909,"sel":8910,"isStatic":8911,"isClosed":8912,"Ġbrowser":8913,"Ġreceiver":8914,"agate":8915,"ĠSequence":8916,"Ġconcat":8917,"Under":8918,"Ġiteration":8919,"Minimum":8920,"Steps":8921,"openStream":8922,"Ġtracker":8923,"ĠSerializable":8924,"Ġdesired":8925,"Letter":8926,"NORMAL":8927,"aptor":8928,"ĠEnd":8929,"getDate":8930,"adapter":8931,"Ġdet":8932,"ĠLazy":8933,"++);":8934,"ByTagName":8935,"Commands":8936,"ĠjsonGenerator":8937,"Ġexpiration":8938,"ĠDeployment":8939,"GenericApplication":8940,"Tip":8941,"cap":8942,"sMap":8943,"():":8944,"tep":8945,"Rec":8946,"IdTo":8947,"ObjectId":8948,"Resolve":8949,"PropertyOf":8950,"Dirty":8951,"Targeting":8952,"Ġdisk":8953,"Ġiterate":8954,"lickr":8955,"Ġoptim":8956,"ĠGitlab":8957,"ĠCloseable":8958,"decessor":8959,"86":8960,"Dialect":8961,"JOB":8962,"dating":8963,"lated":8964,"uit":8965,"getReference":8966,"Ġ\"</":8967,"agger":8968,"ĠAudit":8969,"LES":8970,"ORTED":8971,"MEDI":8972,"getScheme":8973,"LineString":8974,"Ġprior":8975,"ĠBufferedWriter":8976,"getTitle":8977,"FILTER":8978,"Bio":8979,"pisode":8980,"getBody":8981,"Ġthose":8982,"Ġexcluded":8983,"ĠBson":8984,"ĠRo":8985,"ACTIVE":8986,"MAGE":8987,"disable":8988,"Curve":8989,"generated":8990,"BEAN":8991,"incrementAndGet":8992,"avascript":8993,"mpt":8994,"uuid":8995,"ality":8996,"allowed":8997,"getApp":8998,"seudo":8999,"Ġfis":9000,"Receive":9001,"Ġinject":9002,"ĠgetMethod":9003,"Bud":9004,"ĠBack":9005,"ALG":9006,"Ġunits":9007,"DEP":9008,"Share":9009,"Ġplatform":9010,"arest":9011,"getStringValue":9012,"ĠWebSocket":9013,"Secondary":9014,"ĠJSType":9015,"GenericApplicationPropertyOf":9016,"200":9017,"Hidden":9018,"Sparse":9019,"Since":9020,"sk":9021,"inity":9022,"tras":9023,"Ġie":9024,"Ġcas":9025,"addHeader":9026,"ĠInjection":9027,"Until":9028,"Ġhandled":9029,"ĠHttpRequest":9030,"events":9031,"JSONArray":9032,"ĠImmutableSet":9033,"ĠNoSuchAlgorithmException":9034,"ĠCommandLine":9035,"ableresource":9036,"Candidates":9037,"finish":9038,"ĠKEY":9039,"getKind":9040,"tran":9041,"Ġfit":9042,"Ġ\".\");":9043,"izard":9044,"ĠgetConfig":9045,"Chat":9046,"KeyStore":9047,"NodeList":9048,"ĠPersist":9049,"ĠHost":9050,"ĠNd":9051,"Ġattach":9052,"Upgrade":9053,"booleanValue":9054,"flater":9055,"Serialized":9056,"Minutes":9057,"Profiles":9058,"Cf":9059,"Ġcard":9060,"Require":9061,"Ġinvalidate":9062,"setVisible":9063,"external":9064,"indent":9065,"Ġjavax":9066,"ĠLayout":9067,"ElementType":9068,"ĠJsp":9069,"IDER":9070,"Ġ'\\\\":9071,"createNew":9072,"ParameterizedType":9073,"compatible":9074,"ĠFIX":9075,"getDeclaringClass":9076,"Duplicate":9077,"Pid":9078,"Video":9079,"ade":9080,"cannot":9081,"tour":9082,"inc":9083,"removed":9084,"getProtocol":9085,"apes":9086,"Ġwatch":9087,"setVisibility":9088,"ĠAsync":9089,"STAMP":9090,"ĠNew":9091,"ĠWHERE":9092,"Ġchecking":9093,"ĠRegister":9094,"generator":9095,"Ġsuccessfully":9096,"getEvent":9097,"ĠgetFirst":9098,"Buff":9099,"getSignature":9100,"Ġupdates":9101,"Ġyour":9102,"Longitude":9103,"Ġscopes":9104,"numCols":9105,"Ġauthor":9106,"getFS":9107,"ĠopContext":9108,"Fully":9109,"TempFile":9110,"Waiting":9111,"Ġphase":9112,"Ġconstraints":9113,"ĠAtlas":9114,"credentials":9115,"ĠId":9116,"Ġnb":9117,"()==":9118,"Ġfac":9119,"ĠgetChild":9120,"ĠCustom":9121,"ounded":9122,"Dep":9123,"Ġproto":9124,"ERENCE":9125,"ĠGray":9126,"Ġalt":9127,"EntityType":9128,"Channels":9129,"Ġversions":9130,"Ġterms":9131,"Ġtxn":9132,"ĠmetaModel":9133,"ĠapiKey":9134,"dataset":9135,"ĠtypedArray":9136,"getAction":9137,"added":9138,"Intern":9139,"ĠnewInstance":9140,"Ġ\"&":9141,"uspend":9142,"NodeType":9143,"DISP":9144,"ĠBufferedInputStream":9145,"InvocationTargetException":9146,"relative":9147,"auss":9148,"uffle":9149,"deleteresource":9150,"ASS":9151,"Clear":9152,"master":9153,"etries":9154,"getMap":9155,"getImage":9156,"getApi":9157,"asString":9158,"TypeElement":9159,"TypeInfo":9160,"ĠgetF":9161,"ĠgetField":9162,"upload":9163,"using":9164,"ircular":9165,"ĠDer":9166,"STATIC":9167,"ACCESS":9168,"tasks":9169,"Ġprobably":9170,"Containers":9171,"Scheduled":9172,"Sarl":9173,"Tier":9174,"]),":9175,"fc":9176,"ĠValidator":9177,"amingException":9178,"Ġfld":9179,"setInt":9180,"REE":9181,"ĠJBB":9182,"userId":9183,"Additional":9184,"Ġĉĉĉĉĉĉĉĉĉ":9185,"lastModified":9186,"Ġappro":9187,"ĠbytesRead":9188,"eventType":9189,"scroll":9190,"Verbose":9191,"Ġabs":9192,"projects":9193,"Ġexpressions":9194,"Ġwriting":9195,"strumentation":9196,"atisfied":9197,"Maven":9198,"Typed":9199,"wrapped":9200,"Ġ(%":9201,"Ġslash":9202,"Ġ\"$":9203,"rain":9204,"ĠgetParameter":9205,"verbose":9206,"ĠCor":9207,"ĠAv":9208,"ĠJvm":9209,"shard":9210,"Ġextended":9211,"Ġcounts":9212,"OrderBy":9213,"Ġfully":9214,"Chunks":9215,"ĠOutputStreamWriter":9216,"ĠJBBP":9217,"HS":9218,"cmp":9219,"lhs":9220,"mapped":9221,"onym":9222,"getStream":9223,"Ġcrc":9224,"ulation":9225,"deploy":9226,"ils":9227,"(\"*":9228,"setup":9229,"ĠgetLocal":9230,"Ġconsum":9231,"Compression":9232,"ĠDirectory":9233,"Ġ',":9234,"Ġallocate":9235,"UserSegment":9236,"getCell":9237,"Retries":9238,"ragments":9239,"ĠAppend":9240,"ĠQName":9241,"Band":9242,"MalformedURLException":9243,"nc":9244,"Ġevaluator":9245,"ima":9246,"TypeReference":9247,"ĠgetPath":9248,"coll":9249,"actions":9250,"arning":9251,"ACH":9252,"Ġarrays":9253,"ĠLogging":9254,"executeQuery":9255,"isNotEmpty":9256,"Ġcoords":9257,"DELIMITER":9258,"border":9259,"oral":9260,"Ġcmp":9261,"secret":9262,"Ġvm":9263,"unused":9264,"Stub":9265,"Ġden":9266,"Ġlatest":9267,"ĠIBond":9268,"Ġhit":9269,"ĠDynamic":9270,"RequestException":9271,"factor":9272,"Seen":9273,"LET":9274,"ErrorMessage":9275,"ĠChange":9276,"PED":9277,"heet":9278,"SessionId":9279,"Ġcompressed":9280,"Endpoints":9281,"getFieldName":9282,"Ġlinks":9283,"Ġconditions":9284,"Ġbindings":9285,"VARI":9286,"TRANSACTION":9287,"36":9288,"Durable":9289,"Ġ64":9290,"ĠgetRequest":9291,"ĠCOM":9292,"DataStore":9293,"Ġaddresource":9294,"Ġunexpected":9295,"Ship":9296,"ĠChain":9297,"Ġinterrupted":9298,"Generation":9299,"Clone":9300,"ĠInterval":9301,"(\"/\");":9302,"ĠShared":9303,"ĠNotification":9304,"Corner":9305,"Dimensions":9306,"branch":9307,"flag":9308,"ĠreturnValue":9309,"Ġrecover":9310,"Ġwidget":9311,"ippet":9312,"Adding":9313,"Substitution":9314,"HostName":9315,"ĠDataSource":9316,"members":9317,"Ġdecimal":9318,"Ġprovide":9319,"Orientation":9320,"VISIBLE":9321,"elocity":9322,"IFT":9323,"MAND":9324,"TP":9325,"ĠLoad":9326,"ingular":9327,"Ġitr":9328,"itter":9329,"see":9330,"dev":9331,"ĠsdkHeaders":9332,"ĠgetAttribute":9333,"ĠTri":9334,"topology":9335,"Ġrad":9336,"Timex":9337,"Ġ20":9338,"Interpol":9339,"Caller":9340,"Preferred":9341,"Ġzk":9342,"DOWN":9343,"PackageName":9344,"ĠShape":9345,"Ġdeleteresource":9346,"Divider":9347,"getFormattedMessage":9348,"LABEL":9349,"Gra":9350,"Rotation":9351,"WIN":9352,"getAl":9353,"returnType":9354,"olat":9355,"appfw":9356,"ĠPolygon":9357,"Tracer":9358,"Ġprecision":9359,"ĠĠĠĠĠĠĠĠĠĠĠĠĠĠĠĠĠĠĠĠĠĠĠĠĠĠĠĠĠĠĠĠĠĠĠĠĠĠĠĠĠĠĠĠĠĠĠĠĠĠĠĠĠ":9360,"Ġlocked":9361,"ĠSelect":9362,"?)":9363,"?\");":9364,"Balance":9365,"HEL":9366,"Pages":9367,"lon":9368,"missing":9369,"dep":9370,"edges":9371,"ĠbillingAccount":9372,"izers":9373,"toJson":9374,"ircu":9375,"Ġgc":9376,"akReference":9377,"classLoader":9378,"ocab":9379,"Unavailable":9380,"Traversal":9381,"ĠresponseFields":9382,"backup":9383,"Levels":9384,"workspace":9385,"Ġsummary":9386,"vars":9387,"serializer":9388,"activate":9389,"DEN":9390,"TARGET":9391,"Ġ));":9392,"algorithm":9393,"Ġcookies":9394,"riate":9395,"img":9396,"Overrid":9397,"Ġretrie":9398,"background":9399,"TRIC":9400,"TYPES":9401,"awt":9402,"Ġprojection":9403,"getTotal":9404,"Initializer":9405,"Ġcombined":9406,")((":9407,":\\":9408,"EOF":9409,"Ġpd":9410,"Ġregistration":9411,"Ġrecursive":9412,"Ġwon":9413,"Lost":9414,"Union":9415,"ĠqueryParams":9416,"ĠclientId":9417,"updated":9418,"ropriate":9419,"Negot":9420,"definition":9421,"Ġboundary":9422,"Opcode":9423,"Ġsignal":9424,"ENGLISH":9425,"Ġimplemented":9426,"ĠStandardCharsets":9427,"CastException":9428,"RPC":9429,"getOutputStream":9430,"Ġcx":9431,"setC":9432,"ĠCallback":9433,"iring":9434,"Ġurls":9435,"ChangeEvent":9436,"ĠatomContainer":9437,"Ġrepresent":9438,"Tenant":9439,"gp":9440,"aggreg":9441,"(\"^":9442,"ĠObjectMapper":9443,"getPayload":9444,"Ġhttps":9445,"Cells":9446,"getTimestamp":9447,"ADDRESS":9448,"ĠMemory":9449,"ĠSTRING":9450,"STRUCT":9451,"-\"":9452,":\",":9453,"FL":9454,"Popup":9455,"mf":9456,"uous":9457,"cker":9458,"otential":9459,"ĠsetValue":9460,"ĠNames":9461,"getPosition":9462,"Longs":9463,"Player":9464,"Ġchunks":9465,"Triple":9466,"Authenticated":9467,"TENANT":9468,"Hub":9469,"Tax":9470,"vl":9471,"agination":9472,"\",\"":9473,"Ġhours":9474,"InstanceId":9475,"Ġclassloader":9476,"anceled":9477,"CacheKey":9478,"entityType":9479,"Compile":9480,"Terminal":9481,"QUO":9482,"ĠĠĠĠĉĊ":9483,"primary":9484,"Ġrelated":9485,"ĠBoxRequests":9486,"herited":9487,"SUPP":9488,"Cr":9489,"ptr":9490,"pred":9491,"getK":9492,"ssues":9493,"UserId":9494,"dataSource":9495,"uda":9496,"Ġsessions":9497,"Ġui":9498,"ĠAccessController":9499,"ĠManagement":9500,"Ġanimation":9501,"ĠEdge":9502,"aled":9503,"getActual":9504,"deli":9505,"Ins":9506,"InstantiationException":9507,"Ġdynamic":9508,"ĠScan":9509,"KeyException":9510,"ĠPut":9511,"INE":9512,"Ġrv":9513,"ĠFunc":9514,"ErrorHandler":9515,"Configurations":9516,"ĠfindAll":9517,"Statements":9518,"Decision":9519,"Ġcommands":9520,"Handles":9521,"Representation":9522,"TML":9523,"gs":9524,"ĠEnvironment":9525,"getOut":9526,"Ġbs":9527,"setLast":9528,"Ġhad":9529,"Dependent":9530,"Anchor":9531,"most":9532,"entityCache":9533,"KED":9534,"Clusters":9535,"filtered":9536,"components":9537,"Phrase":9538,"written":9539,"cyclerView":9540,"Front":9541,"Lng":9542,"Ġleg":9543,"alpha":9544,"orian":9545,"getArtifact":9546,"Ġscheduler":9547,"Ġinjector":9548,"versed":9549,"Ġaverage":9550,"ĠDel":9551,"INVO":9552,"OrNull":9553,"Ġassigned":9554,"(',":9555,"Observable":9556,"Ġneighbor":9557,"ĠasyncHandler":9558,"Ġrotation":9559,")];":9560,"Face":9561,"Micro":9562,"Own":9563,"getLevel":9564,"inte":9565,"ĠStringReader":9566,"ĠgetKey":9567,"Ġaround":9568,"orders":9569,"IndexOutOfBoundsException":9570,"ĠAuto":9571,"fact":9572,"ĠOtp":9573,"cols":9574,"Ġclause":9575,"Linear":9576,"Servers":9577,"Related":9578,"numRows":9579,"Ġdifference":9580,"stitute":9581,"ĠSecurityException":9582,"getComponentType":9583,"Ġ'.'":9584,"Cas":9585,"Net":9586,"Raster":9587,"atures":9588,"getMethods":9589,"getSelected":9590,"Ġmolecule":9591,"imits":9592,"Ġincoming":9593,"ĠSup":9594,"ĠCR":9595,"Ġtran":9596,"KeySpec":9597,"ĠOK":9598,"ĠVirtual":9599,"ookeeper":9600,"Alarm":9601,"ĠgroupId":9602,"PoolSize":9603,"Initialization":9604,"PAGIN":9605,"JSType":9606,"www":9607,"CURRENT":9608,"PAGINATION":9609,"Hole":9610,"RGB":9611,"Ġpref":9612,"ValueMap":9613,"ĠInstall":9614,"Ġappropriate":9615,"Ġstreams":9616,"DecimalFormat":9617,"rollback":9618,"hasMoreTokens":9619,"Optim":9620,"Aud":9621,"Polling":9622,"cb":9623,"Ġcd":9624,"Ġcos":9625,"Ġsketch":9626,"FileSize":9627,"exclude":9628,"ĉĉĊ":9629,"Outcome":9630,"park":9631,"ConnectedException":9632,"hostname":9633,"Ġstopped":9634,"Realm":9635,"Ġqualified":9636,"PdfName":9637,"tinuation":9638,"40":9639,"Dates":9640,"Lazy":9641,"MimeType":9642,"boot":9643,"mot":9644,"olic":9645,"processed":9646,"Ġlogic":9647,"Ġoutside":9648,"cording":9649,"ograph":9650,"ĠqueryString":9651,"THER":9652,"utting":9653,"Ġspecify":9654,"ĠĠĠĠĠĠĠĠĠĠĠĠĠĠĠĠĠĠĠĠĠĠĠĠĠĠĠĠĠĠĠĠĠĠĠĠĠĠĠĠĠĠĠĠĠĠĠĠĠĠĠĠĠĠĠĠĠ":9655,"ApplicationContext":9656,"contents":9657,"Ġexpired":9658,"memory":9659,"ĠInvalidArgumentException":9660,"Ġmarked":9661,"getNodeType":9662,"Ġconsole":9663,"aas":9664,"keep":9665,"simple":9666,"environment":9667,"ifPresent":9668,"setOutput":9669,"andatory":9670,"ĠINode":9671,"reserve":9672,"Ġalarm":9673,"ACL":9674,"resourceName":9675,"ymbolic":9676,"Ġcompact":9677,"1024":9678,"Physical":9679,"getDataType":9680,"ĠUtility":9681,"Multipart":9682,"folder":9683,"mc":9684,"Ġable":9685,"ening":9686,"Ġturn":9687,"esh":9688,"Ġfar":9689,"Ġbc":9690,"Ġbmd":9691,"viction":9692,"Chooser":9693,"LogRecord":9694,"rawl":9695,"BitSet":9696,"Ġ'\\'":9697,"Identifiers":9698,"Ġ'{}'\",":9699,"ĠTraceComponent":9700,"DL":9701,"License":9702,"Ġ=>":9703,"Ġtw":9704,"Exec":9705,"())).":9706,"ĠgetConnection":9707,"Ġconsume":9708,"vided":9709,"Chrono":9710,"ĠLat":9711,"ĠGlobal":9712,"ĠcurrentTime":9713,"Ġsubset":9714,"Memo":9715,"\\\\.":9716,"Ġlocate":9717,"modified":9718,"Spi":9719,"Ġraf":9720,"Ġ'/'":9721,"JAXBElement":9722,"iom":9723,"getThread":9724,"isError":9725,"edora":9726,"Instant":9727,"vie":9728,"ToUse":9729,"Choice":9730,"ĠMult":9731,"There":9732,"shift":9733,"codePoint":9734,"created":9735,"Ġkernel":9736,"Ġuses":9737,"slt":9738,"Ġvisited":9739,"ĠHandle":9740,"atron":9741,"getCommand":9742,"Ġred":9743,"Ġlinked":9744,"Ġhalf":9745,"Dev":9746,"ĠPool":9747,"INPUT":9748,"ĠObjectName":9749,"Ġupgrade":9750,"chematron":9751,"DocumentBuilder":9752,"ĠlocalName":9753,"which":9754,"Ġauthorization":9755,"getResourceUrl":9756,"ILD":9757,"Ġobserver":9758,"Temporary":9759,"getLocalName":9760,"Gradient":9761,"pkg":9762,"envelope":9763,"getStackTrace":9764,"urther":9765,"Ġpi":9766,"Ġsyntax":9767,"Construct":9768,"Restore":9769,"otif":9770,"imated":9771,"ĠgetMessage":9772,"ĠCDKException":9773,"INS":9774,"ĠfieldType":9775,"<?>,":9776,"ĠĠĠĠĠĠĠĠĠĠĠĠĠĠĠĠĠĠĠĠĠĠĠĠĠĠĠĠĠĠĠĠĠĠĠĠĠĠĠĠĠĠĠĠĠĠĠĠĠĠĠĠĠĠĠĠ":9777,"elementAt":9778,"when":9779,"Ġdescribe":9780,"Ġderiv":9781,"ircuit":9782,"IBond":9783,"fn":9784,"mult":9785,"idence":9786,"Ġvpn":9787,"Ġdao":9788,"Ġoperand":9789,"osen":9790,"Ġgit":9791,"ĠJAXB":9792,"principal":9793,"Ġchecks":9794,"ACC":9795,"possible":9796,"ModelImpl":9797,"ĠtimeUnit":9798,"worker":9799,"regorian":9800,"ĠProgress":9801,"ĠSubject":9802,"Ġroles":9803,"ĠParameterizedType":9804,"Compatible":9805,"ĠSoy":9806,"ĠFactory":9807,"Ġeverything":9808,"BINARY":9809,"Grammar":9810,"RST":9811,"Tmp":9812,"rad":9813,"variant":9814,"stone":9815,"getExpression":9816,"Ġpoll":9817,"amps":9818,"Ġsip":9819,"Ġreload":9820,"ĠgetE":9821,"ĠMax":9822,"ĠInstantiationException":9823,"REA":9824,"ĠOptions":9825,"UrlLocation":9826,"Ġoffsets":9827,"POD":9828,"fld":9829,"SERI":9830,"override":9831,"ĠStage":9832,"ĠMETHOD":9833,"getPrimaryKey":9834,"ĠMediaType":9835,"getStyle":9836,"Ġcross":9837,"Ġsender":9838,"indices":9839,"IND":9840,"aves":9841,"UrlFormatter":9842,"acer":9843,"ĠComms":9844,"AccessFile":9845,"HttpURLConnection":9846,"annotationType":9847,"findFirst":9848,"SERT":9849,"Ġreplaced":9850,"ĠDBID":9851,"BOOLEAN":9852,"FTP":9853,"COMMIT":9854,"Assertion":9855,"Ġdidn":9856,"ĠUrlFormatter":9857,"CASE":9858,"IMP":9859,"PP":9860,"Rew":9861,"ience":9862,"ĠAr":9863,"getGeneric":9864,"ingStrategy":9865,"Ġfraction":9866,"rier":9867,"Ġdt":9868,"ĠgetText":9869,"aken":9870,"comparator":9871,"ĠparamName":9872,"ĠrowIndex":9873,"Closeable":9874,"projectIdOrPath":9875,"Ġgoing":9876,"help":9877,"SCRIPTION":9878,"SPECI":9879,"ĠVALUE":9880,"*(":9881,"Google":9882,"Payment":9883,"nf":9884,"Ġmac":9885,"Restart":9886,"quared":9887,"ToRemove":9888,"Ġ15":9889,"ĠDI":9890,"ĠPost":9891,"ĠBO":9892,"ĠLI":9893,"Ġrsp":9894,"Ġanchor":9895,"writeValue":9896,"ClientExecution":9897,"Ġassum":9898,"Ġminutes":9899,"ĠgroupName":9900,"handlers":9901,"Ġchannels":9902,"primitive":9903,"relationId":9904,"ĠPrimitive":9905,"DISPLAY":9906,"BIG":9907,"DFS":9908,"junct":9909,"attachment":9910,"Ġtim":9911,"getStorage":9912,"Ġeps":9913,"Ġvc":9914,"Ġvals":9915,"ĠgetColumn":9916,"ĠCloud":9917,"Ġtool":9918,"ooth":9919,"classpath":9920,"could":9921,"Ġ30":9922,"TimeoutException":9923,"Phone":9924,"Ġphoto":9925,"ĠBitSet":9926,"PLACE":9927,"ĠAggreg":9928,"mbeddable":9929,"munic":9930,"34":9931,"CLA":9932,"Ele":9933,"Hour":9934,"SR":9935,"criteria":9936,"ĠEND":9937,"ĠĉĊ":9938,"getActive":9939,"isk":9940,"ĠgetElement":9941,"Ġprogram":9942,"ĠBus":9943,"ĠRed":9944,"pacing":9945,"Preconditions":9946,"Ġplay":9947,"fromString":9948,"Termination":9949,"AsyncResult":9950,"ĉĉĉĉĉĉĉĉ":9951,"ĠservletContext":9952,"Ġ\"-\"":9953,"CY":9954,"RY":9955,"Wave":9956,"dt":9957,"deserialize":9958,"norm":9959,"Ġ('":9960,"Ġpeek":9961,"Ġpivot":9962,"anal":9963,"Ġproviders":9964,"Comput":9965,"ynonym":9966,"ĠReport":9967,"iterals":9968,"ĠHttpMethod":9969,"Acceptor":9970,"Webflow":9971,"Ġsending":9972,"ĠbeforeClientExecution":9973,"Ġunderlying":9974,"ĠInputSource":9975,"Ġvertices":9976,"WAIT":9977,"CN":9978,"CALL":9979,"Dn":9980,"INode":9981,"Pe":9982,"VIDER":9983,"operator":9984,"ĠExtension":9985,"Ġpages":9986,"Ġpipe":9987,"Ġbroker":9988,"Ġrecovery":9989,"Console":9990,"imation":9991,"ĠgetLast":9992,"ĠMessages":9993,"ĠMtas":9994,"NodeId":9995,"ĠPolicy":9996,"RECORD":9997,"antity":9998,"ĠDevice":9999},"merges":["Ġ Ġ","ĠĠ ĠĠ","ĠĠ Ġ","ĠĠĠĠ ĠĠĠĠ","i n","e r","e t","o n","ĠĠĠĠ ĠĠĠ","a t",") ;","r e","s t","l e","Ġ {","Ġ =","e n","a l","i on","ĠĠĠĠĠĠĠĠ ĠĠĠ","Ġ t","Ġ }","o r","c e","Ġ ĉ","Ġ n","Ġ (","g et","in g","t r","Ġ i","( )","u r","Ġ p","a n","Ġ c","r o","a r","e s","c t","i t","a m","s e","u l","Ġ f","i c","d e","S tr","en t","Str ing","u t","Ġt h","p t","ĠĠĠĠĠĠĠĠ ĠĠĠĠĠĠĠ","Ġĉ ĉ","r et","e w","a s","Ġi f","i s","a d","ur n","Ġ s","ret urn","Ġ Ċ","at e","u e","u b","č Ċ","( );","e d","Ġ e","Ġ b","ul l","c h","E x","pt ion","in t","ĠĠĠĠ Ġ","I n","Ġ return","Ġn ew","i l","a p","am e","l o","/ /","l ic","i st","i d","Ġ re","p e","Ġ \"","Ġ m","t e","Ġn ull","ce ption","a g","Ġ v","a b","u n","Ex ception","ub lic","C on","o l","Ġ //","o m","at ion","Ġp ublic","Ġ +","e ct","r i","( \"","t h","i le","ĠĠĠĠĠĠĠĠ ĠĠĠĠĠĠĠĠ","c k","y pe","in al","Ġ String","Ġ st","e l","S t","as s","Ġ d","ab le","m ent","N ame","o de","R e","ro w","i g","x t","Ġĉĉ ĉ","r a","al ue","o t","i m","Ġ o","l ass","Ġ in","Ġ w","i f","t er","L ist","p er","s et","j ect","T ype","() )","s s","Ġth e","i z","Ġ= =","E n","ul t","ag e","o d","ĠĠĠĠĠĠĠĠ ĠĠĠĠĠĠĠĠĠĠĠ","Ġ 0","Ġ !","u m","Ġ get","v er","en d","Ġth row","p ut","Ġ int","e y","ad d","Ġ S","P ro","o ur","Ġ a","b ject","() .","Ġf inal","Ġf or","o id","u p","Ġ C","an d","il d","Ġ l","at h","Ġ! =",") )","our ce","e m","Ġv oid","at a","at ch","I d","\" );","Ġc on","v e","Ġt r","() );","Ġt o","Ġre s","f f","es s","\" ,","Ġ I","A r","a se","Ġst at","q u","o un","er s","ct ion","O bject","o o","Ġ h","R es","le n","F ile","p l","Ġe l","M ap","u s","Ġ T","L o","Ġel se","ar t","de x","p on","Ġth is","Ġstat ic","q ue","g th","c on","B u","iz e","D e","re n","v i","Ġp ro","V alue","T o","st an","im e","tr y","Ġ <","Ġ &","[ ]","t o","i b","ra y","que st","Ġ :",") );","e xt","f ig","ap p","re s","Ġ -","te xt","le an","Ġi s","C lass","Ġ lo","it y","len gth","per t","ar am","ren t","or m","i el","or t","oo lean","iel d","Ġ& &","() ,","a in","re am","Ġe x","E R","C h","r it","s er","Ġĉĉĉ ĉ","at or","a ck","i r","ct or","o s","f inal","ri v","Ġ de","Ġc h","Ġ M","K ey","f o","A t","Ġthrow s","et h","le ment","riv ate","Ġ 1","ess age","ad er","vi ce","Ar ray","g er","eth od","b u","or d","Ġp rivate",") .","ild er","al l","P ath","O N","stan ce","it ion","C om","o w","Ġ D","u re","k ey","a ce","n ew","r or","a y","ĠĠĠĠĠĠĠĠ ĠĠĠĠĠĠĠĠĠĠĠĠĠĠĠ","N ode","ce ss","on g","S et","re ss","in e","Ġ P","i es","ĠĠĠĠĠĠĠĠ Ġ","ut e","l i","re ate","a ch","in d","pon se","it h","g e","A n","app end","Ġc atch","I N","St ream","Ġ @","y te","S er","Ġb oolean","e ck","o re","Ġ j","al se","Ġb e","th is","en er","ff er","oun t","Ġtr y","Ġ >","o ub","oub le","al s","Con fig","an s","D ata","o ut","Ġres ult","re ad","t il","tr ib","ro m","e x","Ġ B","u ment","e c","Ġv alue","Pro pert","o p","n ect","e qu","In dex","v ent","m o","n ame","i re","Con text","Ġ A","U til","Ġ |","Ġ L","a x","Ġ g","Ġb u","ur rent","Bu ilder","Ġ r","Ġ *","o int","+ +","Ġf alse","a st","Re quest","c ri","a k","ĠĠĠĠĠĠĠĠĠĠĠĠĠĠĠĠ ĠĠĠĠĠĠĠĠĠĠĠĠĠĠĠĠ","v al","Ġ In","ct ed","c lass","Ġ List","en ce","C ol","Ġs et","ctor y","i al","Ġ en","St ate","Ġ Object","E lement","Ġ F","R E","st r","T ime","o c","t ain","f a","Ġc om","Ġtr ue","f orm","i p","A T","te m","k en","h t","U n","O Exception","Ġ H","Ġn ot","- -","able d","F a","T ra","Ġ( !","an n","er y","U R","as k","equ als","Ġ .","l l","i ve","li ent","p ro","In fo","M essage","c l","oun d","En try","P aram","c om","ro up","Ġ| |","S T","b er","u st","Ġ J","rit e","F ield","I D","O f","Ġ se","l y","p ort","En abled","nect ion","Ġ )","v alue","s ize","Ġw h","Ġo f","as h","Ġ O","y st","fa ult","l er","pon ent","Ġ add","ĉ ĉ","Ġlo g","yst em","trib ute","y n","t ent","um n","t p","Ġc ase","u le","l et","E N","o st","ach e","Ġ R","bu g","O ver","S e","ur ation","Ġ N","lo ck","f er","Ġf ile","Ġ '","ri de","ig n","ar get","a ct","Ġ on","o f","Ġin stance","T r","Ġn ame","i x","le ction","put Stream","pt y","T h","Res ource","an ag","Propert y","re d","il ter","mo ve","ĠI OException","Ġ key","a v","Lo g","Ar g","s ion","Ġ( (","Ġ at","B y","0 0","Ġ _","Ġw e","L E","Lo c","s on","to String","St at","u se","] ;","Over ride","A d","o b","d ate","lo g","I m","le g","Bu ffer","if i","ar se","O R","d er","u es","er ror","Ġ ar","V al","A L","H e","Ġt ype","M ethod","Res ult","E r","Ġ ?","p r","p ress","Ġo ut","S ize",") ,","ter n","Ser vice","f or","Q u","Util s","Ġv al","Ġ File","ess ion","Er ror","um ber","++ )","Ġ G","re ak","ff set","Ġi t","m pty","te ger","es cri","ode l","anag er","Res ponse","a rent","am es","< ?","Ġc reate","Ġ Array","rit er","f ile","O G","Ġs er","a il","Ġ and","lo se","t tp","E vent","t es","or k","M E","te cted","an ge","O ut","r y","Ġl ist","leg al","H and","Ġd ouble","et er","A R","i v","ir st","c cess","l legal","il l","Ġ W","> ();","C ount","iz ed","ig ht","ut h","Ġpro tected","r ap","Ġinstance of","t s","In stance","Ġl ong","Ġd ata","get Name","s h","At tribute","M et","ar y","g ist","fer ence","an g","Arg ument","Ġ čĊ","de d","re e","i ew",". .","N ot","p os","in dex","ĠĠĠĠĠĠĠĠ ĠĠĠĠ","c o","Ġre quest","Com ponent","er t","n ull","lo w","M anager","r on","Ġc ol","Ġin dex","Ġp ath","Fa ctory","Ġp aram","m l","y p","Ġs h","Ġch eck","Ġ x","Ġ Map","Ġi d","S E","Ġ V","ers ion","E mpty","ing s","c ode","Ġ an","Ġ /","c ol","c ord","t ime","Ġ un","ĠI llegal","re f","A ll","Ġres ource","ot ation","get S","D E","in k","W ith","L e","F orm","De f","> >","ĠĠĠĠĠĠĠĠĠĠĠĠĠĠĠĠ ĠĠĠĠĠĠĠĠĠĠĠ","Ġst art","Ġb reak","Con nection","T I","e at","p ace","Ġ al","ate d","Ġ up","s ub","C ode","T able","or y","t ype","Ġst r","To ken","N ull","ĠC lass","v el","O r","ĠT h","L en","A p","ar i","e st","de bug","pt or","ec ut","Ġ 2","n ext","pr int","Ġwh ile","Stat us","Ġb yte","c reate","\" )","Ġm ethod","( (","F or","ĠArray List","Ġf rom","Ġc lass","I tem","p le","\" ;","un d","an ce","Tra ce","a ction","st art","Ġ or","tain s","F rom","Ġres ponse","c a","ar n","B e","Con stan","us er","p a","Ġc urrent","Ad d","Qu ery","press ion","P oint","G roup","Ġf ield","ption s","ow n","w rite","T E","r l","C lient","UR L","yp es","c urrent","Config uration","h as","O n","ck et","Hand ler","Tr ans","a ve","pe c","S S","qu ery","Ġw ith","er m","Ġn ode","on e","Ġ );","get P","Ġ Re","U rl","In ter","T ext","ch em","Ġcon fig","A N","m and","ur l","Ġre ad","er e","ar d","T Y","List ener","A C","U p","str ing","D escri","en try","Ġc l","Con tent","ul d","p o","ol d","En t","av a","U ser","D ate","at tern","op y","val id","P os","ĠL OG","Ġd o","ad ata","if ic","o uld","Ġen try","id th","Ġ ret","] .","res ource","Ġe xt","con tains","C ache","Col umn","Form at","lo ad","per ation","b ack","oc ument","Ġs b","Ġĉĉĉĉ ĉ","a c","Propert ies","ab el","ter ator","is Empty","Ġpro pert","Len gth","A s","th row","ann el","it er","s g","N ames","T ask","re move","form at","-- --","Ġ y","id er","ĠS ystem","Argument Exception","tain er","Ch ar","Ġ end","lo at","g in","ĠC ol","V iew","Ġcon text","Ġth at","t c","Ġar g","Ġb y","Ent ity","p ath","R O","Constan ts","ent ity","Ġ k","en sion","Ġh e","Ġt c","S ource","p ar","S h","<? >","ch eck","Ġ ro","An d","un ction","An n","p s","Ġ E","St art","\" ))","L ine","d ata","S I","yn ch","N umber","g ment","st ra","Ġm ax","Ġde fault","In t","oo k","c al","o k","ari able","Ġn e","Ġm essage","Ġ+ =","ynch ron","M odel","Ch ild","En d","Ġ as","an t","end s","b j","un time","atch er","a z","m p","F ilter","res ult","get Value","Ġs ub","Ġ le","m it","ut es","et ers","ĠIllegal ArgumentException","ĠĠĠĠĠĠĠĠ ĠĠĠĠĠ","Ġ Exception","ref ix","p oint","lic ation","f t","th er","V ersion","ire ctory","Ġm ap","tr ol","pl ace","By tes","Ġp re","Ġo bject","g n","con d","v ider",". \");","N ext","ile d","Ex ecut","c od","F I","Ġ> =","le ct","C O","De fault","In teger","gist er","U T","m in","chem a","l ist","ĠH ash","ifi er","Ġs u","l ine","Ġt arget","get C","T ag","in fo","ĠC h","m ap","c ing","it s","ar ch","p end","Ann otation","P E","Val id","c as","Ġch ar","Add ress","ch ar","in ition","Le vel","ĠString Builder","Ġ{ }","pl et","c ur","c le","it ial","He ader","ser vice","Ġlog ger","s um","UR I","S ub","ynchron ized","C E","> (","n er","Im pl","ĠIn teger","od y","Ġ- >","Ex pression","c lose","Re ader","A ME","IN G","ĠS et","o x","An y","D ir","Ġt ime","Ġh as","trib utes","R o","Ġtr ans","C ase","s ing","ra w","u d","c ount","R ow","b e","c y","h e","ĠT r","Ġ all","up port","Ġa re","Ġser vice","str u","w ord","S ON","G E","Ġbu ffer","M od","P o","co pe","Ġh and","B yte","rap h","W riter","ĠC om","r c","Ġn ext","Ġst ate","b yte","' t","y m","p arse","Ġ ass","Ġe lement","L I","sub string","= =","Ġin put","A l","y le","Pro cess","Ġ X","Ġ error","()) );","ar k","ar ser","Ġl ast","und le","Ġ %","re quest","Ġp os","Ġf ind","pl ate","Lo ader","Tra cing","ver t","Ġs ize","P art","Param eter","()) )","U N","Ġc all","ri g","Loc al","C ON","Ġbu ilder","lic y","gn ore","Ġup date","ĠCol lection","L ong","v let","qu ire","Ġ length","S ystem","Ġ user","In putStream","Ġf irst","x y","r ic","get Class","A ccess","Ġw rite","ak e","f ace","O ffset","l n","Ġs ynchronized","A uth","Descri ptor","Be an","od es","q l","C all","B ase","it or","ĠĠĠĠĠĠĠĠĠĠĠĠ ĠĠ","Re f","Ġs ource","let e","Th read","Tracing Enabled","Re ference","EN T","is Any","Ġint er","tr ue","T ypes","d ouble","< >();","Ġp arse","Re cord","Def inition","Ġĉĉĉĉ ĉĉ","az z","isAny TracingEnabled","M L","B lock","U E","Val ues","M A","Q L","f ield","Ġe vent","Ġfor m","Ġ Con","St ore","e b","F eat","pa re","at er","o g","print ln","S ession","P l","ack age","D is","yn c","con fig","Ġn o","Ġp arent","H ttp","N AME","U L","St ack","pl it","Ġs o","M em","iz er","ca le","p aram","S u","p re","Un it","at es","Lo ck","ag es","e e","Ġ use","ut ure","Ġext ends","i a","A ction","Ġ query","Ġ url","G ER","se d","At om","Ser ver","ord er","pl y","Ap p","Met adata","S c","A b","ib le","ol der","Ġt able","Ġ row","m ax","if y","\\ \"","Ġo bj","m s","Ġc lient","Pro vider","Col lection","a len","L A","Ġi m","ifi ed","M P","Trace Component","t in","Re ad","Ġval id","it e","ust er","A D","n ode","Ġch ild","Ġc ount","T ree","Ġcol umn","ific ation","us h","ec ute","Ġpro cess","at ive","T R","ate g","Ġto ken","Ġc an","Im age","em plate","T arget","bu ild","D el","es c","Ġout put","* *","( '","L O","l ong","T H","get Message","ĠĠĠĠ ĠĠ","ind ing","Ġo ffset","d ar","Ġh ave","De bug","Ġre move","Ġi tem","ĠM ath","le d","H el","H ash","Ch eck","at ab","Con tainer","Ġm in","Ġ* /","P re","iz ation","O ptions","Ġĉ ĠĠĠ","ad ers","G ener","J son","Ġfinal ly","Ġt ask","Ġpropert y","N O","im it","ĠH ttp","AT E","I OException","Ġ< =","Ġf a","in ation","K E","Ġcon nection","ĠĠĠĠĠĠĠĠ Ċ","Loc ation","N on","get Key","Ġm et","pe cted","Ġb ase","d u","Ġval ues","C H","N o","Ġl ine","is Entry","im ple","isEntry Enabled","ect or","ĠĠĠĠĠĠĠĠĠĠĠĠĠĠĠĠ ĠĠĠĠĠĠĠĠĠĠĠĠĠĠĠ","atab ase","M ode","Ġn um","Pos ition","ot al","m ethod","cri pt","Ġm atch","Ex t","Ġ z","Ġs c","Out putStream","ann ot","u al","l ast","r id","a it","] );","get M","untime Exception","ic k","F F","Ġp art","++ ;","v ed","Ġ Node","ar g","In put","V AL","le ctor","un n","alen dar","O ption",".. .","ce s","u de","D O","ĠS er","lo c","Ġ 3","par ator","AT I","a ir","Ġf ound","p ing","oun ter","T ER","tin ue","Q ue","Up date","Ġcon tent","lo b","Ġs ession","Param s","r u","Ġex ception","o us","it ch","st ream","C l","w ork","at ri","ur i","ist s","W arn","ent ic","S pec","o cket","a f","et ry","ĠHash Map","D B","W idth","D irectory","Ġ} );","l ag","Hel per","D ocument","O peration","a pt","I terator","is h","TY PE","ay out","S up","i e","Ġt ext","g roup","get Id","Ġ [","Ġbu f","or age","Pro ject","pro pert","A ss","V ariable","tern al","ĠS ib","atri x","Ġs w","F ound","w arn","el l","o in","TI ON","p ublic","am p","ap e","em p","Ġar ray","Ġstr ing","B ound","R ule","ĠSib Tr","H ost",") {","Ġ app","Ch annel","Ġd is","F A","Out put","a red","a use","Se gment","ce pt","L OG","Ġst ream","State ment","A P","Ġc ache","Ġro ot","Ġf ilter","Con trol","p en","Que ue","Ġm ust","P attern","r ame","D I","o ord","Ġform at","st ination","mo te","J ob","# #","T A","Ġa ct","A ct","Ġ Type","rap per","upport ed","cod ing","u gin","Ġg roup","Ġg ener","F unction","V ER","ĠI f","Ġw ill","m on","pos it","P age","is sion","L ink","res ponse","ill is","bu ffer","stra ct","v ok","con text","int er","Ġ/ *","Com mand","Ġp l","F irst","Ġo ther","ser ver","ass word","fo re","Ġ old","ind ow","Ġ U","\" ));","Field s","W ork","is Debug","am ple","Ġsh ould","ru pt","D ouble","Met a","ic al","row able","\\ \\","ym b","k ip","i o","ig h","Fa iled","R el","st at","equ ence","r am","get Type","posit ory","Log ger","L abel","ĠB yte","read y","Or der","E d","At tributes","t arget","P O","Ġby tes","Ġ ad","R ange","isDebug Enabled","Col or","P RO","P arser","Ġarg s","p ic","Ġm od","cle ar","p h","B LE","log ger","P er","Ġon e","Ġsu per","Ġp oint","e vent","iter ator","w er","Warn ings","Ġb lock","Ro ot","s With","Execut ion","en cy","ent ifier","i de","()) .","c ase","value Of","un k","Ġc ode","A c","---- ----","Ġ entity","ap i","ser t","Ġt ra","ch ed","ann otation","B ody","c re","Ġbu ild","Param eters","d ition","Ser vlet","f ind","rig ht","r int","has Next","g ress","De cl","Ġlo cal","6 4","G et","ut t","Ġ len","p an","ymb ol","w ith","c opy","Ġa c","re place","Ġf loat","Ġlo ad","gist ry","Sup press","m essage","ob j","Ġm sg","ĠR untimeException","m ary","ar ray","I f","KE Y","ail able","ATI ON","a le","Ġp o","Ġne ed","quire d","' s","ust om","Ġ 4","tr ies","val ues","v is","ex it","M atch","V ar","b oolean","at ure","to col","St yle","act er","M illis","Trans action","Ġpropert ies","t ings","Suppress Warnings","stru ctor","s cri","s ource","g ine","Ġc lose","N um","S equence","Ġc ur","d b","Ġser ver","it em","Ġcon tinue","char At","t x","stra int","\" ).","I gnore","res ent","Ġhe ader","Ġs pec","ĠLOG GER","p arent","ation s","in put","Ġv ersion","f alse","st ate","vi ous","T O","ĠL ong","ire ct","State Exception","a re","m atch","Ġ Un","ist ance","tr act","B oolean","f rom","s ol","utt on","es ource","{ }","Ġj son","n ot","tr ans","ĠĠĠĠĠĠĠĠĠĠĠĠĠĠĠĠĠĠĠĠĠĠĠĠĠĠĠĠĠĠĠĠ ĠĠĠĠĠĠĠĠĠĠĠĠĠĠĠĠ","E C","ĠĠĠĠ Ċ","pl ay","ed Exception","il ity","index Of","M I","Ġ\" ,","u res","Ġat tribute","n um","sum er","ĠN o","Inter face","Ġw as","V is","Ġn umber","< >(","Ġass ert","to ken","P ort","it ies","Pro xy","Key s","on t","Ġt ag","c lient","om ain","ign ature","ver sion","Ext ension","F uture","red ent","e lement","Ġin itial","f l","Ġw ork","File s","Ġparam s","He ight","E X","cas Type","m ain","f ilter","m er","Ġc al","\" .","M ax","end er","ĠD ate","en ers","get Property","ut ion","ess ages","a w","Po ol","Ġ\" /","ach ed","R I","L ast","m d","iv ity","Ġcl azz","st amp","w h","Ġon ly","S ec","Ġan y","S cope","o bject","A X","pro cess","Ġde lete","ol ve","' );","U ri","s or","En um","s c","om etry","ult i","Ġcon vert","res h","Ġr un","b ase","vok e","S H","e p","R et","t able","UL T","f ter","ver ter","Ġde f","Element s","De c","Ġsw itch","Ġlist ener","P ER","resource s","start sWith","el se","x ml","J SON","cl ude","Buffer ed","get Instance","Ġw riter","Ġcom p","entic ation","ĠJ son","ic s","le cted","ut able","m et","ĠIllegal StateException","r ag","B undle","ers ist","and om","Loc ale","S chema","n own","N ew","P ri","S ocket","Ġ{} \",","p lo","Ġ( \"","Map ping","E L","contains Key","P refix","W rapper","ption al","Time out","' )","Ġhand le","Ġal ready","ĠD ouble","on d","lob al","it le","up date","st ore","apt er","S ER","G raph","Ġdo es","Ġcom ponent","Ġ URL","add All","App lication","Ġc opy","ĠJ SON","ay er","m t","Ġresource s","VAL UE","Ġj ob","ER R","U M","ch ild","E D","T emplate","Ġa uth","ition s","ĠD ata","re g","que ue","u g","get D","c er","Id s","B ox","Ġth read","Ġor ig","erm ission","Ġlo ck","Com p","tr im","te x","Not Found","ĠĠĠĠĠĠĠĠ ĠĠ","Ġre f","Ġb ut","B U","d ater","Ġre cord","d own","is sing","ĠB oolean",")) );","Ġ us","ook ie","tr a","Ġlo c","b ers","l ation","W eb","qu al","s ure","M on","Ġre gister","im al","val u","Ġh ttp","Ġo ver","o ffset","ro und","P air","Ġm odel","( _","plet e","Ġi ter",". \",","Ġstat us","red ic","Ignore Case","plo y","om e","L ayout","ment s","check ed","all y","Ġre ader","de fault","FA ULT","Ch ange","if act","entry Set","u id","at ing","col umn","s b","ĠTh e","Ġn ames","Ġ q","Ġparam eter","S C","Ġj ava","= \"","et work","Not Null","oord in","ay load","P ackage","Ġ Log","c ip","Mod ule","h and","i tr","Ġt emp","St orage","v ailable","et ch","S QL","o le","00 00","con tent","orm al","ing le","V er","Ġparam eters","S P","Ġ K","Stack Trace","co ver","Ġĉĉ Ċ","Ġh ost","C alendar","ap ply","s plit","get String","eat ure","I s","ĠI m","Ġv iew","B ack","Ass ign","Ġ uri","Ġex ist","lo t","M atrix","re gister","ERR OR","] ,","ic h","Ġm em","code d","bu f","Ser ial","Ap i","NotFound Exception","et ail","le ase","D oc","de lete","He aders","N odes","Ġp er","Execut or","X ML","ateg y","up le","Ġd ate","in ary","i er","m od","pos ition","n s","Ġin fo","ur ity","Th e","Ġs end","Res ol","com p","er r","sol ute","Ġt mp","c ul","Call back","ĠĠĠĠĠĠĠĠĠĠĠĠĠĠĠĠ Ġ","ĠT ime","b inding","Ġim age","ĠM ethod","Met ric","g le","Ġ order","ang ed","f s","F IN","b y","p art","Feat ure","[] )","M in","0 1","n al","po licy","d is","Ġ\" '","ent er","d d","Ġd escri","Ġs rc","and id","C lose","im ension","l d","P arent","Descri ption","T erm","Ġ< <","Ġt otal","j ava","out put","propert y",": :","Ġ Pro","Ġ} ;","Ġconfig uration","a uth","Ġin it","Ġa ction","Ġcom mand","Del et","Ġo ptions","Ġde l","equals IgnoreCase","Ġp ort","tr ace","Ġ\" .","s l","Ġb ack","Ġex p","ht tp","t ach","le m","ĠTh read","en u","Ġth ere","f loat","pend ency","Ġth en","an k","u ct","in ed","P AR","i se","f irst","A g","N ON","v oc","Bu ild","ĠTh is","o ot","ex ecute","ĠCollection s","i que","Re gistry","Process or","Ex p","Th rowable","dater esource","i ent","In valid","ri ver","at as","ed ia","ĠO ptional","ce ptor","put e","L S","redic ate","UT F","or ity","ĠTr ans","Po licy","ang u","t ask","C urrent","ĠW e","Ġ+ +","form ation","s u","ast er","ink ed","Ġpos ition","Ġ ab","at al","ay s","s ession","Ġ' \"","En gine","Ġp refix","ĠI terator","ca use","vi ew","I ter","Ġm ake","Ġst ore","b reak","Ġ De","ro ot","T T","stan t","Ġ( _","un checked","P an","t ml","ĠM essage","e ar","Ġ 8","H E","Ġe mpty","Ġ Path","Ġex ecut","Ġ Element","ĠIn putStream","get R","o ver","C reate","Ġpro ject",")) )","Ġ annotation","Ġarg ument","lag s","s upported","s p","if f","im um","cod er","g ed","ĠA p","C ell","B utton","c ache","Ġ Resource","s pace","I T","A GE","j son","h er","rupt edException","g ing","V E","W rite","d ir","i als","vi ron","g or","3 2","J ava","n ap","get F","gor ith","ĠS QL","ĠCh ar","Ġ ag","sh ot","Ġhand ler","m sg","' :","En coding","he ader","t a","in ish","Ġp ri","Ġ\" );","ol y","MA X","ĠS e","U P","] [","m utable","LA SS","t ing","bu ilder","ĠHash Set","angu age","w ner","P RE","Ġn ow","arg s","Ġex ecute","In ternal","Ġp attern","per ator","Ġi gnore","in es","Ġch annel","Lo wer","con nection","A Y","w idth","Bound s","Ġ right","Ġ Buffered","ang es","em pty","Gener ator","Ġle ft","ĠF ield","ĠCh eck","c all","m b","Ġd b","ert ific","ut o","mer ce","Ġ\" +","s rc","Hand le","W indow","main ing","Ġ ed","im er","ĠP re","Ġwh en","V ector","Ġ URI","tem pt","ol l","V I","f low","ut down","ort ed","Ġat tr","voc ation","Se arch","viron ment","Ġm ay","Ġv is","Id x","com pare","w e","O P","Ġp age","in stance","Con nect","get Resource","As ync","r an","Ġin d","M sg","ĠĠĠĠĠĠĠĠĠĠĠĠĠĠĠĠ ĠĠĠĠĠĠĠĠĠĠĠĠĠĠĠĠĠĠĠ","GE T","C ur","s To","ched ule","Ġbe en","At tr","i od","Ġ ,","y s","ial og","t ag","Ġbe fore","Ġl abel","nap shot","Ret urn","Z E","g ion","Class Name","itr o","Ab solute","S O","Ġ Response","ST R","> )","gorith m","Ġfa ctory","W h","n itro","Ad apter","ver s","b o","Class Loader","S pace","Dec imal","G e","Ġr ule","Arg s","Str ategy","F O","Ġp ut","Ġ u","d f","Ġn on","D S","redent ials","ĠIn ter","AC E","unn ing","Ġo peration","Ġ append","Ġ Z","ex ists","Le ft","M O","Id entifier","ĉĉ ĉĉ","On ly","i ces","h ost","Ġwh ich","ĠI N","D ig","or s","d o","Ġ\" \";","il er","ac ity","ĠG et","t ed","Ġh ash","stat us","cre ment","low ed","H older","ĠA b","en c","S cript","rag ment","B it","Valid ation","Ġc annot","Con dition","Ġvalid ate","(\" /","Ġbe an","Ġat om","Ġresult s","g ener","n e","Ch ain","D C","O bj","ap acity","Fa il","ertific ate","Ġv er","Ġst op","o ve","g r","Ġ Key","ĠL inked","00 0","i pe","end ing","M S","st all","O T","du ct","Meta Data","In d","Ar t","Ġex pected","atas et","1 0","m atcher","Mem ber","ce ll","B l","up dateresource","SI ON","Time Millis","c s","String Builder","ri e","pro ject","form er","getP arent","atal og","Ġs ql","wh ile","Tra ck","End point","le ar","Ġth an","Ġcon f","cond s","I L","Ġc or","pt h","get Path","Ġre ference","Ġw idth","Set tings","Ġser ial","C T","Ġse arch","ang le","o ther","e an","l abel","Ab stract","A li","S um","m em","IN T","Ġ Request","Lo ad","get Attribute","mit ive","Ġse gment","ix el","con nect","M ENT","== ==","ro p","Con verter","e et","Ġgener ate","af e","i ce","Ġat tributes","C ounter","Ġd irectory","D esc","ult ip","as ic","ĠT O","lo cal","Con straint","by tes","p ed","U ID","ut il","ug h","ff ix","Ġpro ps","P resent","cl azz","## ##","Ġcon tainer","Ġre place","> ()","k nown","Ġst ack","qu ence","in it","Ġa ccess","ign ed","unn able","Ġpre vious","Ġ St","ry pt","Names pace","Ġd ir","key Set","F rame","Constan t","** **","Ġmet adata","String Utils","( !","b lock","ack et","ĠIn valid","Ġf unction","Ġv ariable","new Instance","w ard","Ġa fter","W ord","Ġt est","Ġd oc","Child ren","M ark","Ġadd ress","ance l","Ġs kip","get Re","Str uct","EN D","Ġle vel","SI ZE","ĠP oint","Z one","m odel","Pro gress","P ermission","Q U","i k","n o","in ce","ĠT o","Ġfa iled","Map per","anag ed","in cip","id x","M an","j casType","Ġ qu",": \"","S te","Ġs chema","M atcher","Ġm app","ĠArray s","log y","N e","print StackTrace","ateg ory","ex pected","Ġtrans action","Ġorig inal","Ġx ml","Pro tocol","Ġfield s","Ġfile s","Ġlo ok","ĠAb stract","get T","Ġh ere","Ġmod ule","g reg","p c","Ġbe cause","FI X","Pro file","Null able","Su ch","D atabase","P AT","Ġf ail","propert ies","] )","Ġr ange","op en","M ath","Ġpro p","Cl uster","at tribute","I C","t en","re en","Ġ queue","g round","Con f","()) ,","N LS","de f","Ġs um","Ġint o","R ender","Ġw ait","Hash Map","Ġ Stream","lic k","n ow","Ġp rint","ro ll","Ġ 6","ĠS h","Ġ 5","Point er","ploy ment","A M","Ġv ar","D ay","oo gle","Ac count","Ġs ame","Ġde st","le ft","Ġcall back","ver se","ud it","Ġclass Name","e k","ire ction","M issing","ch ange","i ate","er ge","Ġuse d","Ġp arser","Ġo p","current TimeMillis","andid ate","Ġid x","Pl ugin","DE FAULT","i as","P ar","S ymbol","Re p","ĠB ig","iv ed","Ġd ocument","Ġt emplate","mo ved","Lower Case","P ost","Ġb undle","Class es","Resource s","Method s","ĠS I","get O","ĠTO DO","um e","Ġj ust","ĠA dd","D etail","l ish","Ġb ound","ĠM o","Un able","li p","Ġ Ex","X ml","Ġs cope","Inter val","Delet e","S U","LO C","List eners","Result s","s end","Non null","B atch","Ġc tx","and ard","En tries","n ames","(\" \\","Rel ation","com ponent","Control ler","to Array","Ġex pression","L imit","r ation","ist ory","M essages","Col lector","ĠĠĠĠ ĉ","incip al","O L","Ġd on","t y","C ould","j ob",")) .","Byte Array","P arse","Mem ory","TT P","Con sumer","TI ME","Column s","Decl ar","Ġ// $","A BLE","Ġcl uster","Ġs plit","Date Time","Ġt erm","Stat s","a o","TE D","ĠO ut","Ġe ach","Ġi terator","Ġre quired","Ġ RE","i ed","re cord","F OR","er o","Re pository","Ed ge","Ġre port","loc ation","I P","Ġm ore","th ing","m ark","ĠW eb","Char acter","ren cy","ann er","ce d","Ġo pen","U s","Ġ Query","ran ch","en s","oordin ate","To pic","get Absolute","ĠX ML","scri ption","s ql","get B","Ġb it","y cle","Item s","il y","Ġl imit","r un","1 2","Ġde stination","Qu al","U S","h ash","ifi ers","Ġcon n","com mand","match es","is ion","in voke","am ed","Bu cket","Ġelement s","O pen","id d","De stination","Part ition","In itial","ĠD B","um p","Con structor","Ġcon nect","s w","to LowerCase","0 9","ect ion","C LASS","ĠD E","pe ct","ure d","I G","ĠString Buffer","ĠByte Array","ad i","TA G","igh b","C annot","Ġloc ation","lo pe","Ġre q","M enu","c or","Ġhe ight","Ġm ark","Act ive","Ver tex","F low","ĠSer vice","as on","Se lect","ign ment","ix ed","W e","or g","Ġin sert","Sh ort","Ġc lear","Ġtime out","Art ifact","Ġcon trol","SE T","Ġf ull","ab ility","De vice","riter ia","FI LE","Resol ver","R un","Ġ\" )","ex ception","AT A","ĠSQL Exception","v h","get Field","Ġp ost","Ġb ody","P h","q Path","Ġl ink","valid ate","NO T","b ox","Ġ ge",". _","Ġ Properties","} );","Ro le","File Name","p ri","+ \"","P assword","h s","ends With","-------- --------","m ail","m ar","Ġp ar","Ġm on","cond itions","D ER","ĠT ree","get Time","ĠC reate","Ġ1 0","b ound","Ġres olve","I llegal","ee k","ib ility","g on","ĠĠĠĠĠĠĠĠĠĠĠĠĠĠĠĠĠĠĠĠĠĠĠĠĠĠĠĠĠĠĠĠ ĠĠĠĠĠĠĠĠĠĠĠĠĠĠĠĠĠĠĠĠĠĠĠĠĠĠĠĠĠĠĠĠ","Sec urity","M IN","Ġre l","a int","ĠM et","UL L","or ter","p refix","chem e","ib r","oly gon","O p","Ste p","ser v","Ġservice Name","Non Null","Ġmethod Name","array copy","' ,","CO L","c ent","Ġ Result","get Node","Ġkey s","A S","ee p","rig ger","re ct","Ġpro xy","ss ible","Ġd atabase","Ġapp lication","Act ivity","Ġexist ing","Ġi mp","O F","Ġn odes","Pro ps","C opy","tach ment","++ ]","1 6","Ġ Property","l f","t ypes","/ {","S ignature","Byte Buffer","Row s","Ali as","Up per","ĠTh rowable","AN CE","ĠS imple","ri b","AT TR","l ush","Ġt ypes","Q UE","ĠĠĠĠĠĠĠĠĠĠĠĠ Ċ","O UT","d oc","or ig","ĠĠĠĠĠĠ Ċ","re a","ĠĠĠĠĠĠĠĠĠĠĠĠĠĠĠĠ ĠĠĠĠ","add ing","p age","Ġstate ment","Ġs ystem","Ġres ol","Ġex tract","Ġch ange","e as","c ast","x is","at tr","r incipal","ĠI D","get Data","ĠD ocument","Ġj casType","oc i","getAbsolute Path","ĠĠĠĠĠĠĠĠĠĠĠĠĠĠĠĠ ĠĠĠĠĠĠĠĠĠĠĠĠĠĠĠĠĠĠĠĠĠĠĠ","s ort","vis ion","l at","re set","F S","cul ate","mb ed","T ick","[] {","l ink","Ġre n","Ġt x","Pro p","w riter","E S","c an","in itial","ge x","stru ct","Ġ ;","SE CON","An im","T ile","Ch unk","cas Feat","Re port","plet ed","Ġa vailable","Ġpo ol","ub lish","im age","Ġor g","Ġdefault Value","Ġext ension","Ġmet ric","l ing","un c","ĠG ener","St op","yn t","Servlet Request","o ptions","Group s","ce ived","Ġ raw","de st","Ex pr","Ġcom pute","1 1","o te","w s","Ġt ree","Ġo ption","parse Int","ersist ence","F older","a j","it ude","n umber","On e","on ical","add ress","Ġ> >","Ġchild ren","VER SION","Ġ Value","st yle","am ily","PO ST","LOG GER","ĠT ask","ab s","ĠIm mutable","st op","AC K","r s","D own","e ded","i ver","P A","Valid ator","o e","Pan el","he ight","Bu f","ĠN ot","Pre ference","Ġo b","Ġre set","Ġhe aders","stru ction","Ġus ing","ĠN umber","P I","Ch anged","EC T","ot t","d escri","con f","Array List","! =","o u","Format ter","Ġtra ce","Ġ Default","Ġc lean","Ġf eature","pre c","Ġw ord","form ed","w o","ĠG e","F ull","R ed","c p","Ġ Configuration","as List","En vironment","imple Name","l ers","Dis play","U se","get Bytes","re ader","resh old","s es","OR T","Ġ( )","Fail ure","ag ing","oo p","Not ification","Ġcol lection","enc ies","Ġnames pace","Ġmet a","Ġ Attribute","Ġpre v","R ight","Auth entication","Ġde cl","be an","t ree","Ġp assword","Ar ch","B inding","Ġd own","2 01","D uration","k er","s ist","re q","cover y","in s","get Default","ĠF F","Ġ\" ]","M AT","Tag s","M ore","Ġ Index","E ach","t mp","Pl an","Ġget S","Ġo pt","ari ant","c at","Se lected","C re","J ar","p ost","ol t","fer red","d s","PRO PER","ĠB ase","AL L","j o","ist ics","Ġpro vider","vis it","Assign able","Ġst yle","Su ccess","a ded","i an","! \");","TER N","c cur","ott om","B ar","b ody","Ġp ackage","AT OR","Ġact ual","U I","param s","Ġren der","v ar","Ġto p","ibr ary","g es","Ġpart ition","Ġo ff","con vert","Ġlo cale","D ialog","Ġt ile","T est","Object s","ire d","Inter ceptor","param eter","D omain","ĠT able","O M","Ġ apply","it es",": //","lic it","col lect","Ġĉĉĉĉĉĉ ĉ","adi us","list ener","not Null","Ġwe b","C ustom","Ġse cond","B ind","F loat","op ul","getC urrent","ĠI ter","O b","Ġa v","Token s","Serial izer","W rit","es er","D raw","I con","Ġm an","Re mote","Ġf uture","ax is","c atch","sh ip","he ad","H T","N etwork","X T","Ġ Config","ve lope","Ġcol or","A SE","ject ion","ĠJSON Object","Ġo ur","D istance","e ed","fl ush","set s","\" ),","L IN","x FF","ch annel","Ġcom pare","S p","LI C","A vailable","g oogle","Ġs ave","ĠFF DC","J oin","if t","ĠTo ken","Com mon","UN D","B O","Ġ Context","Ġre p","Ġ User","AR T","K ind","Ġm atcher","Com mit","Ġen tries","< /","l imit","Ġ1 6","Argument s","class Name","B Y","f ull","Ġm ode","Ġs ince","te st","u x","ul ar","yn am","M ulti","en ded","Ġre mote","Ġto pic","ers on","Ġse quence","ched ul","ĠTime Unit","Ġsh ort","Ġun it","d k","x ff","Ġ Error","j oin","ro ugh","pend encies","Ġ api","Ġsu ccess","B ond","Ġc ause","ĠA ss","D i","Ġinitial ize","hand le","Ġ Expression","Ġd ig","Ġfile Name","ynt ax","Assignable From","app ed","G rid","s n","Ġ Entity","set Property","Ġde let","v m","Time stamp","m ed","get Status","Ag ent","L ayer","m a","Ġn ormal","tem p","lo sing","Ge ometry","art ifact","Task s","Bl ank","S K","Ġ[ \"","O B","redent ial","l ang","app lication","en se","Ġget C","Ġitem s","Decl ared","get In","Ġspec ified","Ġ' \\","O K","at om","Ġcon tains","ist rib","Ġact ive","Ġpl ugin","id get","S L","ĠP arse","Ġen c","du cer","Ġwh ere","PRE FIX","Al gorithm","EN TI","ĠV iew","ĠByte Buffer","ĠPre conditions","Path s","Ġg o","is AssignableFrom","ĠString Utils","ĠInter ruptedException","cur ity","eser ial","ex p","Ġs ign","MP TY","Execution Exception","A fter","Array s","Ġc ould","Ġinter nal","AP I","Ġd st","res pon","ff ect","Ġargument s","D ATA","Ġcon dition","ĠM od","leg ate","CO DE","Ġpro b","Ġj ar","Ġit s","D river","Ġen v","ac cept","ces sed","en code","de l","Fa ctor","Ġf rame","O perator","ĠJ ava","yp ed","ĠS ec","TE XT","c r","Ġs p","res sed","EN G","Ġg raph","gist ration","w ait","if est","Option al","T x","al le","Ġs ort","Declar ation","le vel","Mod ified","se gment","Index Of","STR ING","c ard","iter al","Vis ible","PAT H","Ġres p","Ġs cale","Gener ic","AN D","A rea","Ġ cell","Ġ\" \\","Ġthe m","En c","Th is","Ġdescri ption","(\" ,","iv en","Ġinter face","get Context","o ck","Annotation s","ĠSer ver","h a","ĠF unction","T emp","w ise","Ġ Connection","Ġen sure","po logy","ol ution","Ġcon tain","R ect","Metric s","H tml","Ġcon structor","Point s","get X","U UID","Access Exception","Ġc f","pro p","up lic","let on","vers ation","or ization","Ġ Constants","cl u","<? >>","Ġtoken s","Ġb ind","Ġm ain","ad s","el y","An al","ultip le","getS impleName","Ġimp lement","T uple","Ġd istance","Ġvis it","U RE","p attern","Ġc ounter","ation Exception","C an","j ust","ition al","Ġbu cket","Ex ists","Ġen coding","t ual","Ġcolumn s","Ġen code","for Each","} /","D b","H ex","c c","Ġ \\\"","Ġst orage","At tempt","Mon itor","i res","Ġpro file","ĠP attern","ST ANCE","ro y","Ġ> >>","ĠM odel","n et","get First","B E","In formation","Un ique","(( (","config uration","Ġr s","st ri","pl ier","Se lection","esc ape","eas ure","} ;","Ġsc an","rie ve","clu ded","t otal","De pendency","[] []","et a","pos ite","We ight","av en","S imple","Ġse lect","B its","ol low","a ccess","st ack","Ġs cript","T itle","use d","0 2","Ġlo op","D ao","p atch","in sert","ynam ic","RE AD","a un","im es","To p","m y","Ġs pace","Ġch unk","Ġend point","get Request","CE SS","Ġ Annotation","ĠC lient","po se","ph a","S ign","get Local","ĠA l","ot o","Sum mary","FIN E","add Body","ser ial","S ingle","(\" .","Ġex ists","gener ate","W ait","n t","Ġp h","Ġc ustom","se lect","ĠO vh","Format Exception","replace All","ing Box","ip her","ĠN ull","Ġso cket","S ql","er ation","s ystem","Ġde vice","Ġch ain","Ġmethod s","FI EL","J S","S upport","m ake","get Parameter","Struct ure","Ġ[ {}","Ġs ome","able Future","Ġt ri","Ġfile name","ample s","ex ecut","Stat ic","G lobal","I S","ĠV ector","F ont","I O","v id","get Child","D ATE","E l","Ġre lation","getM ax","C ertificate","Re move","C apacity","get Int","J ECT","res olve","pro file","w rap","Ġ Util","Ġd one","m ission","col or","LI ST","ĠA uth","Ġb atch","Ġ. ..","ifi able","Inter ruptedException","un lock","Ġd if","ME SS","2 5","Ġ State","im iter","en v","sh all","Ġ ra","Ġs ure","Ġm erge","f eat","() ];","add r","su per","( @","get Method","ap s","O wner","w ays","Ġc re","Ex ternal","ĠIter able","g ative","Ex tra","VAL ID","Detail s","o om","et Address","Re gion","L anguage","Ġ- =","Im p","Ġ Content","get Y","ĠB ox","8 0","D ataset","W AR","Ġpoint s","ĠNo Such","QUE ST","it ive","Re quired","Id entity","con tainer","Ġj oin","ĠB it","Se lector","Ġcreate d","Ġ- -","ĠBig Decimal","ĠP aram","Service s","(\" %","I TY","Ġp ayload","A V","B inary","Ġin valid","to p","Ġmapp ing","To ol","Ġbe st","Close d","Ġ Event","Ġh igh","ĠDE FAULT","i i","s ide","pa red","Variable s","Ġm e","ĠIm age","String s","age ment","Un known","ĠJ ob","Ġclass es","CON T","R ate","tem plate","C RE","ĠUn supported","Ġdescri ptor","Ġo s","F T","ĠF orm","compare To","S cale","Sc ore","Mem bers","oot str","lo ud","Ġst ep","Ġ(! (","last IndexOf","Ġst mt","Ġh app","Ġtrans form","ĠO peration","ĠLinked List","> \");","int Value","trans form","Ġ Enum","Ap pend","plet ion","Ġpart s","db c","D K","p n","r ule","Ġex ec","valu ator","get User","In f","ipe line","get Column","(\" \\\\","PROPER TY","Ġlist eners","Ġal low","get Length","Ġin clude","ĠC ache","Com plete","Us age","Re gister","R untimeException","In ner","S ection","o v","ID s","Im port","Pri mitive","C ookie","Ġn s","Vis itor","prec ated","S lot","g ram","Ġ Local","Ġbe gin","SECON DS","th e","Ġconvert To","c ret","est ed","W N","ĉĉ ĉ","Cur sor","H TTP","o peration","ootstr ap","per and","Ġexecut or","inish ed","R untime","d i","P redicate","o pt","Ġs m","pro xy","Ġac cept","met adata","Ġad ded","Ġs upported","ver y","ir tual","riv ile","get Text","Event s","Ġ| =","W eek","en e","ON E","C R","Ġd i","MA P","get Content","ST ART","get File","ĠG it","C P","s chema","Ġ 7","C or","se arch","CH AR","loc ate","ĠO n","current Thread","S Y","L at","N S","N E","w n","H O","ff ers","con trol","ĠOut putStream","ĠĠĠĠĠĠĠĠĠĠĠĠĠĠĠĠĠĠĠĠĠĠĠĠĠĠĠĠĠĠĠĠ ĠĠĠĠĠĠĠĠĠĠĠ","UR CE","Ġse e","ĠT ra","Ġar r","B us","o ice","act ive","\" :","G r","ist ing","Ġde c","cl uster","Ġd s","aun ch","z ip","C redentials","Un supported","Table Name","throw s","met ric","Ġcl s","ur ing","F ragment","U uid","P ixel","Ġĉĉ čĊ","Com ment","we en","stat s","P UT","Ġre al","sh ort","o urn","Ġw ant","add resource","oun try","Se parator","Ġrow s","Ġth rough","Ġm y","cl ud","plet ableFuture","M ar","p atcher","et ween","Atom Container","set Name","At tachment","s pec","F ind","m anager","hand ler","] \",","ĠByteArray OutputStream","av ig","In vocation","C lick","set Value","L ook","ge st","CO M","9 9","s ent","As String","re port","get Object","Ġre moved","E qu","ĠC alendar","NO DE","ĠAp p","P rint","Ġtra ck","Pan e","ĠS ub","Ġde code","Ġmem ber","ar m","Ġb ond","d raw","Com parator","ĠP l","2 4","RE QUEST","Ġse lected","TA BLE","FIEL D","m ine","w eb","st it","all back","chedul er","b ind","Ġex tra","Ġim port","Arch ive","ĠBuffered Reader","5 09","et ect","ul a","res p","Ġ\"/ \"","SO URCE","Upper Case","T ri","Ġ En","Mon th","er n","CO MP","ĠCom mand","Ġ\" :","cl us","pre vious","S napshot","Ġĉĉ ĠĠĠ","Ġpro vi","ha vi","s cope","ss ue","Del ay","BY TE","alle l","C ategory","Ġin voke","Sc reen","S plit","Ġc md","IN STANCE","format ter","Ġne eded","serv able","Ġ ap","ace s","LE TE","Ġal ias","has More",") (","J B","ib m","Track er","b l","Ġin st","Bu g","w are","Ġ Project","M ask","Ġcon sumer","get Host","se parator","Be fore","ĠCol or","Sc an","f ound","iz able","Ġlo ader","F lag","O D","lo ader","mbed ded","g lobal","con n","RE N","BU TE","v server","row ser","Ġcur sor","P ayload","Ġc p","IN FO","pre v","L Y","Ġc ached","Ġen coded","Ġs ignature","our s","d ocument","Ġdel ta","De pth","Ġcal culate","I BUTE","N ING","MESS AGE","b it","M s","re quire","(\" <","Ġw indow","ĠJson Object","In it","Error s","R aw","get Width","oordin ates","B ig","-- ;","r t","(\" [","Ġ1 000","Ġmatch es","Sh ape","b undle","ĠF or","ĠSer vlet","#### ####","Ġp air","R andom","row s","for Name","F lags","I M","A G","B ER","V oid","Ġset tings","p ush","C L","LIN E","W OR","lo sure","Ġd im","To String","eter mine","Trans form","A UT","Ġb l","O k","ĠP rint","Ġr unning","child ren","Ġpo ssible","s d","Ġ err","Ġr andom","ĠF ilter","LE D","D imension","FI G","Ġf ire","t act","get Height","cl one","Ġf low","th read","OR Y","ĠClass Loader","al t","Ġs ingle","time out","Ġregister ed","Y ear","SQL Exception","Ġm ove","Ġw rit","Ġb its","ass ert","AC T","d a","re lation","Ġi oe","um ul","Ġcom mit","ĠR et","Feat ures","T imer","act ers","EX T","H istory","lo ok","Ġsh ow","ĠRe pository","po ol","ĠTrans action","E LE","is Directory","HE AD","ON G","P ublic","f ine","s kip","Token izer","D Array","I ON","get All","Ġde bug","mod ule","ĠChar acter","Ġ artifact","Ġs upport","Su per","Iter able","D iff","f ul","ĠM atcher","ites pace","M edia","om er","Re place","Valid ate","R M","am er","ro id","Id ent","Ġser vlet","f eature","r ange","Ġhe ad","word s","Se q","Ġ Update","Ġ} ,","Segment s","m e","Ġpro gress","Back ground","d omain","am l","id s","Ġm essages","valu ate","Ġlook up","Ġfield Name","g able","im pl","==== ====","Ġnot ify","M D","Part s","Per iod","Log ging","o ption","Ġ Process","Ġal lowed","Ġag ain","u ch","Ġd ay","Char s","AP P","ik e","Ġre maining","Ġat tempt","ĠRe ad","AC HE","& &","Ġ am","ion s","ist ic","Se cond","Re al","AC TION","y z","Ġ' %","Ġper form","ourn al","L ines","cur s","Pointer Exception","c f","av ailable","Ġdis play","Ġdoes n","BU G","S ync","get End","ATTR IBUTE","Ġp ass","Pro duct","He ad","D AY","R AY","Ġm anager","Ġ\" \");","set Attribute","warn ing","re ference","Ġchar acter","Ġed ge","A xis","Ġd uration","File Path","Ġmap per","ce ive","Ġproperty Name","Ġĉĉĉ Ċ","fer ent","sh ow","> ,","Ġd omain","Pro b","A uto","j ar","an ts","key s","com plete","ĠFile InputStream","t f","Ġ Entry","Ġre gion","Stat istics","D D","ction ary","ĠD is","1 8","Ġp ermission","Ġc a","S yntax","le ep","Type Name","ĠA ction","' ;","ator s","o ff","Util ities","Data Source","ST ATE","Up load","Ġthe y","De precated","is Trace","Data Type","Ed it","Ġt wo","Ġi p","ĠB ean","ĠIn ternal","Ġret ry","C S","ing Exception","ĠR unnable","Ġtime stamp","ĠT ext","Work er","re c","orig inal","Ġh el","Ġz ip","v en","Ġ Utils","Id Or","con tinue","service Name","P acket","at form","Ġc ookie","ss l","Ġcom plete","Trans port","Ac cept","Ad min","2 0","g ra","Ġ Y","ith er","ĠL e","andid ates","**** ****","Ġhapp en","ENG TH","Ġparse d","Servlet Response","Ġ Name","De st","Ġobject s","ĠSer ial","is Null","stant i","l uster","Ġo ccur","ĠS AX","URL Connection","CON N","CON FIG","O ri","S w","Ġ Logger","es e","ul k","Ġg iven","Ġid s","Rule s","VI CE","' re","Ġ\" \\\"","ff ic","idd en","get Annotation","Ġc alendar","ud io","o Package","ct x","Ġin ner","Ġerror s","Ġformat ter","R etry","le ss","= \\\"","b ar","Instance s","E qual","get Declared","lo cale","al formed","Ġs ent","Ġro le","Ġs sl","Component s","T otal","Ġ\" \"","[] >","Ġch anged","Dig est","Ġcon straint","com merce","Collector s","ess aging","Ġexecut ion","mem ber","a im","Ġun ique","Ġcal led","Ġ Locale","Ġt itle","c m","Ġ( @","Com merce","Ġcheck NotNull","Ġre c","add resources","de code","ĠM AX","Ġinter val","F E","P T","m ode","Trans former","L ENGTH","ĠX ml","Ġ qual","se ction","g raph","Ġ Atom","Ġre pository","ĠO b","<? ,","P ersist","get Next","Sec ret","Ġdef inition","Ġd raw","Ġsh utdown","ce iver","r apped","s ync","DE X","Ġ Build","Ġget All","Ġdef ined","ys is","uplic ate","e er","er ic","LO W","Ag greg","C oord","L L","L LI","Ġ Q","tr ack","Ġi v","names pace","Ġpro tocol","to UpperCase","Ġde pendency","ĠI tem","ĠB asic","met a","l ate","y y",". <","O S","T ab","ĠS ession","Ġf lush","com mit","Operation Exception","S pan","p ol","St age","if ec","get Start","g o","w t","get Last","ol ume","RE D","Ġver ify","et ter","Ġo wner","E MPTY","al ance","Ġs ymbol","ht ml","Ġwe ight","TH OD","ifec ycle","C TION","h ip","v ariable","Ġuser name","s igned","ĠFile OutputStream","Ġcur r","A udit","D irect","R unning","Ġl ayout","Ġq Path","Assign ment","Encoding Exception","O pt","get Error","ro ker","updateresource s","Ġc andidate","ĠM E","ĠCom pletableFuture","Qual ified","C ore","j cas","p assword","re qu","ĠĠĠĠĠĠĠĠĠĠĠĠĠĠĠĠ ĠĠĠĠĠĠĠĠ","get Index","av ed","ee per","Ġtable Name","Constraint s","Ġm atrix","Sub ject","ri es","ra ction","AR Y","t itle","cl s","Ġre lease","Ġd esc","ĠSec urity","Ġex pr","Field Name","og ram","cess ary","re lease","as es","param eters","P TION","Sub scription","U B","U SER","ĠJ S","5 5","ĠS chema","By Id","TI VE","at tributes","Ġ( );","ject or","ĠAss ert",", \"","G RO","Ġm ulti","fa il","ĠR ect","sh eet","getS h","s ave","get Entity","ĠS T","sh utdown","Ġ Status","ist ogram","C ost","L iteral","getM in","ex pression","sw itch","M Bean","Ro ute","d istance","s cale","ĠN O","Ġno thing","shall er","get Connection","Ġ\" -","Ġg lobal","Ġal ways","Cl ause","PAR ATOR","casFeat Code","Ex pected","un der","Re gistration","Configuration Exception","Al lowed","FOR MAT","clud es","als o","ĠĠĠĠĠĠĠĠĠĠĠĠĠĠĠĠĠĠĠĠĠĠĠĠĠĠĠĠĠĠĠĠ ĠĠĠĠĠ","TR AN","Block s","ol er","ren der","p ack","Ġin putStream","li ce","ĠV ersion","Extension s","c ustom","s v","AL I","file Name","C atalog","Ġf s","M aster","pa ir","o th","Ġf etch","Util ity","fa ctory","Ġz ero","get Component","Return Type","ĠZ ip",") \",","el et","ĠH and","i ct","v ing","is Not","Ġ\" ).","ĠAp i","C ACHE","N ative","get E","ĠCol umn","Ass ert","Ġpre pare","In sert","C al","l ash","re l","Ġp ush","ĠR el","N ULL","Ġ Storage","er nal","ew ork","ram ework","G L","I TH","d ig","Ġget P","Ġlo wer","LA Y","ĠD escri","ag n","ĠF loat","put All","Ġg rid","com pute","be gin","u i","u ally","v ance","de stination","Ġb ox","MI T","ĠParam eter","W S","ĠB lock","bo se","Anim ation","F inal","F ixed","ĠĠĠĠĠĠĠĠĠĠĠĠĠĠĠĠ ĠĠĠĠĠ","AX B","S id","ĠT R","part ition","Mark er","point s","G en","iv es","next Token","/ *","ĠP air","Date Format","A m","g en","Ġto o","ĠP age","process Exception","Ġun til","az y","Ġupdate d","MI LLI","f ill","to ByteArray","IN TER","Ġm issing","Ġget Class","ĠO r","a N","u ce","Ġp ending","to List","Ġmem ory","Request s","Ġen gine","opul ate","S ent","Ġ also","Ġb inding","un it","ctor ies","field s","chedule d","F amily","t l","getS ource","ĠNull PointerException",") \");","O ps","ent ion","ĠL ine","Ġclose d","( -","Ġ []","im ate","ĠA d","descri ption","ur able","ĠIn t","ĠRe f","Su ffix","OB JECT","in crement","Ġl ines","No Such","D at","S end","Trans ition","vid ers","CONT ENT","Ġi i","Ġsub ject","Ed itor","ier arch","u per","Ġ ent","arg ument","Label s","ic le","Be gin","LOC K","havi or","C odes","H int","app ing","ĠA ccess","} ,","is Log","double Value","ĠG raph","Bit map","ust ers","Ġne ver","D irection","m x","Look up","By Name","rupt ed","UM N","d ap","Ġl ayer","Ar r","E sc","Ġf eat","AN T","rivile ged","P RI","f ire","k g","SE PARATOR","<?> )","Ġav oid","Ġcom mon","Ġrequest ed","Ġj s","DE BUG","Ġs up","il li","UN K","Ġind ent","Ġd irect","ple x","W E","Ġd ist","Ġpo licy","ELE MENT","k etch","Ġs orted","IdOr Path","b b","i ol","Ġy et","S ort","c ore","201 8","ro ss","Ġst ill","ext ension","Ġ1 2","AUT H","I p","p ackage","se conds","Api Exception","En coder","DE LETE","po ch","getC ause","token s","Ġge ometry","Tick et","De ployment","Hand lers","C oordinate","s afe","re mote","re maining","ĠĠĠĠĠĠĠĠĠĠĠĠĠĠĠĠ ĠĠĠĠĠĠĠĠĠĠĠĠ","ĠCh annel","v as","IN VALID","Ġid entifier","Column Name","par ser","Ġne ighb","sum e","Target Exception","s ocket","an ization","P rincipal","s ynchronized","Ġf lags","Number Of","Render er","respon ses","File name","se lf","Ġf ollow","ĠC all","Out Of","Ġprovi ded","f w","Ġd iff","em pl","Ġcon s","op es","Ġup per","result s","ĠH e","ĠW ork","Access or","is Present","Ġcon verter","Code c","Ġchar s","oler ance","() [","Ġ3 2","A v","get Service","AT US","ĠV ariable","Ġle ast","in clude","Ġd uring","set Text","Interface s","Ġauth entication","N UM","De pendencies","Pl ace","f unction","n ormal","Ġc enter","is Valid","(\" -","or ld","an onical","ĠCom ponent","Hash Set","z u","ch or","IN DEX","SS ION","check NotNull","H as","Ġre gistry","read Line","Ġsu ffix","HEAD ER","pro ps","Ġas ync","B ASE","Ġk eep","R ing","Z ip","ir ation","ĠO p","pre pare","! !","M o","S o","Ġw rapper","Ġpl ace","look up","get Version","Ġm d","EN ER","Definition s","Ġs napshot","Ġe qual","Ġ\" ;","bo ard","Ġcor rect","ĠMo zu","le v","Ġre st","Ġse curity","Ġsh ared","RO OT","SP ACE","Ġdelet ed","O FF","] ));","c md","Ġ? >","comp ile","ĠApp lication","Ġt rigger","get Root","SER VER","ĠMozu Url","S A","S kip","a u","b ed","ook ies","Ġchar set","cre en","Ġresol ved","O ff","Ġd etermine","Ġtask s","Parse Exception","ime Type","Ġbound s","in ner","Connection s","Ġpri mary","Ġt s","Ġw ould","ĠI O","Ġevent s","aj or","ĠGe ometry","u ff","Ġf ill","AR RAY","Dis patcher","T st","Mod ifiers","AD D","part s","Dig its","Ġrel ative","ro ad","Ġ1 00","throw Feat","trans action","feat Ok","throwFeat Missing","featOk Tst","Ġconfig ure","f rame","l ab","n on","ing leton","Ġm ask","getClass Loader","Ġgroup s","Ġtag s","E V","ĠH TTP","d x","ĠĠĠĠĠĠĠĠĠĠĠĠĠĠĠĠ ĠĠĠĠĠĠ","ĠĠĠĠĠĠĠĠĠĠĠĠĠĠĠĠĠĠĠĠĠĠĠĠĠĠĠĠĠĠĠĠ ĠĠĠĠĠĠĠĠĠĠĠĠĠĠĠ","Table s","getP ort","t d","Draw able","P adding","d ates","new Builder","RE S","Ġact ivity","M anaged","ee ded","Ġdel ay","Ġmon itor","oci ated","C ap","is s","ĠC ode","SS L","valu ation","Log in","Ġwith out","Ġret rieve","under a","s q","s ign","Con version","Ġstat s","bu cket","Se conds","field Name","oll ing","Ġfail ure",". \"","/ \"","ĠĠĠĠĠĠĠĠĠĠĠĠĠĠĠĠ ĠĠĠĠĠĠĠĠĠĠĠĠĠ","Ġget Value",")) ,","res ol","Ext ended","gra de","L ibrary","P C","s cript","Ġst ri","Ġd id","file name","user name","Ġvalid ation","Relation ship","Syntax Exception","Vis ibility","amer a","isLog gable","d im","get Num","Ġf lag","Ġre quire","Col s","(' .","il ities","ĠĠĠĠĠĠĠĠĠĠĠĠĠĠĠĠĠĠĠĠĠĠĠĠĠĠĠĠĠĠĠĠ ĠĠĠĠ","Ġ ^","in ing","en ant","get Atom","av ax","ĠMo jo","b ook","Map p","Ġse ction","call back","1 5","ro t","se cond","C ert","T rigger","U SE","Ġs ync","Ġl anguage","Ġen abled","Sub scri","Mod ifier","F ore","Ġt ick","get Response","()) {","En v","Ġg r","ced ure","am b","ex tract","Error Exception","Access ible","ĠNo te","Ġp resent","Ġmatch ing","Ġsh ape","PAR AM","rypt ed","se quence","ĠH tml","MO DE","i et","Action s","In tent","ĠC LASS","ĠĠĠĠĠĠĠĠĠĠĠĠĠĠĠĠĠĠĠĠĠĠĠĠĠĠĠĠĠĠĠĠ ĠĠ","Ġcom ment","Ġ(( (","ized Type","Ġcomp iler","Ġf ree","Ġl ar","Ġmax imum","V AR","l ator","at ew","Pro ducer","c umul","de cl","Ġse lf","Not ation","we ight","Ġdif ferent","ut ation","In stall","St andard","Ġmetric s","U sed","o ugh","Ġt imer","ad manager","ĠĠĠĠĠĠĠĠĠĠĠĠĠĠĠĠ ĠĠĠĠĠĠĠĠĠĠ","Ġin formation","ĠRe cord","Gener ated","Ġac count","j s","or iz","or ary","ver age","co ord","ĠU I","P ut","W idget","Ġc ancel","Ġlo w","Http Client","Ġper iod","TERN AL","I ST","d ay","u c","get Long","An gle","ĠĠĠĠĠĠĠĠĠĠĠĠĠĠĠĠĠĠĠĠĠĠĠĠĠĠĠĠĠĠĠĠ ĠĠĠĠĠĠ","execut or","d atabase","Ġ ans","Ġ/ **","Ġ\". \"","Ob server",") :","B ranch","element s","L ab","P ORT","Ġ\" _","Char set","inter nal","C A","Ġstr uct","G u","V ert","Ġcom b","Ġk now","JSON Object","mod ifiable","Ġdecl ar","er ies","Ġd imension","reg ion","z one","ur al","Ġnew Value","Ġy ear","Mapp ings","c lean","ĠĠĠĠĠĠĠĠĠĠĠĠĠĠĠĠ ĠĠĠĠĠĠĠĠĠĠĠĠĠĠ","s List","ic on","UR N","Comp at","avig ation","E M","G IN","Ġt ab","get H","Com pleted","Preference s","B order","ĠDate Time","ĠSe arch","N aN","c ule","en tr","Ġignore d","de vice","Th reshold","And Get","Reference s","b eat","Ġs ample","(); )","Ġbe ing","Method Exception","Sh ared","copy Of","is on","ed ge","Re st","ĠT ypes","-- )","Number FormatException","N amed","S ample","ut ures","Set ting","F etch","P L","r andom","Ġp ack","Ġb inary","getC anonical","process or","WAR NING","P ack","ol ym","En coded","auth entication","S afe","Ġs lot","Ġre ason","to pic","RE F","agn ost","E mail","P ass","d irect","x j","ag er","Http ServletRequest","Wh itespace","C LO","C riteria","Ġv ector","Qu ot","Or Empty","next Element","Content Type","ĠInputStream Reader","Ġt ail","ic ip","ĠD o","ĠĠĠĠĠĠĠĠĠĠĠĠĠĠĠĠĠĠĠĠĠĠĠĠĠĠĠĠĠĠĠĠ ĠĠĠĠĠĠĠĠĠ","hasMore Elements","c ancel","s o","ĠĠĠĠĠĠĠĠĠĠĠĠĠĠĠĠ ĠĠ","Ġch anges","Ġlog in","And Set","P olygon","Ġs im","Ġb ranch","ĠĠĠĠĠĠĠĠĠĠĠĠĠĠĠĠĠĠĠĠĠĠĠĠĠĠĠĠĠĠĠĠ ĠĠĠĠĠĠĠĠĠĠ","re ater","Result Set","getS ub","M ON","p op","get J","ap ache","ĠT uple","EN ABLE","ĠClass NotFoundException","Ġver tex","D A","d r","on ed","Ġvariable s","ĠFFDC Filter","C I","Ġ escape","Ġm er","ĠRe move","ac y","ĠRet urn","or ing","Ser ies","Ġy ou","m i","ĠS SL","ĠD atabase","com e","ry ption","Ġstart ed","check Argument","SER VICE","property Name","ENTI TY","pl ugin","ultip art","Ġn etwork","Collection s","M ain","] ))","De coder","ĠM em","Ġ' /","Ġde pth","Ġse conds","Stat es","R unnable","get Logger","ap ed","ĠC luster","ĠT ag","Un its","NO WN","Bound ingBox","Ġ Res","get Children","ĠS o","FF ER","EC K","S rc","S upported","_ .","get InputStream","ĠM ulti","or ies","St mt","Pro to","Ġl on","Ġse parator","Pri mary","D o","c ert","getS ession","he aders","Sc roll","Ġdig est","G B","h el","get Header","per sist","cur r","method Name","full y","Inf os","al th","Ġd river","Ġl at","Ġ' {}","Ġpath s","ĠCom p","Process ing","rig inal","Imp lement","C U","k dir","Ġpro duct","ĠP df","Ġen vironment","pro tocol","Ġclass Loader","med iate","in putStream","at io","Ġint e","Ġset up","ater ial","SC RI","CRE ATE","OutOf Bounds","get Task","Ġs om","a os","c ounter","e ad","p ret","ar r","Ġw arn","Ġbu g","ĠG roup","ron t","etail s","istrib ution","ĠOb servable","b r","c ookie","al an","Ġfor ce","art beat","ex ec","sh ould","TE MP","Start ed","Ġm ultiple","En velope","ĠC ms","ill ing","Add r","CO UN","Illegal ArgumentException","ĠUnsupported OperationException","N ormal","of t","ad ow","Re ceived","ref s","idd le","o ol","t as","ST ATUS","pared Statement","Ġm ean","rid ge","Pri ority","d st","um b","Im mutable","get Attributes","her it","SU B","initial ize","3 0","Ġp acket","In sn","il ing","Class NotFoundException","Ġ2 4","l s","Ġt uple","an o","ri ft","SE LE","ĠRe mote","DO M","ĠMet ric","ut ed","ab ilities","ĠĠĠĠĠĠĠĠĠĠĠĠĠĠĠĠĠĠĠĠĠĠĠĠĠĠĠĠĠĠĠĠ ĠĠĠĠĠĠĠĠ","Pri ce","V R","c d","e ch","get Target","Ġb etween","ĠI t","Ġro t","clus ive","al ias","Ġe qu","lo ts","(\" :","Ġen um","As set","S ame","get Element","Ġg ot","As Stream","atew ay","OutOfBounds Exception","\" +","U BLE","Ġp ixel","ĠR andom","pan ded","L ib","get Config","Ġc s","ro le","Ġre ct","Re maining","em e","Auth orization","Word s","H ook","M easure","ĠM on","pend ent","Ġprocess ing","Json Object","s pe","ren ce","Event Listener","Ġmem bers","ic ator","Ġse lector","Ġp redicate","Con tain","Re ply","Ġw rap","Index es","Ġan other","Thread s","not ify","Ġm ight","qu ires","Ġwh at","Ġun der","Sh ow","Ex it","Var s","et s","al led","Ġp erm","ot ype","Ġal gorithm","Socket Address","ĠGener ic","c ached","f lags","Ġi con","Ġe lem","ĠS ource","J s","ĠS cript","for ce","sh ake","Ġass ign","Match es","mer ge","Ġw ay","ĠV olt","D ist","F lush","ĠP ri","ĠF a","Sh eet","V M","b us","Ġp t","Ġa uto","ĠIn put","++) {","Executor Service","Ġget Log","ĠObject s","Ġpri ority","UNK NOWN","C OR","g ers","get Base","Ġh tml","file s","COL UMN","B asic","al f","id entifier","Loc ator","cur sor","TR UE","Ġgener ated","Ġc ert","Ġreturn ed","iz es","ge ometry","ĠIn stance","com ing","I F","N A","U TE","al low","Ġre ceived","Ġget Property","end point","Ġr untime","Hex String","d irectory","Ġo k","ĠĠĠĠĠĠĠĠĠĠĠĠĠĠĠĠĠĠĠĠĠĠĠĠĠĠĠĠĠĠĠĠ Ġ","Comp iler","0000 00","El se","ĠRect angle","S V","ad oop","Ann ot","Dig it","V irtual","k a","Ġ\" :\"","ug ht","Connect or","Ġm edia","ĠA PI","str ument","curs ive","ar l","ap sed","Com pletion","fa iled","ME THOD","getS uper","cal ar","C ause","d esc","k e","en ame","en able","ch unk","Char Array","Permission s","amb da","* /","ing Class","Ġp ersist","Ġg u","Sup plier","V O","Ġc atalog","In struction","ong o","ĠA ct","Ġ' .","cond ition","Ġcontent Type","GRO UP","empl ates","C andidate","pend ing","MA SK","ĠHttp ServletRequest","Ġcomponent s","PAT TERN","ĠTra ce","is m","ĠF I","Ġadd itional","Tr ue","Ġret val","Ab sent","ĠP arser","Create d","j b","Ġĉ Ġ","an os","ĠC lose","ĠN OT","ĠIllegal AccessException","item s","LIC ATION","' \",","P erson","er ved","Ġe very","ire ctories","getP ri","Ġsc ore","Match ing","Ġref resh","Equ als","C enter","s leep","ĠC oordinate","Ġnot ification","Rel ative","A ware","c u","h older","pl ied","ser vlet","Sh utdown","ĠLinked HashMap","eserial ize","get State","am ing","Ġb utton","ĠĠĠĠĠĠĠĠĠĠĠĠĠĠĠĠ Ċ","sub scri","Ġĉĉĉĉĉĉ ĉĉ","Dis k","f e","pe ek","Ġse q","REN T","m an","Ġclass path","ĠPrint Writer","in stall","Ġ* =","ĠR untime","Ind ices","ĠĠĠĠĠĠĠĠĠĠĠĠĠĠĠĠ ĠĠĠĠĠĠĠĠĠ","Error Code","ĠBig Integer","ĠMojo ExecutionException","K EN","ce ed","Un expected","Qualified Name","L oop","M gr","ro ov","Ġm o","Ġl ike","Ġex it","old ers","NON E","F ree","S ite","c enter","t ile","get Properties","col lection","Connect ed","A B","b atch","en sure","Ġĉ ĠĠĠĠĠĠĠ","Ġconfig ured","Ġc redentials","Ġs ig","ib ling","Th row","Work space","Ġnumber Of","sc an","Mar gin","O ld","T URN","l ight","er esource","Ġar ch","Ġ\"' \");","Extra ctor","Ġme ans","ce st","Ġc b","File System","AN GE","Delet ed","D T","ra cket","Ġw ere","ex pr","C ms","P ush","a a","Ġ $","in valid","Ġm ar","St amp","Re vision","Ġcontent s","ierarch y","p oll","Ġth ese","ĠS E","Method Name","With out","ĠTrans former","B ook","D ING","O perand","s m","re al","le ms","Ġc t","Filter s","Ġag greg","Man agement","roov y","I LED","Ġ ).","is Blank","Ġb oth","ĠC ON","ĠIn vocation","Ġcontrol ler","ĠImmutable List","P df","op up","Ad ded","ĠW h","Ġsc reen","EV ENT","n g","Ġf ix","Ġin crement","Ġun set","ĠForm at","( ()","N eeded","t n","ĠM an","ĠF uture","own er","Input s","ĠSt andard","Run ner","Ġimplement ation","Ġs imple","qu are","Ġcom merce","Ġneed s","Register ed","ern el","Ġfeat ures","L ONG","Ġthrow able","Ġchar acters","Ġtrans port","Ġ #","Ġb ig","iv alen",">> ()","Group Name","format Url","Operation s","PRO P","Ġf ragment","Set s","Ġan al","B ACK","f ont","m kdir","se curity","Ġ\" <","Ġd etect","ĠF ast","ca de","Ġother wise","ide o","su ccess","road cast","set tings","par ison","Del ta","w w","ĠĠĠĠĠĠĠĠ čĊ","Ġsh eet","erm ark","Http Request","Check point","Dec or","Anal ysis","en tries","get Application","Ġd es","Ġd ump","Bu ffers","Ġsh ift","n odes","ĠP redicate","Tree Node","EC TION","Ġrule s","C ycle","X Y","Re g","Ġin stall","Ġread ing","Ġag ent","Ġserial ize","Ġtri m","1 00","C over","P rivate","at ermark","get Size","Act ual","SH A","Ġinst ead","M erge","et ector","ic ode","ad ing","Ġget Instance","ir ror","Ġr c","ĠF ind","Ġsub scri","Ġcall er","Auth entic","Cl azz","requ ency","> ());","H A","_ (","g l","r ames","Ġp red","vi de","ĠA N","Ent ities","list eners","cur rency","Record s","def ined","w indow","de c","ter m","eth er","co gn","Ġup load","po sed","Ġmon th","F ACT","l ayout","ent ation","pe at","riter ion","Ġob tain","G R","Ġe ither","act ual","Ġcol lect","Le af","empty List","---------------- ----------------","Ġ[{} ]\",","m ulti","inter val","If Absent","Ġspec ial","Ġbit map","Resource Bundle","se lected","set String","Ġde ployment","EN CE","Ġstart Time","Ġab out","P aint","g b","Ġ Validation","ss u","act ivity","Ġpl an","ĠU se","D rop","P ublish","S CH","X A","Z ero","de let","Execut able","ia lect","Ġad just","Find er","F R","H igh","P R","i or","as sed","Ġb b","Ġstr ings","be fore","get Item","LA G","Ġsegment s","HT ML","C ached","get L","Ġv ert","pro gress","Ġattr s","r ong","ath er","Ġro ute","Ġwork er","C CESS","f ree","Ġn amed","IN TERNAL","ĠFile s","par able","Writ able","D ays","J AXB","t ab","Ġget String","ĠD elet","Ġgener ator","Ġmod ified","Ġover ride","Ġannotation s","ux io","al locate","Ġf ont","Re lease","Ġget Default","ron o","<?> []","parse d","ffect ive","D F","con cat","Ġen able","ign ore","ĠChar Sequence","ĠLe vel","S CO","W ITH","o se","get Boolean","Ġs pan","Ġh ex","pro tected","Graph ics","g ot","time stamp","ateg ories","Ġad apter","25 6","ĠGit Lab","P a","pro vider","SE VER","Ġfa ctor","E W","P ending","at ype","ĠL abel","ĠCom mon","oriz ont","d ist","} \",","in ate","Tr ust","r ing","w ay","Ġ 9","Ġ} )","BU FFER","Bind ings","C W","O W","b its","an ode","unn el","> >();","T S","Ġm aster","un modifiable","eth ing","oc us","Ġcl one","ick er","G ray","L ATE","P ersistence","Ġ Validate","set Type","ĠN ULL","Ed ges","Rep orter","ĠAtom ic","I t","p i","| |","() ]);","ĠB y","ĠĠĠĠĠĠĠĠĠĠĠĠĠĠĠĠĠĠĠĠĠĠĠĠĠĠĠĠĠĠĠĠ ĠĠĠĠĠĠĠĠĠĠĠĠĠĠ","Ne ighb","AV A","M M","l ib","In clude","mon itor","column s","FO UND","oci ation","U sing","Ġs afe","In jection","li ct","RO M","inter face","w rit","or Else","Ġc oord","se c","Ġd ataset","Event Type","DE D","pa int","Ġro ll","C lean","C ast","Ġc riteria","ĠĠĠĠĠĠĠĠĠĠĠĠĠĠĠĠĠĠĠĠĠĠĠĠĠĠĠĠĠĠĠĠ ĠĠĠĠĠĠĠĠĠĠĠĠĠ","ĠBuffered Image","hash Code","D one","Ġ \\","en coding","Ġf older","Ġs olution","Ġb ottom","Re ason","Act iv","S orted","S cheme","ole cule","l ayer","s chedule","w atch","Ġre g","ĠS ocket","Resource Exception","sub mit","Ġorig in","yped Array","g rid","ot ion","Ġse lection","Content s","Resol ution","get Document","ild card","ex isting","ĠB undle","RE SOURCE","Fa c","sq rt","b s","Ġ annot","Ġst age","im port","Ġcom pleted","Un signed","Ġreplace ment","Cre ator","B reak","get Log","get Client","Ġ! (","ĠT ry","Ġse ed","Ġan im","ĠCon st","Read y","vers al","O C","Ġre gex","ĠJ s","sing leton","du ce","FA IL","0 4","1 4","3 3","l as","m ask","en ch","Ġp an","Ex port","set Request","TO KEN","Ġfile Path","ac count","ĠCon trol","isNull OrEmpty","Ġ UN","get Ref","ol s","Ġd rop","ĠW rite","Ġsh ard","Ġext ernal","Ġle ss","C LI","Ġ At","Ġ Execution","Ġb us","Exception s","Ġw s","SE D","cre ase","at ic","); }","st orage","Ex change","Ġget M","ĠA ll","Sh ard","af ter","Link ed","Failed Exception","Am ount","P rivileged","re quired","Ġm s","ĠF irst","com ment","Ġon ce","Ġal pha","az on","Ġbase d","E lem","H ome","M AN","k s","Ġd ot","Qu iet","Or g","Lock ed","require NonNull","Ori gin","Ġ Queue","Re gex","Ġe mail","Ġne gative","Ġtrans former","MS G","ĠRepository Exception","C ancel","Ġ Start","iv ely","Ġk nown","Default s","Di ctionary","ĠOr der","S ur","Ġz one","b ond","Ġ Url","Ġp ublish","ĠString Writer","Config s","Check sum","ĠRel ation","ENABLE D","ing er","ent ial","Ġe st","Class path","li de","Ġcolumn Name","ĠIN DArray","2 2","Con n","ĠS c","pl an","co res","Ġup dateresource","getP ackage","(' \\","state ment","ĠEnum eration","Ġt olerance","iz ing","ĠN ow","ĠDB Constants","olym er","get ID","ĠResult Set","SELE CT","re p","Ġl et","ir cle","Ġserial izer","M ult","m ise","v als","get G","get Group","Ġp rincipal","(\" \\\"","ĠM ake","DI R","ĠJSON Array","stit ution","8 8","M X","ĠString Tokenizer","to CharArray","Th an","OR M","Ġcol l","CH ECK","SI G","Ġwait ing","C redential","D im","E valuator","Ġ( ;","()) ));","Time Zone","Spec ification","COUN T","ch ain","Ġ\" %","Ġd ue","Ġo perator","To pology","Ch anges","ĠR ule","dis play","oot er","re es","ĠC ertificate","Ġlo aded","Ġex change","ĠP ar","class es","Ġwh ether","Ġinter ceptor","table Name","Matrix RM","MatrixRM aj","5 0","S ide","d uration","v Failed","Ġn ested","Ġf inish","Con versation","Ġo wn","pl its","FA ILED","() {","Ġp opulate","ad ient","ag ent","Ġthrow n","stant iate","stanti ationException","agnost ic","g ate","Ġis Valid","ach ine","Ġr adius","log in","ĠG rid","resol ved","get Row","Ġex pect","Ġwith in","Ġne cessary","yz er","ut om","Ġs ym","ĠI Atom","Ġpro cessed","Ġg en","Ġass ignment","Rep lic","Algorithm Exception","H ER","le e","Ġre store","Dir s","Ali ve","getFirst Child","Ġfollow ing","p ayload","Ġs ite","Ġm anaged","ĠP ersistence","pos al","low er","APP LICATION","orizont al","K ER","se ct","ra se",")) {","Class Info","ay ment","ĠF eature","Base d","D U","get Table","able s","Re moved","ĠM atrix","ord inal","ĠO Auth","Service Response","ĠTh ere","Ġsub mit","ĠByteArray InputStream","ĠMod ule","Quiet ly","R out","LO AD","Change Listener","cip ient","p rivate","Ex ist","// //","PO SI","Ġ Proxy","Ġm p","Ġex port","ĠD OM","Ġat t","Ġstart Index","Layout Params","Append er","R anges","Z ER","Ġp e","Ġget Type","ĠM edia","Ġinstance s","resent ation","descri ptor","R adius","V ariant","b inary","ĠĠ Ċ","Ġc apacity","Ġm c","com mon","Ġmin imum","ĠBit map","icip ant","Ġmer ged","In st","Ġres pon","av ing","Sc anner","Ġspec ific","F eed","in er","en ari","() +\"","Con cept","Pre vious","fl at","Ġqu ot","Red irect","C ard","Pro gram",".. .\");","ens ity","b est","s pan","Ġp aint","ow er","ay ers","pro duct","tin u","Ġblock s","ĠParse Exception","ĠTR ACE","SEVER E","E E","remove All","6 0","B B","ed is","Lo w","ĠD uration","ĠO ther","act iv","Ġgener ic","Ġind ic","Attr s","Ġnormal ize","Ġ[{} ]","= '","Ġb r","sh ape","Char Sequence","Ġĉĉĉĉĉĉ ĉĉĉĉ","et SocketAddress","Ġc ipher","ĠM P","CE PTION","CON TEXT","Ġsc anner","Ġfilter s","Ġdecl ared","ĠAuth entication","Gr ant","S ig","c ision","s ole","is In","lo aded","ĠP er","Ġse en","getS ystem","Descriptor s","ĠSAX Exception","M ove","W RI","Ġc ast","Ġlabel s","O RE","d n","f p","s ymbol","Field Type","ĠV er","Client Exception","URL Exception","ĠHttp ServletResponse","No te","Get ter","Ġexp and","E AR","M AR","[ (","al k","Ġe ven","Ġr ing","ram mar","Ġdown load","V iol","get Result","Ġ\\\" \"","A ST",
[...]
